#pragma once

#ifdef __has_attribute
#define HAVE_ATTRIBUTE(x) __has_attribute(x)
#else
#define HAVE_ATTRIBUTE(x) 0
#endif
#if HAVE_ATTRIBUTE(aligned) || (defined(__GNUC__) && !defined(__clang__))
#define DATA_ALIGN_ATTRIBUTE __attribute__((aligned(4)))
#else
#define DATA_ALIGN_ATTRIBUTE
#endif

// automatically configure network
#define TF_NUM_INPUTS 15
#define TF_NUM_OUTPUTS 3
#define TF_NUM_OPS 2
#define TF_OP_SOFTMAX
#define TF_OP_FULLYCONNECTED


int expected_classes[] = {1, 0, 2, 2, 0, 0, 0, 2, 0, 1, 1, 0, 0, 0, 0, 0, 1, 1, 2, 0, 0, 1, 1, 0, 0, 1, 0, 1, 0, 0, 0, 2, 2, 0, 0, 0, 1, 0, 0, 0, 1, 0, 1, 1, 2, 0, 0, 0, 1, 1, 0, 
1, 1, 0, 0, 0, 2, 0, 2, 1, 1, 0, 1, 0, 0, 0, 1, 0, 0, 1, 0, 0, 1, 1, 1, 0, 0, 0, 1, 2, 0, 0, 0, 0, 1, 0, 0, 0, 2, 1, 2, 1, 1, 0, 1, 0, 1, 0, 0, 1};

// sample data
float samples[][15] = {
{1.0f, 0.0f, 0.0039215686274509f, 0.1f, 0.0f, 0.0f, 0.01f, 0.0f, 0.0f, 0.5f, 0.0f, 1.0f, 1.0f, 0.0019569471624266f, 0.0f},
{0.0f, 0.5274860540992238f, 0.3372549019607843f, 0.9f, 0.0f, 0.61f, 1.0f, 0.0f, 0.0f, 0.5f, 0.61f, 0.5254901960784314f, 0.0f, 0.0019569471624266f, 0.0f},
{0.0f, 0.1695557923014435f, 0.2235294117647058f, 0.9f, 0.0f, 1.0f, 1.0f, 0.0f, 0.0f, 0.0f, 1.0f, 0.0117647058823529f, 0.0f, 0.1272015655577299f, 0.0f},
{0.83f, 0.0f, 0.3372549019607843f, 0.2f, 0.0f, 0.31f, 1.0f, 0.0f, 0.1964620157074655f, 0.5f, 0.03f, 0.1137254901960784f, 1.0f, 0.0156555772994129f, 0.12f},
{0.0f, 0.3113737036329547f, 1.0f, 0.9f, 1.0f, 1.0f, 1.0f, 0.01f, 0.6790393436802554f, 0.5f, 0.01f, 0.6078431372549019f, 0.0f, 0.0078277886497064f, 0.0f},
{0.72f, 0.3859736806409068f, 0.1098039215686274f, 0.9f, 1.0f, 0.11f, 1.0f, 0.0f, 0.4223890529711506f, 0.5f, 0.0f, 1.0f, 0.0f, 0.0058708414872798f, 0.0f},
{0.0f, 0.3226249870955455f, 1.0f, 0.9f, 1.0f, 1.0f, 1.0f, 0.0f, 0.4356724332174359f, 0.5f, 0.01f, 0.592156862745098f, 0.0f, 0.0919765166340508f, 0.0f},
{0.66f, 0.0f, 0.5019607843137255f, 0.9f, 0.0f, 0.5f, 1.0f, 0.0f, 0.0f, 0.5f, 0.0f, 1.0f, 0.0f, 0.0019569471624266f, 0.0f},
{0.33f, 0.357814330511511f, 0.5058823529411764f, 0.9f, 1.0f, 0.51f, 1.0f, 0.0f, 0.411130530199611f, 0.5f, 0.0f, 1.0f, 0.0f, 0.0039138943248532f, 0.0f},
{1.0f, 0.0f, 0.0078431372549019f, 0.1f, 0.0f, 0.01f, 0.02f, 0.0f, 0.0f, 0.5f, 0.0f, 1.0f, 1.0f, 0.0039138943248532f, 0.0f},
{0.02f, 0.0f, 0.6705882352941176f, 0.5f, 0.0f, 0.73f, 1.0f, 0.69f, 0.0f, 0.5f, 0.0f, 0.9215686274509804f, 0.0f, 0.2348336594911937f, 1.0f},
{0.0f, 0.3704398841349445f, 0.2862745098039215f, 0.9f, 1.0f, 0.16f, 1.0f, 0.0f, 0.9073782554431132f, 0.5f, 0.03f, 0.1490196078431372f, 0.0f, 0.0019569471624266f, 0.0f},
{0.0f, 0.3263993851108594f, 1.0f, 0.9f, 1.0f, 1.0f, 1.0f, 0.0f, 0.5804559990533295f, 0.5f, 0.01f, 0.2784313725490196f, 0.0f, 0.0156555772994129f, 0.0f},
{0.0f, 0.2988423745623338f, 1.0f, 0.9f, 1.0f, 1.0f, 1.0f, 0.0f, 0.4600316354940863f, 0.5f, 0.0f, 1.0f, 0.0f, 0.0469667318982387f, 0.0f},
{0.0f, 0.3068293052922314f, 1.0f, 0.9f, 1.0f, 1.0f, 1.0f, 0.0f, 0.5417428956796678f, 0.5f, 0.03f, 0.1372549019607843f, 0.0f, 0.0313111545988258f, 0.0f},
{0.0f, 0.2132250094058222f, 1.0f, 0.9f, 0.0f, 1.0f, 1.0f, 0.0f, 0.2697351323185535f, 1.0f, 1.0f, 1.0f, 0.0f, 0.9882583170254402f, 0.0f},
{1.0f, 0.0f, 0.0705882352941176f, 0.1f, 0.0f, 0.07f, 0.09f, 0.0f, 0.0f, 0.5f, 0.0f, 1.0f, 1.0f, 0.035225048923679f, 0.0f},
{1.0f, 0.0f, 0.0745098039215686f, 0.1f, 0.0f, 0.07f, 0.16f, 0.0f, 0.0f, 0.5f, 0.0f, 1.0f, 1.0f, 0.0371819960861056f, 0.0f},
{0.0f, 0.0f, 0.3411764705882353f, 0.5f, 0.0f, 0.34f, 1.0f, 1.0f, 0.0f, 0.5f, 0.01f, 1.0f, 0.0f, 0.0019569471624266f, 1.0f},
{0.0f, 0.2942326136331429f, 1.0f, 0.9f, 1.0f, 1.0f, 1.0f, 0.0f, 0.5320628520300201f, 0.5f, 0.0f, 1.0f, 0.0f, 0.0332681017612524f, 0.0f},
{0.0f, 0.3134139347705576f, 1.0f, 0.9f, 1.0f, 1.0f, 1.0f, 0.0f, 0.5317903931073389f, 0.5f, 0.03f, 0.1411764705882353f, 0.0f, 0.035225048923679f, 0.0f},
{1.0f, 0.0f, 0.0313725490196078f, 0.1f, 0.0f, 0.03f, 0.07f, 0.0f, 0.0f, 0.5f, 0.0f, 1.0f, 1.0f, 0.0156555772994129f, 0.0f},
{1.0f, 0.0f, 0.0509803921568627f, 0.2f, 0.0f, 0.05f, 0.05f, 0.0f, 0.0f, 0.5f, 0.0f, 1.0f, 1.0f, 0.0254403131115459f, 0.0f},
{0.0f, 0.3167194961006819f, 1.0f, 0.9f, 1.0f, 1.0f, 1.0f, 0.0f, 0.6214838579798935f, 0.5f, 0.01f, 0.7058823529411764f, 0.0f, 0.0900195694716242f, 0.0f},
{0.0f, 0.3178408510645715f, 1.0f, 0.9f, 1.0f, 1.0f, 1.0f, 0.0f, 0.4314617672530678f, 0.5f, 0.0f, 1.0f, 0.0f, 0.0136986301369863f, 0.0f},
{0.0f, 0.3483957423425758f, 0.2313725490196078f, 0.9f, 0.0f, 1.0f, 1.0f, 0.0f, 0.0f, 0.0f, 1.0f, 0.1803921568627451f, 0.0f, 1.0f, 0.0f},
{0.0f, 0.2231767271014228f, 1.0f, 0.9f, 0.0f, 1.0f, 1.0f, 0.0f, 0.279979969361224f, 1.0f, 0.83f, 1.0f, 0.0f, 1.0f, 0.0f},
{0.07f, 0.6265830433917299f, 0.9333333333333332f, 0.4f, 1.0f, 0.99f, 1.0f, 0.0f, 0.0491155039268663f, 0.5f, 0.0f, 0.9450980392156862f, 1.0f, 0.0234833659491193f, 0.0f},
{0.0f, 0.3664894923903333f, 0.3215686274509803f, 0.9f, 1.0f, 0.52f, 1.0f, 0.01f, 0.3997781664116736f, 0.5f, 0.01f, 0.6196078431372549f, 0.0f, 0.0039138943248532f, 0.0f},
{0.0f, 0.318025567922756f, 1.0f, 0.9f, 1.0f, 1.0f, 1.0f, 0.05f, 0.7010181439421433f, 0.5f, 0.05f, 0.0784313725490196f, 0.0f, 0.0293542074363992f, 0.0f},
{0.01f, 0.0386028094012785f, 0.0117647058823529f, 0.9f, 0.0f, 0.01f, 0.08f, 0.0f, 0.0491155039268663f, 1.0f, 0.99f, 1.0f, 0.0f, 0.0058708414872798f, 0.0f},
{0.96f, 0.0f, 0.0039215686274509f, 0.1f, 0.0f, 0.0f, 0.0f, 0.0f, 0.0f, 0.5f, 0.0f, 1.0f, 0.92f, 0.0019569471624266f, 0.0f},
{0.89f, 0.0f, 0.2313725490196078f, 0.2f, 0.0f, 0.24f, 0.5f, 0.01f, 0.2697351323185535f, 0.5f, 0.01f, 0.7254901960784313f, 1.0f, 0.0039138943248532f, 0.0f},
{0.0f, 0.2977915493931328f, 1.0f, 0.9f, 1.0f, 1.0f, 1.0f, 0.0f, 0.6706488346402784f, 0.5f, 0.0f, 1.0f, 0.0f, 0.0215264187866927f, 0.0f},
{0.0f, 0.2107493982135692f, 0.996078431372549f, 0.9f, 0.0f, 1.0f, 1.0f, 0.0f, 0.303038975636811f, 1.0f, 0.0f, 1.0f, 0.0f, 0.2211350293542074f, 0.0f},
{0.0f, 0.6343013400762022f, 0.4470588235294117f, 0.9f, 0.0f, 0.38f, 1.0f, 0.0f, 0.0f, 0.5f, 0.38f, 0.796078431372549f, 0.0f, 0.0293542074363992f, 0.0f},
{0.0f, 0.0f, 0.0313725490196078f, 0.5f, 0.0f, 0.03f, 0.06f, 1.0f, 0.0f, 0.5f, 0.0f, 1.0f, 0.0f, 0.0156555772994129f, 1.0f},
{0.0f, 0.3134139347705576f, 1.0f, 0.9f, 1.0f, 1.0f, 1.0f, 0.0f, 0.6030764941678928f, 0.5f, 0.08f, 0.0509803921568627f, 0.0f, 0.0254403131115459f, 0.0f},
{0.0f, 0.3215967963837532f, 1.0f, 0.9f, 1.0f, 1.0f, 1.0f, 0.03f, 0.5602737046695786f, 0.5f, 0.03f, 0.1137254901960784f, 0.0f, 0.0724070450097847f, 0.05f},
{0.0f, 0.3239670299065578f, 1.0f, 0.9f, 1.0f, 1.0f, 1.0f, 0.0f, 0.5725331290143713f, 0.5f, 0.0f, 1.0f, 0.0f, 0.0978473581213307f, 0.0f},
{1.0f, 0.0f, 0.0313725490196078f, 0.1f, 0.0f, 0.03f, 0.03f, 0.0f, 0.0f, 0.5f, 0.0f, 1.0f, 1.0f, 0.0156555772994129f, 0.0f},
{0.0f, 0.3040556824341893f, 1.0f, 0.9f, 1.0f, 1.0f, 1.0f, 0.0f, 0.5727084676598451f, 0.5f, 0.0f, 1.0f, 0.0f, 0.0410958904109589f, 0.0f},
{0.0f, 0.0f, 0.0235294117647058f, 0.5f, 0.0f, 0.02f, 0.02f, 1.0f, 0.0f, 0.5f, 0.0f, 1.0f, 0.0f, 0.0117416829745596f, 1.0f},
{0.06f, 0.6074172723998263f, 0.9803921568627452f, 0.9f, 1.0f, 0.98f, 1.0f, 0.0f, 0.639557561307564f, 0.5f, 0.0f, 1.0f, 0.0f, 0.0469667318982387f, 0.0f},
{0.0f, 0.0f, 0.3372549019607843f, 0.5f, 0.0f, 0.34f, 1.0f, 1.0f, 0.0f, 0.5f, 0.01f, 0.3568627450980392f, 0.0f, 0.0234833659491193f, 0.33f},
{0.0f, 0.2144227347437785f, 1.0f, 0.9f, 0.0f, 1.0f, 1.0f, 0.0f, 0.271292528943008f, 1.0f, 0.26f, 1.0f, 0.0f, 0.1330724070450097f, 0.0f},
{0.0f, 0.3210754938409553f, 0.611764705882353f, 0.9f, 1.0f, 1.0f, 1.0f, 0.0f, 0.438782718444716f, 0.5f, 0.33f, 0.0117647058823529f, 0.0f, 0.0313111545988258f, 0.0f},
{0.0f, 0.3090395986107279f, 0.9450980392156862f, 0.9f, 1.0f, 0.95f, 1.0f, 0.0f, 0.6024750222570332f, 0.5f, 0.0f, 1.0f, 0.0f, 0.0802348336594911f, 0.0f},
{1.0f, 0.0f, 0.0274509803921568f, 0.1f, 0.0f, 0.03f, 0.03f, 0.0f, 0.0f, 0.5f, 0.0f, 1.0f, 1.0f, 0.0136986301369863f, 0.0f},
{1.0f, 0.0f, 0.0117647058823529f, 0.1f, 0.0f, 0.01f, 0.01f, 0.0f, 0.0f, 0.5f, 0.0f, 1.0f, 1.0f, 0.0058708414872798f, 0.0f},
{0.0f, 0.302857957096233f, 1.0f, 0.9f, 1.0f, 1.0f, 1.0f, 0.0f, 0.4417622015476655f, 0.5f, 0.05f, 0.0823529411764705f, 0.0f, 0.0019569471624266f, 0.0f},
{1.0f, 0.0f, 0.0313725490196078f, 0.1f, 0.0f, 0.03f, 0.03f, 0.0f, 0.0f, 0.5f, 0.0f, 1.0f, 1.0f, 0.0156555772994129f, 0.0f},
{0.12f, 0.0f, 0.8509803921568627f, 0.9f, 0.0f, 0.85f, 1.0f, 0.33f, 0.2697351323185535f, 0.5f, 0.0f, 1.0f, 0.0f, 0.0019569471624266f, 0.0f},
{0.0f, 0.3144066897865915f, 1.0f, 0.9f, 1.0f, 1.0f, 1.0f, 0.0f, 0.4240139095058937f, 0.5f, 0.0f, 1.0f, 0.0f, 0.0156555772994129f, 0.0f},
{0.0f, 0.3038181891886253f, 0.7725490196078432f, 0.9f, 1.0f, 0.77f, 1.0f, 0.0f, 0.546620343721968f, 0.5f, 0.0f, 1.0f, 0.0f, 0.0058708414872798f, 0.0f},
{0.0f, 0.3092558788114318f, 1.0f, 0.9f, 1.0f, 1.0f, 1.0f, 0.0f, 0.6428705631287633f, 0.5f, 0.0f, 1.0f, 0.0f, 0.0391389432485322f, 0.0f},
{0.89f, 0.0f, 0.0039215686274509f, 0.1f, 0.0f, 0.0f, 0.0f, 0.1f, 0.0f, 0.5f, 0.0f, 1.0f, 0.83f, 0.0019569471624266f, 0.0f},
{0.0f, 0.2991020117770513f, 1.0f, 0.9f, 1.0f, 1.0f, 1.0f, 0.0f, 0.4585124016248001f, 0.5f, 0.0f, 1.0f, 0.0f, 0.0587084148727984f, 0.0f},
{0.91f, 0.0f, 0.3333333333333333f, 0.1f, 0.0f, 0.29f, 0.25f, 0.02f, 0.0f, 0.5f, 0.01f, 0.4156862745098039f, 1.0f, 0.0117416829745596f, 0.0f},
{1.0f, 0.0f, 0.0509803921568627f, 0.1f, 0.0f, 0.05f, 0.12f, 0.0f, 0.0f, 0.5f, 0.0f, 1.0f, 1.0f, 0.0254403131115459f, 0.0f},
{0.0f, 0.0f, 0.0039215686274509f, 0.5f, 0.0f, 0.0f, 0.01f, 1.0f, 0.0f, 0.5f, 0.0f, 1.0f, 0.0f, 0.0019569471624266f, 1.0f},
{0.0f, 0.2961771731216651f, 1.0f, 0.9f, 1.0f, 1.0f, 1.0f, 0.0f, 0.4591674943703429f, 0.5f, 0.0f, 1.0f, 0.0f, 0.0371819960861056f, 0.0f},
{1.0f, 0.0f, 0.0549019607843137f, 0.1f, 0.0f, 0.05f, 0.06f, 0.0f, 0.0f, 0.5f, 0.0f, 1.0f, 1.0f, 0.0273972602739726f, 0.0f},
{0.0f, 0.0f, 0.5725490196078431f, 0.9f, 1.0f, 0.8f, 1.0f, 0.0f, 0.3139618914802666f, 0.5f, 0.02f, 0.2392156862745098f, 0.0f, 0.0039138943248532f, 0.0f},
{0.0f, 0.3191211851915002f, 1.0f, 0.9f, 1.0f, 1.0f, 1.0f, 0.0f, 0.4382007135797595f, 0.5f, 0.1f, 0.0392156862745098f, 0.0f, 0.0039138943248532f, 0.0f},
{0.0f, 0.3214235704845679f, 0.992156862745098f, 0.9f, 1.0f, 1.0f, 1.0f, 0.0f, 0.5257276179943207f, 0.5f, 0.01f, 0.3333333333333333f, 0.0f, 0.0587084148727984f, 0.0f},
{1.0f, 0.0f, 0.0117647058823529f, 0.1f, 0.0f, 0.01f, 0.01f, 0.0f, 0.0f, 0.5f, 0.0f, 1.0f, 1.0f, 0.0058708414872798f, 0.0f},
{0.0f, 0.2993604441743736f, 1.0f, 0.9f, 1.0f, 1.0f, 1.0f, 0.0f, 0.4298364966003348f, 0.5f, 0.03f, 0.1568627450980392f, 0.0f, 0.0019569471624266f, 0.0f},
{0.0f, 0.327654471054213f, 1.0f, 0.9f, 1.0f, 1.0f, 1.0f, 0.0f, 0.5820278981584915f, 0.5f, 0.01f, 0.3176470588235294f, 0.0f, 0.0215264187866927f, 0.0f},
{0.11f, 0.0f, 0.2627450980392157f, 0.9f, 0.0f, 0.26f, 1.0f, 0.0f, 0.1964620157074655f, 0.5f, 0.0f, 1.0f, 0.0f, 0.0019569471624266f, 0.0f},
{0.0f, 0.3119936589961097f, 1.0f, 0.9f, 1.0f, 1.0f, 1.0f, 0.0f, 0.5098415762050612f, 0.5f, 0.14f, 0.0274509803921568f, 0.0f, 0.0039138943248532f, 0.0f},
{0.0f, 0.3242975476819216f, 1.0f, 0.9f, 1.0f, 1.0f, 1.0f, 0.0f, 0.4002789366510003f, 0.5f, 0.0f, 1.0f, 0.0f, 0.0567514677103718f, 0.0f},
{0.99f, 0.0f, 0.0745098039215686f, 0.1f, 0.0f, 0.07f, 0.07f, 0.01f, 0.0f, 0.5f, 0.0f, 1.0f, 0.99f, 0.0371819960861056f, 0.0f},
{1.0f, 0.0f, 0.0235294117647058f, 0.1f, 0.0f, 0.02f, 0.03f, 0.0f, 0.0f, 0.5f, 0.0f, 1.0f, 1.0f, 0.0117416829745596f, 0.0f},
{0.0f, 0.4065785283303523f, 0.0980392156862745f, 0.9f, 0.0f, 1.0f, 1.0f, 0.0f, 0.0f, 0.0f, 1.0f, 0.0039215686274509f, 0.0f, 0.0019569471624266f, 0.0f},
{0.0f, 0.30038234590398f, 0.984313725490196f, 0.9f, 1.0f, 1.0f, 1.0f, 0.0f, 0.5086623574118299f, 0.5f, 0.25f, 0.0156862745098039f, 0.0f, 0.0078277886497064f, 0.0f},
{0.0f, 0.3094713223361544f, 1.0f, 0.9f, 1.0f, 1.0f, 1.0f, 0.0f, 0.4903897440207246f, 0.5f, 0.0f, 1.0f, 0.0f, 0.0508806262230919f, 0.0f},
{0.0f, 0.3221132645211429f, 1.0f, 0.9f, 1.0f, 1.0f, 1.0f, 0.0f, 0.4958405121162431f, 0.5f, 0.01f, 0.2705882352941176f, 0.0f, 0.0156555772994129f, 0.0f},
{1.0f, 0.0f, 0.2431372549019607f, 0.2f, 0.0f, 0.24f, 0.33f, 0.0f, 0.0f, 0.5f, 0.0f, 1.0f, 1.0f, 0.0371819960861056f, 0.0f},
{0.88f, 0.0f, 0.2352941176470588f, 0.2f, 1.0f, 0.24f, 0.33f, 0.0f, 0.255864927236376f, 0.5f, 0.01f, 0.7411764705882353f, 1.0f, 0.0136986301369863f, 0.0f},
{0.0f, 0.3045276520528425f, 1.0f, 0.9f, 1.0f, 1.0f, 1.0f, 0.0f, 0.656116885515093f, 0.5f, 0.0f, 1.0f, 0.0f, 0.0058708414872798f, 0.0f},
{0.0f, 0.4142590631789739f, 0.0274509803921568f, 0.9f, 0.0f, 0.19f, 1.0f, 0.0f, 0.0f, 0.5f, 0.19f, 0.1411764705882353f, 0.0f, 0.0019569471624266f, 0.0f},
{0.0f, 0.3226249870955455f, 1.0f, 0.9f, 1.0f, 1.0f, 1.0f, 0.0f, 0.4828696095391896f, 0.5f, 0.07f, 0.0549019607843137f, 0.0f, 0.0293542074363992f, 0.0f},
{0.0f, 0.3183931737570241f, 1.0f, 0.9f, 1.0f, 1.0f, 1.0f, 0.0f, 0.5621784845826935f, 0.5f, 0.0f, 1.0f, 0.0f, 0.0156555772994129f, 0.0f},
{1.0f, 0.0f, 0.0156862745098039f, 0.1f, 0.0f, 0.02f, 0.04f, 0.0f, 0.0f, 0.5f, 0.0f, 1.0f, 1.0f, 0.0078277886497064f, 0.0f},
{0.0f, 0.0f, 0.0980392156862745f, 0.9f, 1.0f, 0.23f, 1.0f, 0.0f, 0.3139618914802666f, 0.5f, 0.01f, 0.4313725490196078f, 0.0f, 0.0019569471624266f, 0.0f},
{0.0f, 0.3144066897865915f, 1.0f, 0.9f, 1.0f, 1.0f, 1.0f, 0.0f, 0.5965692114716159f, 0.5f, 0.01f, 0.3764705882352941f, 0.0f, 0.0117416829745596f, 0.0f},
{0.0f, 0.2120009583374359f, 0.992156862745098f, 0.9f, 0.0f, 0.99f, 1.0f, 0.0f, 0.3356008363225545f, 1.0f, 0.0f, 1.0f, 0.0f, 0.009784735812133f, 0.0f},
{0.0f, 0.0f, 0.0039215686274509f, 1.0f, 0.0f, 0.03f, 1.0f, 1.0f, 0.0f, 0.5f, 1.0f, 0.1176470588235294f, 0.0f, 0.0019569471624266f, 1.0f},
{1.0f, 0.0f, 0.0274509803921568f, 0.2f, 0.0f, 0.03f, 0.06f, 0.0f, 0.0f, 0.5f, 0.0f, 1.0f, 1.0f, 0.0136986301369863f, 0.0f},
{0.99f, 0.0f, 0.0039215686274509f, 0.5f, 0.0f, 0.0f, 0.0f, 0.01f, 0.0f, 0.5f, 0.0f, 1.0f, 0.99f, 0.0019569471624266f, 1.0f},
{1.0f, 0.0f, 0.0235294117647058f, 0.1f, 0.0f, 0.02f, 0.03f, 0.0f, 0.0f, 0.5f, 0.0f, 1.0f, 1.0f, 0.0117416829745596f, 0.0f},
{1.0f, 0.0f, 0.0588235294117647f, 0.1f, 0.0f, 0.06f, 0.14f, 0.0f, 0.0f, 0.5f, 0.0f, 1.0f, 1.0f, 0.0293542074363992f, 0.0f},
{0.0f, 0.3844840562199903f, 0.1647058823529411f, 0.9f, 1.0f, 0.66f, 1.0f, 0.0f, 0.411130530199611f, 0.5f, 0.02f, 0.2431372549019607f, 0.0f, 0.0019569471624266f, 0.0f},
{1.0f, 0.0f, 0.0470588235294117f, 0.1f, 0.0f, 0.05f, 0.05f, 0.0f, 0.0f, 0.5f, 0.0f, 1.0f, 1.0f, 0.0234833659491193f, 0.0f},
{0.0f, 0.2945145994593159f, 0.8980392156862745f, 0.9f, 1.0f, 1.0f, 1.0f, 0.0f, 0.532334267331836f, 0.5f, 0.04f, 0.1019607843137254f, 0.0f, 0.0039138943248532f, 0.0f},
{1.0f, 0.0f, 0.0392156862745098f, 0.1f, 0.0f, 0.04f, 0.09f, 0.0f, 0.0f, 0.5f, 0.0f, 1.0f, 1.0f, 0.0195694716242661f, 0.0f},
{0.0f, 0.3030995717124557f, 1.0f, 0.9f, 1.0f, 1.0f, 1.0f, 0.0f, 0.4774566853764055f, 0.5f, 0.04f, 0.0980392156862745f, 0.0f, 0.0489236790606653f, 0.0f},
{0.0f, 0.283338830695329f, 0.592156862745098f, 0.9f, 1.0f, 1.0f, 1.0f, 0.0f, 0.6769136464169742f, 0.5f, 0.01f, 0.592156862745098f, 0.0f, 0.0019569471624266f, 0.0f},
{1.0f, 0.0f, 0.0588235294117647f, 0.1f, 0.0f, 0.06f, 0.07f, 0.0f, 0.0f, 0.5f, 0.0f, 1.0f, 1.0f, 0.0293542074363992f, 0.0f}
};

/** model size = 8328 bytes **/
const unsigned char snn_model[] DATA_ALIGN_ATTRIBUTE = { 0x1c, 0x00, 0x00, 0x00, 0x54, 0x46, 0x4c, 0x33, 0x14, 0x00, 0x20, 0x00, 0x1c, 0x00, 0x18, 0x00, 0x14, 0x00, 0x10, 0x00, 0x0c, 0x00, 0x00, 0x00, 0x08, 0x00, 0x04, 0x00, 0x14, 0x00, 0x00, 0x00, 0x1c, 0x00, 0x00, 0x00, 0x90, 
0x00, 0x00, 0x00, 0xe8, 0x00, 0x00, 0x00, 0x58, 0x1a, 0x00, 0x00, 0x68, 0x1a, 0x00, 0x00, 0x24, 0x20, 0x00, 0x00, 0x03, 0x00, 0x00, 0x00, 0x01, 0x00, 0x00, 0x00, 0x10, 0x00, 0x00, 0x00, 0x00, 0x00, 0x0a, 0x00, 0x10, 0x00, 0x0c, 0x00, 0x08, 0x00, 0x04, 0x00, 0x0a, 0x00, 0x00, 0x00, 
0x0c, 0x00, 0x00, 0x00, 0x1c, 0x00, 0x00, 0x00, 0x38, 0x00, 0x00, 0x00, 0x0f, 0x00, 0x00, 0x00, 0x73, 0x65, 0x72, 0x76, 0x69, 0x6e, 0x67, 0x5f, 0x64, 0x65, 0x66, 0x61, 0x75, 0x6c, 0x74, 0x00, 0x01, 0x00, 0x00, 0x00, 0x04, 0x00, 0x00, 0x00, 0x98, 0xff, 0xff, 0xff, 0x0a, 0x00, 0x00, 
0x00, 0x04, 0x00, 0x00, 0x00, 0x07, 0x00, 0x00, 0x00, 0x64, 0x65, 0x6e, 0x73, 0x65, 0x5f, 0x32, 0x00, 0x01, 0x00, 0x00, 0x00, 0x04, 0x00, 0x00, 0x00, 0x8a, 0xe5, 0xff, 0xff, 0x04, 0x00, 0x00, 0x00, 0x0b, 0x00, 0x00, 0x00, 0x64, 0x65, 0x6e, 0x73, 0x65, 0x5f, 0x69, 0x6e, 0x70, 0x75, 
0x74, 0x00, 0x02, 0x00, 0x00, 0x00, 0x34, 0x00, 0x00, 0x00, 0x04, 0x00, 0x00, 0x00, 0xdc, 0xff, 0xff, 0xff, 0x0d, 0x00, 0x00, 0x00, 0x04, 0x00, 0x00, 0x00, 0x13, 0x00, 0x00, 0x00, 0x43, 0x4f, 0x4e, 0x56, 0x45, 0x52, 0x53, 0x49, 0x4f, 0x4e, 0x5f, 0x4d, 0x45, 0x54, 0x41, 0x44, 0x41, 
0x54, 0x41, 0x00, 0x08, 0x00, 0x0c, 0x00, 0x08, 0x00, 0x04, 0x00, 0x08, 0x00, 0x00, 0x00, 0x0c, 0x00, 0x00, 0x00, 0x04, 0x00, 0x00, 0x00, 0x13, 0x00, 0x00, 0x00, 0x6d, 0x69, 0x6e, 0x5f, 0x72, 0x75, 0x6e, 0x74, 0x69, 0x6d, 0x65, 0x5f, 0x76, 0x65, 0x72, 0x73, 0x69, 0x6f, 0x6e, 0x00, 
0x0e, 0x00, 0x00, 0x00, 0x6c, 0x19, 0x00, 0x00, 0x64, 0x19, 0x00, 0x00, 0x04, 0x19, 0x00, 0x00, 0xe8, 0x18, 0x00, 0x00, 0x34, 0x18, 0x00, 0x00, 0x88, 0x0e, 0x00, 0x00, 0xa8, 0x01, 0x00, 0x00, 0xa8, 0x00, 0x00, 0x00, 0xa0, 0x00, 0x00, 0x00, 0x98, 0x00, 0x00, 0x00, 0x90, 0x00, 0x00, 
0x00, 0x88, 0x00, 0x00, 0x00, 0x68, 0x00, 0x00, 0x00, 0x04, 0x00, 0x00, 0x00, 0x3a, 0xe6, 0xff, 0xff, 0x04, 0x00, 0x00, 0x00, 0x54, 0x00, 0x00, 0x00, 0x0c, 0x00, 0x00, 0x00, 0x08, 0x00, 0x0e, 0x00, 0x08, 0x00, 0x04, 0x00, 0x08, 0x00, 0x00, 0x00, 0x10, 0x00, 0x00, 0x00, 0x24, 0x00, 
0x00, 0x00, 0x00, 0x00, 0x06, 0x00, 0x08, 0x00, 0x04, 0x00, 0x06, 0x00, 0x00, 0x00, 0x04, 0x00, 0x00, 0x00, 0x00, 0x00, 0x00, 0x00, 0x00, 0x00, 0x0a, 0x00, 0x10, 0x00, 0x0c, 0x00, 0x08, 0x00, 0x04, 0x00, 0x0a, 0x00, 0x00, 0x00, 0x02, 0x00, 0x00, 0x00, 0x02, 0x00, 0x00, 0x00, 0x04, 
0x00, 0x00, 0x00, 0x06, 0x00, 0x00, 0x00, 0x32, 0x2e, 0x31, 0x32, 0x2e, 0x31, 0x00, 0x00, 0x9a, 0xe6, 0xff, 0xff, 0x04, 0x00, 0x00, 0x00, 0x10, 0x00, 0x00, 0x00, 0x31, 0x2e, 0x35, 0x2e, 0x30, 0x00, 0x00, 0x00, 0x00, 0x00, 0x00, 0x00, 0x00, 0x00, 0x00, 0x00, 0xa8, 0xe1, 0xff, 0xff, 
0xac, 0xe1, 0xff, 0xff, 0xb0, 0xe1, 0xff, 0xff, 0xb4, 0xe1, 0xff, 0xff, 0xc6, 0xe6, 0xff, 0xff, 0x04, 0x00, 0x00, 0x00, 0xf0, 0x00, 0x00, 0x00, 0xdf, 0x64, 0xad, 0xbf, 0xc5, 0x85, 0x30, 0xbe, 0x73, 0xcf, 0x8f, 0xbf, 0x4c, 0xdc, 0x58, 0x3f, 0xde, 0x4c, 0x2b, 0x3f, 0x0b, 0x4d, 0x0a, 
0x3e, 0xf0, 0x49, 0x30, 0x3f, 0xef, 0x9f, 0xbb, 0xbf, 0x06, 0x33, 0x74, 0xbf, 0xb7, 0xd0, 0x39, 0x3f, 0x86, 0x23, 0x64, 0xbf, 0x47, 0xdb, 0x7d, 0x3f, 0x2b, 0x87, 0x8a, 0x3e, 0xc6, 0x98, 0x39, 0x3d, 0xfd, 0x67, 0x2e, 0x3f, 0x9d, 0xbd, 0x88, 0xbf, 0x10, 0xf4, 0x8b, 0x3e, 0x80, 0x4a, 
0xf3, 0x3b, 0x1c, 0x05, 0x55, 0x3e, 0x48, 0x74, 0x8c, 0xbf, 0x21, 0x25, 0x85, 0x3f, 0x13, 0x87, 0x1f, 0x3f, 0x91, 0x9c, 0xb7, 0xbe, 0x76, 0xd1, 0x4d, 0xbf, 0x5d, 0xad, 0x51, 0xbf, 0x06, 0x20, 0xa8, 0xbf, 0x8f, 0x56, 0x5f, 0xbf, 0xbe, 0x55, 0x07, 0x3f, 0xcc, 0x8e, 0x59, 0x3f, 0xa0, 
0xd5, 0x4e, 0x3f, 0x06, 0x2c, 0x85, 0x3f, 0xd5, 0x2b, 0x13, 0xbf, 0x59, 0x7d, 0x1f, 0xbd, 0xf6, 0x1e, 0x20, 0x3f, 0x74, 0x19, 0xf1, 0x3e, 0x8e, 0xce, 0x7d, 0x3f, 0xf2, 0x5d, 0xfa, 0xbe, 0x50, 0x36, 0x29, 0x3d, 0x04, 0xbc, 0x83, 0xbf, 0x01, 0x13, 0x04, 0x40, 0x51, 0x44, 0xc9, 0x3e, 
0x77, 0xb7, 0xbc, 0xbf, 0x70, 0x7d, 0x4e, 0x3f, 0x48, 0xcd, 0x96, 0xbe, 0x14, 0x6f, 0x22, 0x3f, 0x0b, 0xae, 0x7a, 0x3f, 0x85, 0x79, 0x16, 0x3e, 0x93, 0x8f, 0x3c, 0x3f, 0xf2, 0x95, 0xbf, 0x3e, 0xe0, 0x21, 0xf9, 0xbf, 0xfc, 0x47, 0x98, 0xbd, 0x38, 0x7f, 0x29, 0xbf, 0x6d, 0x35, 0x51, 
0xbf, 0x9b, 0x78, 0xa4, 0xbf, 0x0a, 0x15, 0x53, 0xbf, 0x7a, 0xaa, 0x5a, 0xbc, 0x8e, 0x92, 0x27, 0xbf, 0xa0, 0xb8, 0x5d, 0xbc, 0xfc, 0x1a, 0x13, 0x3f, 0x50, 0x71, 0x09, 0xc0, 0xc2, 0xe7, 0xff, 0xff, 0x04, 0x00, 0x00, 0x00, 0xd0, 0x0c, 0x00, 0x00, 0x81, 0x5d, 0xef, 0x3e, 0x92, 0x4f, 
0xf0, 0xbe, 0x36, 0x80, 0xcf, 0xbe, 0x12, 0xf5, 0x2b, 0x3e, 0x97, 0x16, 0x6b, 0x3c, 0x12, 0xc4, 0x1c, 0xbe, 0x52, 0x6d, 0x52, 0x3f, 0x21, 0xbb, 0x0d, 0x3f, 0xd3, 0x69, 0x0a, 0xbf, 0x13, 0xe1, 0x98, 0xbe, 0x62, 0x52, 0x15, 0xbd, 0xae, 0x73, 0x12, 0xbe, 0xcb, 0xfe, 0x45, 0x3e, 0x53, 
0xb8, 0xc2, 0xbe, 0xac, 0x22, 0x06, 0xbf, 0xf7, 0xbe, 0x4e, 0xbe, 0xc6, 0x8b, 0x75, 0xbe, 0x3c, 0x15, 0xfc, 0x3d, 0x7a, 0xff, 0xdd, 0xbe, 0xac, 0x34, 0x5b, 0x3f, 0xdf, 0x2d, 0xda, 0xbe, 0xcd, 0xae, 0x86, 0x3e, 0x9e, 0x35, 0x1e, 0xbf, 0x76, 0x94, 0x04, 0x3f, 0xb6, 0xde, 0x84, 0xbf, 
0x6a, 0xef, 0x03, 0x3f, 0x82, 0x5e, 0xb5, 0x3e, 0xa8, 0x13, 0x84, 0xbe, 0x24, 0x1a, 0x5c, 0x3f, 0x35, 0x82, 0x7d, 0x3e, 0xe2, 0x5e, 0x24, 0xbe, 0x04, 0x9f, 0x0a, 0xbf, 0x1c, 0xc7, 0x2a, 0xbf, 0x1f, 0xd2, 0xa8, 0xbe, 0xae, 0xcd, 0xcd, 0x3e, 0x42, 0x10, 0x32, 0xbc, 0x3e, 0xf2, 0xd2, 
0xbe, 0x96, 0x35, 0x0b, 0x3f, 0xf9, 0xb8, 0xa3, 0xbf, 0x81, 0x77, 0xb2, 0x3e, 0xb2, 0x7a, 0xb3, 0x3e, 0xfa, 0x63, 0x3a, 0xbf, 0xb0, 0x15, 0x8f, 0xbe, 0x85, 0xec, 0x86, 0xbd, 0x07, 0xac, 0x89, 0xbe, 0xb3, 0xe5, 0x82, 0x3e, 0x3e, 0x35, 0x6a, 0xbd, 0x1e, 0x34, 0x7c, 0x3e, 0xaf, 0x39, 
0xb8, 0xbe, 0x1c, 0x0a, 0xce, 0xbc, 0x88, 0x6a, 0xf4, 0xbe, 0x64, 0x3f, 0x28, 0xbf, 0xc9, 0x8a, 0x3e, 0xbe, 0xc3, 0x73, 0xe0, 0x3e, 0xf7, 0x77, 0xcd, 0xbd, 0xed, 0xbe, 0x72, 0x3f, 0xee, 0xd0, 0x67, 0x3e, 0x78, 0x8b, 0x50, 0x3d, 0x65, 0x6e, 0x3c, 0xbe, 0xfd, 0xf4, 0x6d, 0xbc, 0xa3, 
0x32, 0xf5, 0x3e, 0xd3, 0xf5, 0xae, 0x3f, 0x40, 0x03, 0xc8, 0xbf, 0xd0, 0x16, 0x7d, 0x3e, 0x7e, 0xe6, 0x8a, 0x3e, 0xa1, 0xe4, 0x48, 0xbd, 0x56, 0x72, 0xe3, 0x3d, 0xb6, 0xaf, 0x8a, 0x3f, 0x3e, 0xc7, 0x26, 0x3f, 0x1d, 0x80, 0xc4, 0x3e, 0xf7, 0xce, 0xd3, 0xbe, 0x09, 0x34, 0x18, 0xbf, 
0x92, 0x0b, 0xaf, 0x3e, 0x57, 0x96, 0x1d, 0xbe, 0x31, 0x3d, 0xba, 0xbe, 0xa9, 0x86, 0x60, 0xbe, 0x39, 0xbc, 0x0f, 0x3f, 0xc9, 0xc2, 0xae, 0x3e, 0x3e, 0x00, 0xbd, 0x3e, 0xd5, 0xf7, 0x03, 0xbf, 0x95, 0xd0, 0x8e, 0xbf, 0xc0, 0x8b, 0x95, 0x3e, 0x2f, 0xf2, 0xee, 0xbf, 0x45, 0x96, 0xf8, 
0x3d, 0xef, 0x06, 0xdc, 0x3e, 0x06, 0x0c, 0xe3, 0x3d, 0x9a, 0xc4, 0x56, 0x3e, 0x8a, 0x4e, 0x3c, 0xbd, 0x23, 0x23, 0x87, 0x3d, 0x1a, 0xbc, 0x10, 0x3f, 0x41, 0x72, 0x0a, 0x3e, 0x41, 0x9a, 0xa4, 0xbe, 0xd7, 0x42, 0xd7, 0xbc, 0x20, 0x35, 0x17, 0xbe, 0x0c, 0x52, 0x3e, 0x3e, 0x8d, 0x29, 
0x30, 0x3f, 0x20, 0x59, 0xa3, 0xbf, 0xce, 0x51, 0xbb, 0x3d, 0x53, 0x8b, 0x35, 0x3d, 0x1d, 0xff, 0x81, 0x3e, 0x37, 0x7b, 0x94, 0x3e, 0x50, 0xf3, 0xa3, 0x3b, 0x16, 0x1e, 0x5d, 0xbf, 0xd9, 0xd7, 0x2b, 0xbe, 0x31, 0x28, 0x09, 0xbd, 0x6f, 0xcc, 0x84, 0x3e, 0xed, 0x79, 0x02, 0xc0, 0x9d, 
0xd0, 0x39, 0xbe, 0x0f, 0x22, 0x7e, 0xbf, 0xd8, 0xf5, 0xd5, 0xbe, 0x82, 0xee, 0x08, 0xbf, 0x91, 0x09, 0x10, 0x3e, 0xb9, 0xa9, 0x84, 0x3e, 0x89, 0x13, 0x8c, 0x3e, 0x6d, 0x5d, 0x8a, 0x3d, 0xa2, 0xa7, 0x47, 0x3d, 0x8d, 0xb8, 0xcd, 0x3c, 0x03, 0x97, 0x88, 0xbf, 0x89, 0xc3, 0xc2, 0x3c, 
0x23, 0xa2, 0xbb, 0xbe, 0x93, 0x9c, 0x83, 0xbe, 0xd2, 0x44, 0xca, 0xbf, 0x92, 0x5e, 0xc6, 0x3c, 0xfe, 0xf2, 0x45, 0x3f, 0x8d, 0xf0, 0x10, 0xbe, 0x9a, 0x88, 0xee, 0xbe, 0xa1, 0xb3, 0x02, 0x3c, 0x8f, 0x94, 0xcd, 0xbd, 0x30, 0x94, 0xe8, 0x3e, 0x66, 0x9b, 0xca, 0x3e, 0x03, 0x84, 0xd9, 
0xbd, 0x01, 0xd1, 0xf2, 0xbe, 0x14, 0x54, 0x8f, 0x3e, 0x08, 0xf2, 0x43, 0x3e, 0x33, 0xf2, 0x0b, 0x3e, 0x82, 0x00, 0x4e, 0xb9, 0x37, 0xd7, 0x3d, 0xbe, 0xc6, 0xce, 0xcf, 0xbe, 0x7b, 0x1b, 0xb1, 0x3d, 0xea, 0xfa, 0x6e, 0xbd, 0x39, 0x3b, 0x32, 0xbd, 0xc0, 0xc6, 0xa6, 0x3e, 0x9b, 0x8c, 
0x0d, 0xbf, 0xc3, 0xa7, 0x7d, 0xbf, 0x1d, 0x7e, 0x1c, 0xbe, 0xb9, 0x05, 0x9f, 0xbd, 0x2e, 0xd7, 0x41, 0xbf, 0x69, 0xa2, 0xb0, 0x3f, 0x77, 0x74, 0x4d, 0x3e, 0xa3, 0x1e, 0x17, 0xbf, 0xc0, 0x30, 0xd6, 0xbe, 0x9c, 0x77, 0xcd, 0x3d, 0x93, 0x07, 0x1f, 0x3e, 0xd5, 0xee, 0xdb, 0x3c, 0xf7, 
0x8e, 0xb7, 0xbd, 0xd4, 0xa1, 0x9d, 0x3e, 0x52, 0xe5, 0x06, 0x3e, 0xf0, 0x0a, 0xc4, 0xbe, 0xb9, 0x2b, 0x0d, 0x3f, 0x27, 0x67, 0x41, 0xbe, 0x94, 0xfb, 0x3c, 0x3e, 0xc8, 0xfe, 0x0e, 0x3f, 0x86, 0x52, 0x00, 0x3f, 0xf6, 0x22, 0xd8, 0xbd, 0x6a, 0x02, 0x74, 0x3f, 0x0f, 0x1c, 0x99, 0x3c, 
0x66, 0x69, 0x55, 0xbe, 0xdf, 0x77, 0xd8, 0x3e, 0xd8, 0xb0, 0x32, 0x3d, 0x73, 0x63, 0x04, 0x3f, 0xcb, 0xb1, 0x52, 0xbd, 0xbd, 0x4e, 0x0b, 0x3f, 0x11, 0x48, 0x6e, 0xbf, 0xdd, 0x2f, 0xfd, 0x3e, 0xcd, 0x19, 0xf9, 0x3e, 0x04, 0x8b, 0xfc, 0xbd, 0x9e, 0x5a, 0xb9, 0xbc, 0x7a, 0xc9, 0xa9, 
0xbd, 0x1c, 0x9a, 0xee, 0x3d, 0x9f, 0xc8, 0x2a, 0xbe, 0x90, 0xe5, 0x12, 0xbe, 0x83, 0x59, 0xf5, 0x3d, 0x05, 0x8d, 0x65, 0x3d, 0x72, 0x6a, 0xb6, 0xbe, 0x83, 0x30, 0xf2, 0xbd, 0xba, 0x06, 0x86, 0x3f, 0xb7, 0x16, 0x6f, 0x3e, 0x10, 0x85, 0x27, 0xbf, 0xeb, 0xf7, 0xbe, 0x3f, 0x8c, 0x3b, 
0x12, 0x3e, 0x20, 0x7c, 0x00, 0xbf, 0x61, 0xbd, 0x34, 0xbf, 0x61, 0x83, 0x9e, 0xbd, 0x11, 0x24, 0xac, 0x3d, 0xd5, 0xa3, 0xaf, 0x3d, 0x04, 0xfd, 0x49, 0xbf, 0x47, 0x4e, 0xa5, 0x3e, 0x9c, 0xa4, 0xbc, 0x3e, 0x45, 0x9b, 0x6d, 0xbe, 0xd8, 0xbd, 0x8b, 0x3d, 0xea, 0x67, 0x9a, 0x3e, 0x44, 
0xa3, 0x24, 0xbe, 0xae, 0x3e, 0x1c, 0x3f, 0xb0, 0xe6, 0x8e, 0x3f, 0xbd, 0x8c, 0x2d, 0x3e, 0x43, 0xbe, 0xb1, 0x3f, 0x44, 0xfc, 0x17, 0x3f, 0x8a, 0xe5, 0x83, 0x3e, 0x67, 0x0d, 0x9f, 0x3d, 0xdc, 0xb3, 0xec, 0xbe, 0x61, 0xd1, 0xe2, 0xbd, 0xc8, 0xdc, 0x38, 0xbe, 0x56, 0x9a, 0x46, 0x3f, 
0x4e, 0xb2, 0x52, 0xbd, 0x86, 0xc2, 0x23, 0x3f, 0x98, 0x2a, 0xe6, 0x3e, 0x2c, 0xdd, 0x9e, 0x3e, 0x54, 0xd3, 0x74, 0xbd, 0x02, 0x24, 0xf0, 0xbd, 0x6e, 0x3a, 0x99, 0xbf, 0xcd, 0x74, 0xdf, 0x3e, 0x21, 0x29, 0x04, 0xbf, 0xc3, 0x0d, 0x5d, 0x3d, 0x07, 0xe1, 0xdc, 0xbc, 0x7c, 0x84, 0x1f, 
0x3f, 0xa7, 0x7b, 0x96, 0xbf, 0x0b, 0x37, 0x07, 0x40, 0xb8, 0xe7, 0x8c, 0x3e, 0x13, 0x8d, 0xe8, 0xbd, 0x6f, 0x93, 0x87, 0x3e, 0x19, 0x9b, 0x2c, 0xbe, 0xa9, 0x73, 0xea, 0xbe, 0xff, 0x80, 0x20, 0xbf, 0x38, 0xee, 0x99, 0xbc, 0xa5, 0xbe, 0x20, 0x3f, 0xf2, 0xe7, 0x2c, 0x3f, 0xbf, 0x82, 
0x14, 0xbc, 0xd0, 0x7f, 0x95, 0x3e, 0x27, 0x3f, 0x1e, 0x3d, 0xab, 0x4d, 0x0e, 0x3f, 0xcc, 0xd9, 0x44, 0xbf, 0xb3, 0x44, 0x2d, 0xbe, 0xd4, 0x7e, 0xa2, 0x3e, 0xe3, 0x64, 0xfd, 0x3e, 0x3d, 0xb1, 0x43, 0x3f, 0x2c, 0x3b, 0xb3, 0xbe, 0xef, 0x42, 0x4e, 0x3f, 0xd0, 0x45, 0x0b, 0x3e, 0xea, 
0x36, 0xe8, 0xbe, 0x2f, 0x86, 0x9d, 0x3e, 0x78, 0xbe, 0x12, 0xbe, 0x5a, 0xcb, 0xdc, 0x3e, 0x72, 0x99, 0x6f, 0xbe, 0x73, 0x03, 0xa9, 0x3e, 0x9d, 0xcf, 0x9e, 0xbe, 0x2d, 0x62, 0xe9, 0x3e, 0x91, 0x38, 0xdf, 0x3d, 0x91, 0xbf, 0x78, 0x3e, 0x00, 0xec, 0xa1, 0xbd, 0x25, 0x5e, 0xa2, 0xbe, 
0x35, 0xd3, 0x81, 0xbf, 0xed, 0x12, 0x91, 0x3e, 0xc1, 0x78, 0x4e, 0x3e, 0xf2, 0xdd, 0x9f, 0xbe, 0xd6, 0x1f, 0x63, 0x3d, 0x20, 0xc5, 0x41, 0xbf, 0x27, 0xdc, 0xa4, 0xbf, 0x9c, 0xb5, 0x16, 0x3f, 0x8d, 0x2c, 0x5c, 0xbe, 0xb9, 0x74, 0xa2, 0xbd, 0x39, 0xf9, 0x90, 0x3f, 0xa2, 0x6c, 0x28, 
0xbe, 0x16, 0x14, 0xaf, 0xbe, 0x59, 0x71, 0xaf, 0xbe, 0x19, 0x7e, 0x6b, 0x3e, 0xc6, 0x08, 0x01, 0x3f, 0xbb, 0x79, 0xd4, 0x3e, 0xc5, 0x7c, 0xe5, 0x3d, 0xb7, 0x4e, 0xbb, 0x3e, 0x68, 0x14, 0xf1, 0x3e, 0xa1, 0x33, 0xf6, 0x3b, 0x25, 0x3b, 0x94, 0xbd, 0x14, 0x15, 0x11, 0xbe, 0x82, 0xf7, 
0x52, 0x3e, 0x0d, 0xf3, 0x18, 0x3f, 0x02, 0x18, 0x71, 0x3f, 0xa0, 0x39, 0x40, 0x3e, 0x30, 0x68, 0x93, 0xbf, 0x77, 0xe3, 0x9b, 0x3e, 0x43, 0x9a, 0x2e, 0x3f, 0x5f, 0x7b, 0x78, 0x3e, 0x74, 0x08, 0xa0, 0x3e, 0xda, 0x98, 0xab, 0xbe, 0x6f, 0xb6, 0x80, 0xbf, 0x88, 0xbf, 0xd6, 0xbe, 0x2c, 
0xe9, 0xf1, 0x3e, 0xbd, 0xa8, 0x00, 0xbf, 0x1d, 0x7c, 0xa3, 0xbe, 0x58, 0x3a, 0x8c, 0x3d, 0xb5, 0x30, 0x22, 0x3d, 0xcd, 0xdc, 0xe2, 0x3e, 0x86, 0xc7, 0x4c, 0xbe, 0x3b, 0xd5, 0x0b, 0x3f, 0xf7, 0x1e, 0x91, 0x3d, 0x02, 0xf0, 0xac, 0xbd, 0x90, 0xfc, 0x02, 0x3f, 0x08, 0x9e, 0xc6, 0x3d, 
0x55, 0xd6, 0x77, 0x3f, 0x8e, 0x9f, 0xeb, 0x3c, 0xae, 0x9d, 0x06, 0x3f, 0x68, 0xa5, 0xa7, 0x3e, 0x49, 0x9f, 0x8b, 0xbf, 0xca, 0x93, 0x0d, 0xbf, 0xea, 0xfd, 0x51, 0xbe, 0x72, 0x7f, 0x56, 0x3e, 0xd9, 0x11, 0x70, 0xbf, 0x7f, 0x55, 0xd8, 0xbd, 0x8e, 0xdc, 0x37, 0x3d, 0x15, 0x39, 0x0d, 
0x3f, 0x2a, 0x58, 0x55, 0x3e, 0x7b, 0xef, 0xd2, 0xbc, 0xef, 0xde, 0x0b, 0x3f, 0xcc, 0x72, 0x81, 0xbf, 0xa4, 0x63, 0x3f, 0x3e, 0x69, 0x7b, 0x5b, 0xbf, 0xf1, 0xa9, 0x96, 0x3e, 0x73, 0xeb, 0x9d, 0xbf, 0xab, 0x05, 0xe3, 0xbe, 0x71, 0xf3, 0xa7, 0xbf, 0xa7, 0xd5, 0x23, 0xbd, 0x91, 0xfa, 
0x76, 0x3e, 0x6a, 0x34, 0x30, 0x3e, 0xb4, 0x6d, 0x6f, 0x3e, 0xf2, 0xec, 0x14, 0x3e, 0x6b, 0xac, 0x58, 0x3e, 0x04, 0xa3, 0x94, 0xbe, 0xab, 0x1d, 0x23, 0x3f, 0xe6, 0xfd, 0xd7, 0xbe, 0x09, 0xfe, 0xd9, 0xbe, 0x69, 0xc0, 0xfd, 0xbd, 0x2a, 0xee, 0xa6, 0x3e, 0xd5, 0xee, 0xc2, 0x3e, 0xa5, 
0x10, 0x84, 0x3f, 0x56, 0x1c, 0xb0, 0x3e, 0xeb, 0xa7, 0xc8, 0x3e, 0x4f, 0xee, 0xc2, 0x3b, 0x8f, 0x2d, 0x82, 0x3e, 0x64, 0x18, 0x9c, 0x3e, 0xe1, 0xb7, 0xde, 0x3f, 0xe2, 0x82, 0x1a, 0xbf, 0x16, 0xee, 0xe4, 0x3d, 0xb8, 0x8d, 0x26, 0x3f, 0x97, 0xbe, 0x59, 0xbf, 0x42, 0x7e, 0xf0, 0xbd, 
0x4b, 0x14, 0x36, 0x3e, 0x3c, 0x63, 0xd4, 0x3e, 0x2e, 0xf7, 0xba, 0x3e, 0xce, 0xfe, 0x22, 0xbe, 0xff, 0x3b, 0x86, 0xbe, 0xd0, 0x70, 0x2f, 0x3f, 0x76, 0xb1, 0xe7, 0xbd, 0x8e, 0xfa, 0xfb, 0x3d, 0xc8, 0x17, 0xa8, 0x3e, 0xb8, 0xb2, 0x6f, 0x3e, 0x30, 0xfd, 0xbb, 0x3e, 0x7c, 0xff, 0xe4, 
0xbe, 0x7a, 0xc4, 0x12, 0xbf, 0x0c, 0x66, 0xc6, 0xbf, 0xb2, 0x53, 0xd8, 0xbd, 0xa5, 0x5b, 0x99, 0xbf, 0xb4, 0x33, 0x5b, 0x3e, 0x1a, 0x5d, 0x0e, 0xbf, 0x36, 0xca, 0x97, 0xbc, 0xfe, 0x55, 0xe1, 0x3e, 0xc8, 0x84, 0xc2, 0x3e, 0x25, 0x63, 0xe7, 0x3e, 0xbe, 0x10, 0x83, 0x3e, 0x34, 0x73, 
0xd1, 0x3d, 0xe4, 0x95, 0xbb, 0x3e, 0x7c, 0xe7, 0x81, 0x3e, 0xed, 0x7f, 0xbb, 0xbe, 0x8f, 0x55, 0x06, 0x3f, 0x11, 0xb1, 0xc2, 0x3e, 0x82, 0x23, 0x9a, 0x3f, 0x5c, 0xcd, 0x5d, 0xbd, 0xee, 0xeb, 0x07, 0xbe, 0x0b, 0x2a, 0x59, 0xbe, 0x4b, 0xa0, 0x2b, 0xbe, 0xad, 0x1e, 0xbd, 0xbe, 0xd9, 
0x74, 0x7c, 0x3f, 0x57, 0x10, 0x2d, 0xbf, 0x30, 0xa6, 0x77, 0xbe, 0xef, 0x5a, 0xbd, 0xbd, 0x60, 0x8a, 0x1a, 0x3f, 0x48, 0xf1, 0xf3, 0xbd, 0x25, 0xc2, 0x76, 0x3e, 0xb4, 0xef, 0x56, 0xbf, 0xc6, 0xa9, 0x22, 0x3f, 0xd7, 0xf1, 0x45, 0xbf, 0x5a, 0xee, 0xc3, 0xbe, 0x49, 0x92, 0x26, 0x3e, 
0xcc, 0x0f, 0xc8, 0xbe, 0x8c, 0x4e, 0x84, 0xbf, 0x82, 0xbd, 0x9a, 0xbe, 0xfa, 0x21, 0x18, 0x3f, 0xd2, 0x4f, 0x47, 0xbf, 0x5c, 0x8a, 0xbe, 0x3e, 0x3c, 0x96, 0x29, 0xbf, 0x60, 0x26, 0xfb, 0xbd, 0x0f, 0xe8, 0x35, 0x3e, 0xc1, 0x05, 0x95, 0x3d, 0x89, 0xad, 0x77, 0xbe, 0xef, 0x4b, 0x0d, 
0xbf, 0xeb, 0xdb, 0x1e, 0x3e, 0x0b, 0xbd, 0x94, 0x3e, 0x19, 0xea, 0x98, 0xbe, 0xc9, 0x5e, 0x03, 0x3f, 0x95, 0x71, 0xa6, 0x3e, 0x6f, 0xbd, 0xca, 0xbe, 0x62, 0x0f, 0x01, 0xbe, 0x9e, 0x60, 0x2e, 0x3e, 0xca, 0xd1, 0x8d, 0x3e, 0x9f, 0xca, 0xbd, 0x3d, 0x3d, 0x20, 0x22, 0xbe, 0xcb, 0x6e, 
0x07, 0xbd, 0xdb, 0xf5, 0x32, 0x3e, 0x66, 0x1d, 0xb0, 0x3d, 0x08, 0xa7, 0x25, 0x3e, 0xde, 0xe2, 0xbc, 0xbe, 0x0e, 0x1a, 0x2a, 0x3d, 0x0e, 0x4b, 0x83, 0xbe, 0xac, 0xbe, 0xa9, 0xbf, 0x94, 0xbd, 0xc1, 0xbe, 0x8f, 0xbd, 0x89, 0xbe, 0xa5, 0x34, 0xbf, 0xbe, 0x86, 0xc6, 0xd2, 0x3d, 0x2d, 
0xb2, 0x62, 0x3e, 0x1f, 0x98, 0xc9, 0xbd, 0xed, 0xc0, 0x19, 0x3f, 0xf2, 0x27, 0x4c, 0xbe, 0x0b, 0xf8, 0x9a, 0xbe, 0xd2, 0x0c, 0x0b, 0xbf, 0x45, 0x41, 0xcb, 0xbe, 0x0e, 0x4b, 0x9f, 0xbe, 0xb3, 0xa3, 0x81, 0xbf, 0x99, 0xfc, 0xee, 0xbd, 0xfe, 0x69, 0x72, 0xbc, 0xea, 0x72, 0xc0, 0xbb, 
0x2a, 0x73, 0xa2, 0xbe, 0x82, 0xdc, 0xab, 0xbd, 0xd0, 0x1b, 0xae, 0x3d, 0x7b, 0x53, 0xe1, 0x3e, 0x64, 0x06, 0x03, 0x3e, 0xfc, 0x18, 0x54, 0xbf, 0x4c, 0x1b, 0x81, 0xbe, 0xcb, 0x02, 0x15, 0x3e, 0xb4, 0x37, 0xbe, 0x3e, 0xa6, 0x41, 0x53, 0x3e, 0xf6, 0x8d, 0x91, 0x3d, 0x87, 0xa9, 0xa2, 
0xbe, 0x70, 0x73, 0xe6, 0x3e, 0x22, 0x96, 0x53, 0xbd, 0x24, 0x3f, 0xb9, 0x3e, 0xe2, 0xa7, 0x09, 0xbe, 0xe0, 0x92, 0x26, 0xbf, 0x1d, 0xb3, 0x14, 0xbe, 0x09, 0xeb, 0x4e, 0x3e, 0x06, 0x6b, 0x7f, 0x3e, 0x9d, 0x06, 0xaa, 0xbe, 0xf7, 0x83, 0x09, 0x3f, 0xa1, 0xc8, 0xfa, 0xbe, 0xa7, 0x3e, 
0x70, 0xbf, 0xac, 0xb1, 0x56, 0xbe, 0x18, 0xb0, 0x87, 0x3e, 0x3e, 0x4e, 0x3d, 0xbf, 0x17, 0x4b, 0xbb, 0x3f, 0x7c, 0xec, 0x7e, 0x3e, 0xa4, 0xb8, 0xc8, 0xbd, 0xdf, 0x69, 0x57, 0xbe, 0x45, 0xed, 0xfe, 0x3e, 0x61, 0xb8, 0x16, 0x3f, 0x0e, 0xde, 0x00, 0x3f, 0xf4, 0x99, 0xbc, 0xbe, 0x92, 
0x9b, 0xd9, 0xbb, 0xc7, 0xb7, 0x04, 0x3e, 0x2c, 0xa8, 0xcb, 0xbe, 0x5e, 0x33, 0x8e, 0x3e, 0x01, 0xc6, 0x8c, 0x3e, 0x0c, 0xba, 0x80, 0xbe, 0x37, 0x23, 0x37, 0x3f, 0x97, 0x7d, 0x45, 0x3f, 0x85, 0x45, 0x22, 0xbe, 0x69, 0x0c, 0xf0, 0xbd, 0xc9, 0xd3, 0xed, 0xbc, 0x4e, 0xa8, 0xf9, 0xbe, 
0xe8, 0x96, 0x0f, 0xbe, 0x34, 0xba, 0xd0, 0x3e, 0x38, 0x16, 0x16, 0x3f, 0x09, 0x82, 0xb5, 0xbd, 0xae, 0x3e, 0xbf, 0xbd, 0x70, 0x06, 0x99, 0xbd, 0x5d, 0x9f, 0x0d, 0xbd, 0x10, 0xda, 0x3d, 0x3c, 0xd4, 0x4f, 0x8c, 0xbe, 0x87, 0x7d, 0x66, 0x3e, 0xd4, 0x43, 0x02, 0xbf, 0xfd, 0xdf, 0x66, 
0x3f, 0x15, 0x3a, 0x53, 0x3e, 0xa3, 0x47, 0xc0, 0x3e, 0x74, 0x00, 0x01, 0xbe, 0x8a, 0x74, 0x2d, 0x3d, 0x29, 0x35, 0xb2, 0xbe, 0x95, 0x89, 0x38, 0x3f, 0xc7, 0xfe, 0xbe, 0xbe, 0xa3, 0xd7, 0xa6, 0x3d, 0x58, 0x3a, 0xeb, 0xba, 0x0a, 0x0c, 0x9d, 0x3f, 0x01, 0x15, 0xc1, 0x3e, 0x58, 0x5a, 
0x3d, 0x3e, 0x33, 0xa5, 0xd3, 0x3e, 0xb3, 0x38, 0x0e, 0x3e, 0x30, 0xa4, 0x6c, 0xbd, 0x4a, 0x5a, 0x62, 0x3e, 0xcb, 0xa1, 0xd6, 0x3c, 0xd5, 0x36, 0x8b, 0x3e, 0xf2, 0x27, 0x12, 0xbc, 0xd9, 0x81, 0x2a, 0xbe, 0xb7, 0xb3, 0x94, 0x3f, 0x68, 0x11, 0x8b, 0x3e, 0xe3, 0xa0, 0x21, 0xbe, 0x63, 
0xf1, 0xad, 0x3d, 0x9c, 0x47, 0xc0, 0x3e, 0x9c, 0x48, 0xc0, 0x3a, 0xab, 0xd0, 0x63, 0xbf, 0x51, 0x03, 0x36, 0x3e, 0x64, 0x22, 0xc2, 0xbd, 0xb1, 0x06, 0xee, 0x3d, 0xd3, 0x2e, 0x59, 0xbd, 0x80, 0x77, 0xa3, 0x3e, 0xe0, 0x87, 0x4f, 0x3d, 0xfe, 0x27, 0xbb, 0xbe, 0x76, 0x17, 0x30, 0x3e, 
0x75, 0x0b, 0x2b, 0x39, 0xdd, 0x6e, 0x0f, 0xbe, 0xa1, 0x24, 0xe8, 0xbd, 0x4c, 0x59, 0x0f, 0xbd, 0xc0, 0x72, 0x86, 0x3e, 0x05, 0x73, 0xae, 0x3f, 0x73, 0x83, 0x24, 0xbd, 0x2a, 0xac, 0x85, 0x3e, 0x69, 0xc3, 0xc1, 0xbe, 0xae, 0xb6, 0x5c, 0x3e, 0x94, 0xe7, 0x19, 0xbe, 0x20, 0x8d, 0x4b, 
0x3f, 0xbc, 0x7d, 0x99, 0xbf, 0xff, 0xea, 0xdd, 0x3e, 0x24, 0xa6, 0xed, 0xbd, 0xc8, 0x0b, 0x1c, 0x3f, 0xd0, 0x8d, 0xc0, 0xbd, 0xd5, 0x0c, 0x7c, 0x3f, 0x8b, 0x8b, 0x3b, 0x3f, 0x6f, 0x03, 0x0c, 0x3f, 0xe3, 0x10, 0xc3, 0xbe, 0x82, 0xe8, 0xce, 0xbe, 0x3b, 0xcd, 0x1d, 0x3e, 0xc2, 0x5b, 
0x65, 0xbe, 0xa0, 0x86, 0x94, 0xbe, 0xaa, 0x4b, 0xc1, 0xbe, 0x83, 0xe0, 0xa5, 0x3f, 0x0a, 0x0b, 0x18, 0x3e, 0x50, 0x2e, 0xcd, 0x3e, 0x37, 0xc6, 0xb5, 0xbe, 0x4c, 0x13, 0x02, 0xbf, 0x5b, 0x68, 0xa7, 0x3e, 0x36, 0x1d, 0x8f, 0xbe, 0x82, 0x17, 0xfd, 0xbd, 0xa4, 0xa9, 0x36, 0xbd, 0xec, 
0x8f, 0x9b, 0xbd, 0x9d, 0x0b, 0xa4, 0x3e, 0x9f, 0x9e, 0xbe, 0x3e, 0xb3, 0xf2, 0x7b, 0xbc, 0xfc, 0x9d, 0x28, 0xbf, 0xf7, 0xf4, 0x7d, 0xbe, 0xaf, 0xb2, 0xd5, 0xbd, 0x1b, 0x94, 0x24, 0x3e, 0xd7, 0xbb, 0xe4, 0xbc, 0xc6, 0x89, 0x56, 0xbb, 0xb6, 0x12, 0x02, 0xbf, 0xfb, 0x3f, 0x78, 0x3f, 
0x61, 0x4c, 0x98, 0x3d, 0xe6, 0xfa, 0xf9, 0x3e, 0x46, 0xdc, 0x2e, 0xbe, 0x7d, 0xca, 0x0a, 0x3f, 0x4e, 0x6a, 0x96, 0xbe, 0x96, 0x08, 0x6a, 0x3f, 0x85, 0xd1, 0x3a, 0xbf, 0x78, 0xb1, 0x42, 0xbe, 0x08, 0x08, 0xa8, 0x3c, 0xaf, 0xcc, 0x9f, 0x3f, 0xd7, 0x71, 0xa9, 0x3e, 0x64, 0xfa, 0xd7, 
0x3e, 0x8f, 0x5b, 0xc4, 0x3e, 0x07, 0x9e, 0xe0, 0x3e, 0x30, 0x10, 0xab, 0xbc, 0xcb, 0x03, 0x1f, 0xbe, 0xef, 0xbd, 0x25, 0x3e, 0x71, 0xa9, 0x99, 0x3e, 0x86, 0x2b, 0x9d, 0x3e, 0x51, 0xa8, 0x02, 0xbf, 0x8e, 0x78, 0xa5, 0x3f, 0x9e, 0xf1, 0xf0, 0x3e, 0xf7, 0x2e, 0x65, 0x3e, 0x20, 0xff, 
0x80, 0x3c, 0xe3, 0xed, 0x24, 0x3e, 0x92, 0x36, 0xf3, 0x3e, 0xa9, 0x7d, 0xbf, 0xbf, 0xbf, 0x46, 0x87, 0x3e, 0x5a, 0x78, 0x55, 0x3e, 0x79, 0x11, 0xa1, 0x3e, 0xd0, 0xd5, 0xfe, 0xb9, 0xc9, 0xac, 0x43, 0xbd, 0x2d, 0x23, 0x85, 0x3e, 0x25, 0x2a, 0x59, 0xbe, 0x7b, 0xa9, 0xe7, 0x3e, 0x8c, 
0xdf, 0xb0, 0xbe, 0x56, 0x7b, 0xaa, 0xbe, 0x45, 0x9d, 0x04, 0x3e, 0x4e, 0x3d, 0xdd, 0x3d, 0x79, 0x32, 0x9d, 0x3e, 0xd9, 0x1c, 0x61, 0x3f, 0xb9, 0x48, 0x3d, 0xbe, 0x95, 0xbf, 0xc9, 0x3e, 0x9a, 0x4b, 0xc4, 0x3e, 0x8d, 0xac, 0x3a, 0xbe, 0x89, 0xbc, 0x04, 0x3f, 0xc7, 0xef, 0x9c, 0x3f, 
0xa1, 0x47, 0xc3, 0xbf, 0x25, 0xc2, 0x46, 0x3e, 0xfb, 0x22, 0x1b, 0x3f, 0x67, 0x70, 0x97, 0xbf, 0x91, 0x2e, 0x84, 0x3e, 0xbd, 0x3e, 0x1f, 0x3f, 0xa0, 0x02, 0xb8, 0x3e, 0xcb, 0x0a, 0xa8, 0x3e, 0xac, 0xd7, 0x83, 0xbe, 0x85, 0xe7, 0xf2, 0x3d, 0x0d, 0xb1, 0xc8, 0x3e, 0x39, 0x0e, 0x70, 
0xbe, 0x2c, 0x46, 0x07, 0xbe, 0xe9, 0xe1, 0x91, 0xbe, 0xfb, 0xf5, 0x81, 0x3e, 0xb4, 0x9c, 0xb5, 0x3e, 0x33, 0xe6, 0x2e, 0xbe, 0x5a, 0x33, 0x49, 0xbe, 0xa5, 0x5c, 0xb4, 0xbf, 0xfc, 0x9f, 0x60, 0xbe, 0x78, 0xf0, 0x0d, 0x3f, 0x26, 0x7d, 0x47, 0x3e, 0x49, 0xc1, 0xf7, 0xbe, 0x08, 0xb1, 
0x7b, 0x3e, 0x6b, 0xea, 0x93, 0x3d, 0xb9, 0xfc, 0xfc, 0x3e, 0x87, 0x38, 0x0f, 0x3e, 0xf0, 0x96, 0xcc, 0xbe, 0x4b, 0x89, 0xba, 0xbe, 0x3e, 0x2a, 0x64, 0x3e, 0xc1, 0x78, 0xb7, 0x3e, 0x8a, 0xbb, 0xfe, 0x3d, 0x1f, 0x10, 0x17, 0x3e, 0x67, 0x87, 0xc5, 0xbe, 0xfa, 0x3f, 0x0b, 0x3b, 0x68, 
0xe4, 0xd9, 0xbc, 0x7e, 0x77, 0x53, 0x3e, 0x41, 0x97, 0xad, 0xbe, 0x9b, 0xee, 0xcf, 0x3e, 0x9a, 0x7f, 0x34, 0xbf, 0x8f, 0x22, 0x50, 0xbf, 0x02, 0x8c, 0x88, 0xbc, 0x01, 0x61, 0x16, 0x3e, 0x8d, 0xb4, 0x5a, 0xbd, 0x7c, 0x01, 0x68, 0x3f, 0xd3, 0x7e, 0xcd, 0xbd, 0x57, 0xf7, 0x31, 0x3d, 
0x8e, 0xcb, 0x0e, 0xbe, 0x6f, 0x8b, 0x16, 0x3e, 0x53, 0x24, 0xd1, 0x3d, 0xc7, 0xbb, 0xbb, 0x3e, 0xa3, 0x00, 0x9a, 0xbd, 0x36, 0x5f, 0x6c, 0x3e, 0xa2, 0x06, 0xab, 0x3e, 0x00, 0xa6, 0xe0, 0xbe, 0x6c, 0x87, 0xbb, 0x3e, 0x38, 0x8e, 0x39, 0x3e, 0xea, 0x9f, 0x59, 0x3e, 0xc0, 0x4c, 0xae, 
0x3e, 0x22, 0xb3, 0xed, 0x3e, 0xba, 0x04, 0xe6, 0x3c, 0xa8, 0x57, 0x2d, 0x3d, 0x2a, 0x6c, 0x72, 0xbe, 0x54, 0xfc, 0x36, 0xbe, 0xf1, 0x90, 0x28, 0xbe, 0x2c, 0xab, 0x41, 0x3e, 0xc2, 0xd4, 0x2a, 0xbe, 0x24, 0x44, 0xc6, 0x3d, 0xca, 0x75, 0x8e, 0xbe, 0x8c, 0x13, 0x7b, 0x3e, 0x00, 0xc7, 
0x5b, 0x3d, 0x98, 0x26, 0x5a, 0xbd, 0x4e, 0x5e, 0x83, 0x3e, 0xc0, 0x94, 0x0c, 0xbc, 0x42, 0xa5, 0x5d, 0xbe, 0x98, 0x88, 0xcd, 0x3d, 0xa8, 0x58, 0x67, 0xbe, 0x5e, 0xa4, 0x8a, 0xbe, 0xe0, 0x76, 0x4f, 0x3c, 0x1b, 0xdb, 0x84, 0xbe, 0x60, 0x0a, 0x13, 0x3e, 0xe6, 0xcc, 0xca, 0xbd, 0x50, 
0xce, 0xea, 0x3d, 0xd4, 0xef, 0x8a, 0x3d, 0x90, 0x49, 0x91, 0xbc, 0x00, 0x43, 0x09, 0x3e, 0x12, 0xbd, 0x6e, 0xbe, 0x1a, 0xba, 0x88, 0xbe, 0x54, 0x4a, 0x55, 0x3e, 0x50, 0xe0, 0x8b, 0xbc, 0x96, 0x7e, 0x88, 0x3e, 0x90, 0x83, 0x7f, 0x3e, 0xe0, 0x5e, 0xfc, 0xbd, 0x20, 0x77, 0x52, 0x3d, 
0xe0, 0x76, 0x56, 0x3c, 0x23, 0xd8, 0x49, 0xbe, 0xd2, 0x01, 0xf9, 0xbd, 0x37, 0xb7, 0x9a, 0xbe, 0xee, 0x6b, 0x71, 0xbe, 0x5a, 0x6f, 0x00, 0x3e, 0xf8, 0x48, 0x63, 0xbd, 0x80, 0xc3, 0x58, 0x3c, 0x48, 0xaa, 0xd0, 0x3f, 0x2c, 0x19, 0xfb, 0x3e, 0x35, 0xe4, 0x83, 0x3d, 0xe8, 0xe1, 0x15, 
0x3c, 0x5a, 0xa1, 0xb4, 0x3d, 0x22, 0xfb, 0xd8, 0xbd, 0x40, 0xe6, 0x66, 0xbe, 0x41, 0xb3, 0xd6, 0x3e, 0xe3, 0xd7, 0xf1, 0xbd, 0xf8, 0x9d, 0xf6, 0x3e, 0x68, 0x76, 0x09, 0x3f, 0x86, 0x34, 0x97, 0x3e, 0xec, 0xcc, 0x48, 0x3e, 0xa6, 0xf3, 0x52, 0x3e, 0xa8, 0x1e, 0xbb, 0xbf, 0x02, 0xd7, 
0xc1, 0x3e, 0x57, 0x5c, 0xb6, 0xbe, 0xc0, 0x8f, 0xca, 0x3e, 0xfe, 0x33, 0x02, 0x3d, 0x55, 0xff, 0x30, 0x3d, 0x1c, 0xca, 0x6c, 0xbf, 0x20, 0x40, 0xe4, 0x3f, 0x08, 0x68, 0xb4, 0xbb, 0xd9, 0x07, 0xb0, 0xbe, 0xb7, 0x7a, 0x0d, 0x3f, 0x3e, 0x45, 0xa8, 0xbe, 0xbf, 0xff, 0x7a, 0xbf, 0x46, 
0xae, 0x8c, 0xbe, 0xfe, 0xc9, 0x08, 0xbe, 0xe0, 0x30, 0xb4, 0x3e, 0x73, 0x27, 0x84, 0x3e, 0x47, 0xea, 0x6b, 0xbd, 0x97, 0xeb, 0xfd, 0x3d, 0x2e, 0x68, 0x6e, 0x3e, 0x1e, 0x37, 0x67, 0x3c, 0x88, 0x77, 0x08, 0xbf, 0x86, 0x06, 0x08, 0xbe, 0x30, 0xf1, 0x97, 0x3e, 0xb3, 0x5e, 0xd9, 0x3e, 
0x14, 0xd2, 0x4f, 0x3f, 0x1e, 0x8b, 0x1d, 0x3e, 0xd3, 0x47, 0xc2, 0xbf, 0xb6, 0x75, 0x96, 0x3d, 0xe1, 0x32, 0x24, 0xbf, 0x2a, 0x45, 0x56, 0x3e, 0x2e, 0xd2, 0xa6, 0xbe, 0x94, 0x5c, 0xe9, 0x3d, 0x9f, 0xe1, 0x44, 0x3e, 0x25, 0xa9, 0x94, 0xbf, 0x12, 0x5d, 0x2d, 0x3e, 0xc4, 0x72, 0x17, 
0x3e, 0x85, 0x15, 0xd4, 0x3c, 0xfd, 0x6d, 0xe9, 0xbe, 0x84, 0x3f, 0x46, 0x3f, 0xf0, 0x24, 0x80, 0x3d, 0xbc, 0x99, 0xbc, 0x3f, 0x69, 0x1c, 0xca, 0xbc, 0xe7, 0x29, 0x3f, 0xbe, 0x78, 0xfa, 0x8e, 0xbe, 0x73, 0xd6, 0xb7, 0xbe, 0x2a, 0x0d, 0x30, 0xbe, 0xef, 0x7e, 0xcb, 0x3f, 0x52, 0x44, 
0x2b, 0xbf, 0x6d, 0x9b, 0x02, 0xbf, 0xda, 0x1d, 0xe2, 0xbe, 0xb2, 0xbe, 0xd3, 0x3e, 0x56, 0xb1, 0x92, 0x3d, 0x26, 0x81, 0x9a, 0x3e, 0xc4, 0x9c, 0x7b, 0xbe, 0x95, 0x2e, 0x03, 0x3f, 0x71, 0x79, 0xd9, 0xbe, 0x4e, 0xbb, 0x5c, 0xbe, 0x03, 0xb7, 0x70, 0x3e, 0x45, 0xb3, 0xac, 0xbd, 0x3b, 
0xaa, 0xa5, 0xbf, 0xaa, 0xd3, 0x0d, 0x3e, 0x54, 0x8a, 0xbb, 0x3d, 0xfe, 0x7e, 0xfe, 0xbd, 0x8e, 0xd5, 0xa7, 0xbe, 0xa6, 0x5c, 0xd6, 0xbf, 0xa6, 0x0c, 0x2d, 0xbf, 0xed, 0xac, 0xe6, 0x3e, 0x9e, 0xf4, 0xff, 0xff, 0x04, 0x00, 0x00, 0x00, 0x9c, 0x09, 0x00, 0x00, 0x59, 0x78, 0x0f, 0x3c, 
0x38, 0xfb, 0x7e, 0xbf, 0xa5, 0x08, 0x14, 0x3f, 0x2b, 0xbe, 0xc7, 0x3d, 0x21, 0x56, 0x62, 0xbd, 0x1a, 0xad, 0x9e, 0x3e, 0x1d, 0x1f, 0x6d, 0x3e, 0xe8, 0xe2, 0x20, 0xbf, 0x54, 0x3e, 0x95, 0xbe, 0xf7, 0x04, 0xc2, 0xbd, 0xee, 0xba, 0xbf, 0xbe, 0xf0, 0xfd, 0xf1, 0xbe, 0x3e, 0x6d, 0x06, 
0x3e, 0x86, 0x4d, 0xad, 0x3e, 0x04, 0x75, 0x00, 0xbe, 0xc3, 0x15, 0xfe, 0x3d, 0x1b, 0x7d, 0x5d, 0xbf, 0x9f, 0xbd, 0x90, 0x3c, 0xb0, 0x21, 0x72, 0x3e, 0x21, 0xc2, 0x8d, 0x3e, 0x62, 0x0d, 0x5a, 0x3e, 0x34, 0xd7, 0x82, 0xbd, 0x4f, 0xe1, 0x13, 0x3e, 0xcb, 0xc1, 0x5f, 0xbe, 0x3f, 0x62, 
0xfd, 0x3e, 0x28, 0x08, 0xa3, 0x3e, 0x32, 0x4f, 0x7d, 0x3e, 0x1e, 0x53, 0xa7, 0x3e, 0x47, 0xa1, 0x05, 0xbf, 0x3a, 0x8c, 0x2f, 0xbe, 0xd6, 0x8f, 0x46, 0xbe, 0xc6, 0xc9, 0x22, 0xbf, 0xa5, 0x81, 0x38, 0x3d, 0x01, 0xb2, 0x05, 0x3d, 0xe9, 0x63, 0x71, 0xbe, 0x4d, 0x58, 0x8e, 0xbe, 0xae, 
0x02, 0x4f, 0xbf, 0x2d, 0xc2, 0x15, 0x3f, 0xf4, 0x0d, 0xa7, 0xbd, 0x4f, 0xb3, 0x23, 0x3d, 0xb9, 0x95, 0xd2, 0xbd, 0x0e, 0xf4, 0xa0, 0x3e, 0xf6, 0xe5, 0x04, 0x3e, 0x0f, 0xae, 0x7c, 0xbf, 0x2d, 0xae, 0xe5, 0x3e, 0xbd, 0xe0, 0x0e, 0xbe, 0xbc, 0x61, 0x12, 0x3f, 0xc0, 0x54, 0xb0, 0x3e, 
0xb0, 0x41, 0x37, 0xbe, 0x31, 0x57, 0x36, 0x3e, 0x8b, 0xab, 0xb6, 0x3e, 0x50, 0xdd, 0x92, 0x3d, 0x36, 0x4b, 0x52, 0x3d, 0xf0, 0xa1, 0xe8, 0x3e, 0x07, 0x9b, 0x61, 0x3e, 0x5b, 0xf7, 0xda, 0xbe, 0x17, 0x88, 0x44, 0x3e, 0x0d, 0x3c, 0x31, 0x3e, 0xfb, 0xbd, 0xcd, 0x3e, 0xd6, 0x5e, 0xf3, 
0xbd, 0xf3, 0x44, 0x00, 0x3e, 0x7f, 0x53, 0x0d, 0x3f, 0xbe, 0xb6, 0xad, 0x3e, 0xc0, 0x25, 0x10, 0xbe, 0x2f, 0xa1, 0x4f, 0xbd, 0x15, 0x56, 0xae, 0x3e, 0x74, 0xb1, 0x86, 0xbd, 0xd6, 0x68, 0x7e, 0x3d, 0x97, 0x02, 0xf5, 0x3d, 0x56, 0xc5, 0x7c, 0x3e, 0xe9, 0x48, 0xef, 0xbd, 0xba, 0x15, 
0x34, 0x3e, 0xc4, 0x92, 0xe5, 0xbe, 0x77, 0x1c, 0x5d, 0x3f, 0xc7, 0x67, 0x88, 0x3e, 0x6a, 0xb9, 0xe1, 0xbe, 0x87, 0x1a, 0xa3, 0x3e, 0xc4, 0x5f, 0x91, 0xbc, 0x65, 0xdc, 0xac, 0x3c, 0x69, 0x66, 0xb7, 0x3e, 0xa6, 0xd1, 0xdf, 0xbe, 0xd5, 0x69, 0x09, 0x3e, 0x33, 0x6f, 0x81, 0x3e, 0x49, 
0x68, 0x47, 0xbe, 0x2e, 0x2c, 0xa2, 0x3e, 0x37, 0x61, 0x54, 0x3e, 0x91, 0xbf, 0x59, 0x3e, 0x59, 0x26, 0xef, 0xbe, 0xa2, 0x81, 0x93, 0xbf, 0x69, 0x80, 0x40, 0xbd, 0x45, 0xdb, 0xb9, 0xbe, 0xb0, 0x8f, 0xde, 0x3e, 0xca, 0x87, 0x50, 0x3d, 0x77, 0x1c, 0x30, 0xbe, 0xe5, 0xd8, 0x7e, 0xbe, 
0xb0, 0x50, 0xf6, 0xbe, 0xfd, 0x80, 0xcc, 0x3e, 0x8a, 0x58, 0x09, 0x3f, 0xd1, 0x97, 0xb4, 0xbb, 0x9d, 0xce, 0xca, 0xbe, 0xf4, 0x20, 0x17, 0x3e, 0xfc, 0x52, 0xa0, 0x3e, 0x8e, 0x89, 0x66, 0x3d, 0xa5, 0x74, 0xe6, 0x3e, 0xb7, 0x94, 0x1e, 0xbe, 0x44, 0x53, 0xa8, 0x3d, 0xde, 0xa0, 0x97, 
0x3e, 0x8e, 0x64, 0x08, 0x3f, 0xb4, 0xca, 0x02, 0xbf, 0x85, 0xe9, 0x19, 0xbe, 0x64, 0xcd, 0x62, 0x3e, 0x60, 0x33, 0xfc, 0x3d, 0x60, 0x5a, 0xde, 0x3e, 0x0e, 0x96, 0x54, 0xbe, 0xc6, 0x19, 0x04, 0x3e, 0x77, 0x28, 0x10, 0x3f, 0x39, 0xf7, 0x1e, 0xbf, 0x7d, 0x47, 0xcb, 0x3e, 0x54, 0x6a, 
0xf5, 0x3e, 0x89, 0xd7, 0xb3, 0xbe, 0xd4, 0x45, 0xea, 0x3e, 0x47, 0x50, 0x55, 0xbf, 0x4e, 0x89, 0x46, 0xbe, 0x80, 0xa5, 0xd6, 0xbd, 0x97, 0xaa, 0x26, 0xbe, 0x92, 0x73, 0x68, 0x3c, 0x18, 0xa2, 0x6e, 0xbd, 0xca, 0xde, 0x3e, 0xbe, 0x32, 0xfc, 0x4f, 0xbf, 0x82, 0xef, 0x02, 0x3f, 0x90, 
0x11, 0x65, 0x3e, 0xba, 0x7b, 0x65, 0x3e, 0x22, 0x90, 0x58, 0x3d, 0xef, 0x6a, 0x8e, 0x3d, 0x23, 0xc2, 0x96, 0x3e, 0x7f, 0x4c, 0xac, 0x3e, 0x21, 0xdd, 0x59, 0xbe, 0xaa, 0x45, 0x30, 0x3e, 0x96, 0x81, 0x9f, 0xbe, 0x35, 0x47, 0xea, 0xbc, 0x9d, 0xf4, 0x80, 0x3e, 0xc2, 0xdc, 0x8e, 0xbe, 
0x83, 0xad, 0xd8, 0xbe, 0x70, 0xcf, 0xe5, 0x3d, 0x49, 0x21, 0xa2, 0x3d, 0xda, 0xaa, 0xc3, 0xbe, 0x80, 0x1e, 0x1d, 0xbe, 0x5a, 0xf0, 0x1d, 0xbf, 0x9e, 0xba, 0x47, 0xbe, 0xb7, 0x38, 0xe0, 0xbc, 0x14, 0x6c, 0x43, 0xbe, 0xbb, 0x2f, 0xc0, 0xbc, 0x8c, 0x3e, 0x64, 0x3d, 0xbd, 0x90, 0x75, 
0xbd, 0xe1, 0x5d, 0x53, 0xbe, 0x12, 0x43, 0xb9, 0x3e, 0x19, 0xa6, 0xba, 0xbe, 0x00, 0x65, 0x5b, 0xbe, 0xbe, 0x0b, 0xab, 0x3d, 0x90, 0x5d, 0x81, 0x3e, 0x96, 0xad, 0x16, 0xbe, 0xa8, 0x99, 0x23, 0xbe, 0x00, 0x88, 0xb4, 0xbe, 0x73, 0x49, 0xe9, 0xbd, 0xa4, 0x32, 0x2c, 0xbe, 0xc3, 0x7e, 
0xcf, 0xbe, 0xae, 0xd3, 0xfe, 0xbe, 0x8a, 0x49, 0x81, 0xbd, 0xb5, 0x03, 0x86, 0xbc, 0xb7, 0x4a, 0x1a, 0xbd, 0x47, 0xe0, 0xc7, 0xbe, 0x6e, 0x8f, 0x13, 0x3e, 0x79, 0xb2, 0xde, 0x3d, 0xe5, 0x2c, 0x85, 0xba, 0x29, 0xba, 0x0d, 0x3e, 0xcd, 0x41, 0xa2, 0x3e, 0x94, 0xa2, 0xb7, 0x3d, 0x99, 
0x64, 0xeb, 0x3d, 0xa9, 0x1f, 0xe0, 0xbe, 0x01, 0xf6, 0xa4, 0xbe, 0x2a, 0x38, 0xca, 0x3d, 0xb3, 0xf3, 0xb4, 0x3e, 0x7d, 0x2b, 0xb0, 0x3e, 0x51, 0xc7, 0x17, 0x3b, 0xb4, 0xd9, 0x13, 0xbb, 0xef, 0xee, 0x12, 0x3f, 0xfc, 0x77, 0xbc, 0x3e, 0x3e, 0xee, 0x3a, 0xbf, 0xe1, 0x7a, 0x07, 0xbd, 
0xa3, 0x69, 0x79, 0xbd, 0x9e, 0x9e, 0x8d, 0xbe, 0x55, 0x8b, 0x96, 0x3e, 0xd3, 0xcd, 0x8e, 0xbd, 0xdc, 0x5d, 0x48, 0x3f, 0x35, 0xd3, 0x99, 0xbe, 0x8e, 0x57, 0x7d, 0x3e, 0x74, 0xe1, 0x1d, 0xbf, 0x3c, 0xd6, 0xd1, 0x3e, 0xfd, 0x31, 0x1a, 0xbe, 0x22, 0x7d, 0xe6, 0xbe, 0xf4, 0xd2, 0x33, 
0x3e, 0x92, 0xd3, 0x8b, 0x3d, 0xc2, 0x92, 0x34, 0x3c, 0xc0, 0xa5, 0xcf, 0xbf, 0xf9, 0x65, 0x37, 0x3e, 0xd7, 0xd4, 0xb6, 0x3e, 0x8d, 0x0c, 0x23, 0x3d, 0xee, 0xb1, 0xc7, 0xbc, 0x04, 0x89, 0x3c, 0x3f, 0x2b, 0x33, 0x7d, 0x3e, 0x3a, 0xf3, 0xd8, 0x3e, 0xfe, 0x68, 0x00, 0xbe, 0x91, 0x12, 
0x93, 0x3d, 0x3e, 0x8e, 0x6d, 0x3d, 0xb1, 0xa5, 0x88, 0x3e, 0xe0, 0x45, 0x6a, 0x3e, 0x0d, 0xa6, 0xe3, 0xbd, 0x63, 0x40, 0x83, 0xc0, 0xbf, 0x12, 0x6d, 0xbe, 0xa9, 0xc5, 0xe5, 0xbe, 0xe7, 0xaa, 0xc0, 0xbd, 0x37, 0xb6, 0xc5, 0xbd, 0xfd, 0x62, 0xaf, 0x3e, 0x04, 0x80, 0x63, 0x3f, 0x9e, 
0x7a, 0xbd, 0xbd, 0xc1, 0x50, 0x0d, 0x3e, 0x8b, 0xbf, 0x1e, 0xbf, 0x87, 0x2d, 0x72, 0x3d, 0xed, 0x6b, 0x32, 0x3e, 0x32, 0xe8, 0x35, 0x3e, 0xea, 0x16, 0x05, 0x3d, 0x16, 0x13, 0x34, 0xbe, 0x72, 0xd3, 0x05, 0x3e, 0x90, 0x3a, 0x44, 0x3d, 0xb3, 0x34, 0x30, 0x3e, 0x7c, 0x08, 0xb8, 0x3d, 
0x11, 0x63, 0x25, 0x3f, 0x45, 0x3d, 0x0a, 0x3d, 0x91, 0x28, 0xc9, 0xbf, 0x62, 0x5b, 0x56, 0x3e, 0x8c, 0x7f, 0x1e, 0x3e, 0x6e, 0x36, 0x07, 0x3f, 0x80, 0x30, 0x6b, 0xba, 0x29, 0x0d, 0xdc, 0xbd, 0x1d, 0x76, 0x6a, 0x3d, 0x32, 0xc2, 0xcb, 0x3d, 0x03, 0x09, 0xb8, 0x3e, 0x06, 0xe1, 0x5f, 
0x3e, 0xb8, 0x2e, 0x09, 0xbf, 0xcf, 0x4c, 0xac, 0x3e, 0xfa, 0xd8, 0xbf, 0xbe, 0xf7, 0xab, 0x52, 0x3e, 0x92, 0x05, 0x3f, 0xbf, 0x8f, 0x62, 0x0c, 0x3f, 0x9d, 0x84, 0xd8, 0x3e, 0x3c, 0xf6, 0x3b, 0xbd, 0x95, 0x03, 0xd7, 0xbe, 0xff, 0x45, 0xdc, 0x3c, 0xb3, 0x2d, 0x23, 0xbf, 0x88, 0xa4, 
0x79, 0xbe, 0x6d, 0xb7, 0x1b, 0xbe, 0x57, 0x76, 0xa7, 0x3e, 0x1e, 0x68, 0x08, 0xbe, 0x45, 0xe4, 0x96, 0xbc, 0x4a, 0xd9, 0x5b, 0x3e, 0x84, 0xf2, 0x5f, 0x3c, 0x6f, 0xcd, 0x04, 0xbe, 0xb4, 0xa1, 0xd0, 0xbe, 0xdb, 0xca, 0x9c, 0xbe, 0xef, 0xd8, 0x08, 0xbf, 0xaf, 0x56, 0x9a, 0xbe, 0x4d, 
0x1b, 0xc8, 0xbb, 0x4a, 0x4b, 0x94, 0x3e, 0x58, 0xe7, 0x76, 0xbe, 0xf3, 0xfd, 0x13, 0x3e, 0xd2, 0xc0, 0x06, 0xbe, 0x03, 0x1a, 0x0d, 0x3e, 0xac, 0xde, 0x79, 0x3e, 0x93, 0x58, 0xe1, 0xbd, 0x2a, 0x5b, 0x6c, 0x3f, 0xf4, 0x9a, 0x1b, 0x3e, 0x50, 0x78, 0x89, 0x3e, 0xdb, 0x2e, 0x07, 0xbf, 
0x77, 0xab, 0xc7, 0xbf, 0x74, 0xb5, 0x12, 0x3f, 0xfd, 0x65, 0xb9, 0xbe, 0xc0, 0x2b, 0x74, 0xbf, 0x85, 0x71, 0x06, 0x3b, 0xf3, 0xae, 0xb7, 0x3e, 0xb3, 0x73, 0x37, 0xbf, 0xe3, 0xc1, 0xee, 0xbd, 0xe0, 0xa3, 0xdb, 0x3e, 0x6a, 0x33, 0x30, 0x3e, 0x5e, 0xb8, 0x91, 0xbf, 0xed, 0xe3, 0x99, 
0xbe, 0xaf, 0x8a, 0x7a, 0x3e, 0x01, 0x98, 0x3a, 0xbe, 0x70, 0xfc, 0x2a, 0xbe, 0xaa, 0x49, 0xf6, 0x3e, 0xd3, 0x6e, 0x06, 0xbe, 0x37, 0x04, 0xfd, 0x3e, 0xaf, 0x0b, 0x24, 0xbf, 0x71, 0x1f, 0xa0, 0x3e, 0xc1, 0xfa, 0x54, 0x3e, 0xf1, 0x14, 0x00, 0xbd, 0xe7, 0xfb, 0x15, 0xbe, 0x8c, 0x1e, 
0x04, 0xbe, 0x4e, 0xf4, 0x76, 0xc0, 0xcb, 0xc7, 0x6e, 0x3e, 0x4f, 0x44, 0xbe, 0xbe, 0x05, 0x80, 0x29, 0xbf, 0xae, 0xf4, 0xbf, 0xbe, 0xfe, 0xa3, 0xf2, 0x3e, 0x5e, 0x73, 0x87, 0x3f, 0x22, 0xed, 0xb3, 0xbe, 0x43, 0xc5, 0x6b, 0x3e, 0x97, 0x2e, 0xd3, 0xbf, 0x1a, 0x65, 0x26, 0x3e, 0xa4, 
0xa5, 0x04, 0x3f, 0xad, 0x93, 0x1d, 0x3f, 0xa0, 0xea, 0xda, 0xbe, 0xcd, 0x20, 0x09, 0x3e, 0x4d, 0x7f, 0x8f, 0xbe, 0xa7, 0x2e, 0x2a, 0x3d, 0x96, 0x4d, 0xd0, 0xbe, 0xdc, 0x94, 0x5a, 0x3e, 0x6c, 0x8e, 0x1a, 0xbd, 0x5c, 0x2f, 0x37, 0xbe, 0xb5, 0xd5, 0x86, 0xbc, 0xec, 0x94, 0x9a, 0x3e, 
0x5b, 0xb1, 0x83, 0xbe, 0x77, 0x58, 0xbf, 0xbe, 0x6c, 0xe2, 0x3e, 0x3e, 0x71, 0x9a, 0x97, 0x3e, 0xec, 0x79, 0x83, 0xbe, 0x38, 0xb8, 0x8b, 0x3e, 0xeb, 0x0c, 0xdb, 0xbe, 0xb7, 0x22, 0x54, 0x3e, 0x54, 0xfa, 0x2b, 0xbe, 0x66, 0x66, 0xbb, 0x3e, 0x49, 0xbc, 0xcf, 0xbd, 0x57, 0x2f, 0x89, 
0x3e, 0xd8, 0x3c, 0x7a, 0xbe, 0x2c, 0xc7, 0xce, 0x3e, 0xd9, 0x95, 0x4c, 0xbb, 0xf2, 0xec, 0x0e, 0xbd, 0xab, 0xcd, 0x43, 0xbf, 0x53, 0x25, 0x2a, 0xbf, 0x0a, 0x88, 0xe6, 0xbd, 0xf9, 0x42, 0x1e, 0xbf, 0xc5, 0x64, 0x42, 0xbe, 0x69, 0x26, 0x44, 0x3e, 0x3a, 0x21, 0xce, 0x3e, 0xeb, 0x38, 
0x3d, 0xbf, 0xa2, 0xe5, 0x99, 0x3e, 0x48, 0x21, 0xb8, 0xbe, 0xd3, 0x8d, 0x7a, 0x3e, 0xa1, 0xb4, 0x58, 0xbf, 0xf5, 0x6c, 0x28, 0x3f, 0xe7, 0xbd, 0x4b, 0x3e, 0xc4, 0xc4, 0x02, 0x3d, 0x06, 0xbc, 0x08, 0xbf, 0x2b, 0x10, 0xe7, 0x3e, 0x0a, 0x82, 0x86, 0xbe, 0xa0, 0xd2, 0x68, 0xbe, 0xe4, 
0x32, 0xd1, 0x3e, 0x5b, 0x7d, 0x92, 0xbd, 0xcf, 0x30, 0xca, 0xbe, 0x51, 0x4f, 0xd9, 0x3e, 0x6f, 0x6a, 0x08, 0x3f, 0x85, 0xd7, 0xc8, 0xbe, 0x27, 0x06, 0x11, 0xbf, 0xf8, 0x15, 0xf9, 0x3d, 0x9c, 0xe7, 0x81, 0x3f, 0xad, 0xdc, 0x64, 0xbc, 0x6a, 0xc6, 0x07, 0xbe, 0x62, 0x29, 0xa8, 0x3f, 
0x39, 0x24, 0x90, 0xbe, 0xcb, 0x3a, 0xc2, 0x3e, 0x1c, 0x19, 0x0e, 0xbe, 0xa6, 0x93, 0x0b, 0xbd, 0x0d, 0x42, 0x90, 0x3d, 0xe9, 0x09, 0x3c, 0x3e, 0x13, 0x89, 0x95, 0x3c, 0x65, 0x39, 0xc7, 0xbe, 0x4c, 0xb6, 0x8c, 0xbc, 0xa2, 0x9f, 0x26, 0x3e, 0xac, 0x60, 0x01, 0xbf, 0x91, 0x01, 0x0b, 
0x3f, 0x90, 0x29, 0xc6, 0x3d, 0xc9, 0x42, 0xc0, 0xbd, 0xce, 0xfe, 0xed, 0x3e, 0x9a, 0xe7, 0xd5, 0x3e, 0x5e, 0x18, 0x69, 0xbe, 0x94, 0x09, 0x4f, 0x3d, 0xf0, 0x7b, 0x2d, 0x3f, 0xf4, 0x0e, 0x81, 0xbe, 0xc7, 0xd8, 0x0c, 0x3f, 0x51, 0x07, 0xdd, 0x3e, 0xdd, 0x03, 0xe7, 0xbe, 0xfa, 0xfd, 
0x55, 0xbd, 0x32, 0x30, 0xfe, 0xbd, 0x64, 0x6c, 0xcb, 0x3d, 0x43, 0x14, 0xb6, 0xbc, 0x28, 0x31, 0xd7, 0x3e, 0x08, 0x92, 0xd6, 0x3d, 0xa5, 0xb0, 0xbf, 0xbe, 0xf9, 0x9c, 0xe1, 0xbd, 0xae, 0xdd, 0x89, 0x3e, 0x92, 0x27, 0xa9, 0xbe, 0x1b, 0x36, 0x60, 0xbe, 0x6e, 0x63, 0xc9, 0x3d, 0x55, 
0x8c, 0x47, 0x3e, 0x38, 0x96, 0xc3, 0xbf, 0x83, 0x6e, 0x44, 0x3e, 0x53, 0x78, 0x59, 0xbe, 0x0f, 0xb7, 0x1f, 0xbd, 0x07, 0x99, 0x95, 0xbe, 0xfa, 0x1c, 0xe3, 0x3e, 0xcf, 0x27, 0xe8, 0x3e, 0xd0, 0x2e, 0x97, 0x3e, 0xea, 0xc5, 0x0e, 0x3f, 0x20, 0x00, 0x48, 0x3e, 0x03, 0xac, 0x24, 0xbe, 
0xbd, 0x34, 0x9a, 0xbe, 0x87, 0xc0, 0x19, 0x3f, 0x3f, 0xb7, 0x62, 0xbc, 0xcd, 0x71, 0x33, 0x3f, 0x91, 0x06, 0x5e, 0xbe, 0x14, 0x75, 0x10, 0xbf, 0x7d, 0x07, 0xdb, 0xbe, 0xf6, 0x49, 0xea, 0x3e, 0xb6, 0xf4, 0x14, 0x3e, 0x7c, 0x5d, 0x22, 0x3f, 0x0a, 0x59, 0xc3, 0xbe, 0xb8, 0xaf, 0xb9, 
0x3d, 0x51, 0x2f, 0x09, 0xbe, 0xfd, 0x5a, 0x18, 0x3d, 0x6c, 0xfa, 0x2c, 0xbe, 0x6c, 0xd9, 0x83, 0x3e, 0x99, 0x39, 0x0d, 0xbf, 0xc2, 0x19, 0x3f, 0x3e, 0x67, 0x20, 0x6a, 0x3e, 0xde, 0x32, 0x6c, 0x3e, 0x79, 0x0a, 0x6a, 0x3d, 0x51, 0x8e, 0x9d, 0x3e, 0x60, 0x07, 0x75, 0x3e, 0xb5, 0x5f, 
0x7c, 0xbe, 0xc2, 0x12, 0x37, 0xc0, 0x38, 0x0b, 0x17, 0x3e, 0x4c, 0xeb, 0x8f, 0xbe, 0x68, 0x2b, 0x94, 0xbe, 0xd7, 0x41, 0xdb, 0xbe, 0x43, 0xf8, 0xe7, 0x3d, 0xcd, 0xe2, 0xcb, 0x3e, 0x97, 0xcf, 0xb9, 0xbd, 0x29, 0x2e, 0x73, 0x3b, 0x7f, 0xbc, 0x01, 0x3e, 0xcf, 0x41, 0xe2, 0xbe, 0xc2, 
0x8f, 0xe3, 0x3d, 0xd6, 0xe9, 0xf1, 0x3d, 0xc2, 0xe8, 0xc8, 0x3d, 0x48, 0x88, 0x0e, 0xbd, 0x7b, 0x47, 0x28, 0xc0, 0x4e, 0x09, 0xb8, 0xbe, 0x8e, 0x0b, 0xd1, 0x3e, 0xa8, 0x76, 0x5a, 0xbf, 0xaf, 0x68, 0x6e, 0x3d, 0xdd, 0xc9, 0x42, 0xbe, 0x2d, 0x61, 0xac, 0xbe, 0x38, 0x50, 0xe9, 0xbc, 
0x88, 0xbc, 0x41, 0x3e, 0x55, 0x13, 0x26, 0x3e, 0xd8, 0x8b, 0xff, 0xbf, 0xbf, 0xf7, 0x12, 0x3f, 0x5a, 0xfd, 0x6b, 0x3e, 0xa5, 0xe5, 0x55, 0x3c, 0x21, 0xe8, 0x9c, 0x3e, 0xde, 0x1b, 0x4e, 0x3f, 0xc9, 0x8b, 0x91, 0x3e, 0x9f, 0xd2, 0x27, 0xbe, 0x69, 0xfb, 0x35, 0xbe, 0xc7, 0x17, 0x34, 
0xbd, 0xc7, 0xb3, 0xbd, 0x3d, 0x5f, 0xbe, 0xfe, 0xbd, 0x20, 0x01, 0xa3, 0xbe, 0xce, 0x81, 0x17, 0x3e, 0x68, 0xad, 0x85, 0xbe, 0xd8, 0x60, 0x1b, 0x3e, 0x13, 0x78, 0xe2, 0x3e, 0x66, 0x69, 0x33, 0x3e, 0xad, 0x93, 0xaf, 0x3a, 0xa3, 0x35, 0xa6, 0x3d, 0xab, 0xef, 0x76, 0xbf, 0xc8, 0xd8, 
0x22, 0x3e, 0xa1, 0xa7, 0xbf, 0xbe, 0x5c, 0xa0, 0x1d, 0x3e, 0xfc, 0xea, 0xfb, 0x3b, 0xab, 0x91, 0xb9, 0xbe, 0xdd, 0x11, 0x07, 0x3b, 0x74, 0x8d, 0xe9, 0xbd, 0x4e, 0xb1, 0x56, 0x3e, 0xb1, 0x34, 0x3a, 0x3f, 0x78, 0x9d, 0x8f, 0xbe, 0x91, 0xca, 0xe6, 0x3e, 0x54, 0x1b, 0xa2, 0x3c, 0x79, 
0x86, 0x89, 0xbd, 0x69, 0x87, 0x53, 0x3e, 0x2d, 0x34, 0x35, 0xc0, 0x3f, 0x36, 0x18, 0x3c, 0x90, 0x90, 0x50, 0x3e, 0xda, 0xc7, 0xb4, 0xbf, 0x80, 0xf6, 0xbf, 0x3d, 0x72, 0xfa, 0x71, 0x3e, 0xf2, 0xa8, 0xd4, 0xba, 0x44, 0x76, 0x7a, 0xbe, 0x43, 0x3f, 0x99, 0x3c, 0x21, 0xc5, 0x7b, 0x3e, 
0xb9, 0xff, 0x3e, 0xbe, 0x22, 0x9b, 0x14, 0x3e, 0xe1, 0x5e, 0x21, 0x3e, 0x28, 0x07, 0xe4, 0xbd, 0x3e, 0x16, 0x98, 0x3e, 0x26, 0xbc, 0x6e, 0xbe, 0x58, 0x9d, 0xcc, 0xbe, 0xb7, 0xa0, 0x11, 0xbf, 0xb8, 0x3f, 0x96, 0x3e, 0x79, 0x43, 0xd4, 0x3d, 0x17, 0x1e, 0x02, 0xbf, 0x5c, 0x4d, 0x6b, 
0x3e, 0x07, 0xb8, 0x0c, 0x3f, 0xac, 0xe0, 0xa0, 0x3e, 0x80, 0x69, 0x1d, 0x3e, 0x2d, 0x66, 0x8a, 0x3e, 0x9b, 0xaf, 0x02, 0xbf, 0x3d, 0x69, 0x9e, 0x3d, 0x82, 0xf9, 0xd3, 0x3d, 0x30, 0x04, 0x95, 0x3e, 0xea, 0x2c, 0xc2, 0xc0, 0xea, 0xb4, 0xe8, 0xbe, 0xa2, 0x99, 0xc4, 0x3c, 0xe1, 0xe7, 
0x3d, 0xbc, 0x3d, 0x93, 0x4a, 0xbd, 0x29, 0xed, 0x70, 0x3e, 0x3d, 0xc0, 0xcc, 0xbe, 0x27, 0x1f, 0x46, 0xbe, 0xb2, 0xda, 0x78, 0x3e, 0x75, 0x36, 0xa4, 0x3e, 0x99, 0x81, 0x79, 0xbf, 0x12, 0xc6, 0x27, 0x3f, 0x56, 0x9d, 0x81, 0xbe, 0xb4, 0xbb, 0x96, 0xbd, 0xe0, 0x28, 0xcf, 0xbe, 0x02, 
0x33, 0x27, 0x3f, 0xa0, 0x5e, 0x8b, 0xbd, 0x8c, 0x3b, 0x16, 0x3f, 0x23, 0xe1, 0x9d, 0x3e, 0x1e, 0xd8, 0x93, 0x3c, 0x6a, 0x7f, 0x84, 0x3e, 0x36, 0xba, 0x23, 0x3e, 0xe9, 0x99, 0xf0, 0x3d, 0x27, 0xb0, 0x95, 0x3b, 0x2d, 0x80, 0xc0, 0x3e, 0x8d, 0xf9, 0x82, 0x3e, 0x7c, 0x7d, 0x43, 0xbf, 
0xd4, 0x7e, 0xb8, 0x3e, 0xb9, 0xfe, 0x1f, 0xbe, 0xfb, 0x32, 0xb3, 0xbe, 0x8f, 0x39, 0xd0, 0x3e, 0x1b, 0xa6, 0x7a, 0xbe, 0xe0, 0xa2, 0xf5, 0xbd, 0xfe, 0x7d, 0x75, 0xbb, 0xe5, 0x3d, 0x23, 0x3e, 0x8c, 0x99, 0x4c, 0x3e, 0x33, 0xbb, 0x4a, 0x3d, 0xb6, 0x57, 0x68, 0xbe, 0xbb, 0xb3, 0xc0, 
0xbe, 0x52, 0x77, 0x7a, 0x3e, 0x75, 0x93, 0xf6, 0xbd, 0x7a, 0xff, 0xab, 0x3e, 0xcc, 0x99, 0x04, 0x3e, 0x4e, 0x79, 0x20, 0xbd, 0x2a, 0xb9, 0x48, 0xbe, 0xe8, 0x93, 0xf4, 0xbf, 0xcd, 0x48, 0x8c, 0xbf, 0x4c, 0x20, 0xe3, 0xbe, 0xb3, 0x0a, 0xac, 0xbf, 0xe8, 0xef, 0xd0, 0x3d, 0xa0, 0x44, 
0x9a, 0xbe, 0x34, 0x7a, 0xcc, 0xbd, 0x20, 0x5f, 0xf5, 0x3e, 0x0e, 0x11, 0x70, 0x3e, 0x94, 0xb9, 0xc9, 0xbe, 0xae, 0x48, 0xe2, 0x3e, 0x51, 0x21, 0xb3, 0xbd, 0xf1, 0x73, 0x24, 0xbd, 0x09, 0xa1, 0x65, 0xbd, 0xc5, 0x0e, 0x79, 0xbc, 0x24, 0xa4, 0x54, 0x3f, 0x44, 0xc0, 0xd7, 0x3e, 0xe1, 
0x0a, 0x91, 0x3e, 0x37, 0x2f, 0x75, 0x3f, 0xe9, 0x8f, 0x87, 0xbe, 0x9d, 0xe8, 0x50, 0x3e, 0xfc, 0x34, 0x32, 0x3e, 0x7a, 0x16, 0xe0, 0x3d, 0x65, 0x18, 0x2e, 0x3e, 0x47, 0x42, 0x46, 0xbf, 0x11, 0x4c, 0x48, 0xbe, 0xd6, 0x43, 0x75, 0xbe, 0x9a, 0xec, 0xfe, 0x3d, 0xa5, 0x26, 0x42, 0x3e, 
0xc6, 0x69, 0xba, 0xbe, 0xf9, 0xd8, 0xe6, 0x3e, 0xaf, 0xa3, 0x07, 0x3e, 0x46, 0xfe, 0xff, 0xff, 0x04, 0x00, 0x00, 0x00, 0xa4, 0x00, 0x00, 0x00, 0x06, 0x8a, 0x74, 0x3d, 0xfd, 0x5d, 0xef, 0x3d, 0x52, 0x72, 0x9e, 0x3d, 0x51, 0xe1, 0x21, 0xbe, 0xaf, 0x01, 0xc0, 0xbd, 0x47, 0x95, 0x49, 
0x3e, 0xa0, 0xf2, 0x4f, 0x3d, 0x94, 0xc7, 0x54, 0xbd, 0xc2, 0xe4, 0x61, 0xbd, 0x9a, 0xfa, 0xdf, 0x3c, 0x9a, 0x99, 0xbf, 0x3d, 0xf3, 0x71, 0x59, 0x3e, 0x94, 0x17, 0x84, 0xbe, 0x03, 0x7c, 0x30, 0xbe, 0x70, 0x6c, 0x60, 0xbe, 0x67, 0x36, 0x1a, 0x3e, 0xc6, 0xd0, 0xd9, 0xbb, 0x2d, 0x89, 
0x63, 0x3d, 0x92, 0xc9, 0x1e, 0x3e, 0x3b, 0x9d, 0x24, 0x3d, 0x3b, 0x11, 0x20, 0xbe, 0x30, 0xba, 0x5e, 0x3d, 0x6a, 0x33, 0x0a, 0x3d, 0xd6, 0xeb, 0xa9, 0x3c, 0xea, 0xdd, 0x82, 0xbd, 0x93, 0x5e, 0x53, 0x3e, 0x35, 0x76, 0xa8, 0x3c, 0xc0, 0xa5, 0xa2, 0x3c, 0x5d, 0xe9, 0x83, 0xbd, 0xf6, 
0xe4, 0x12, 0x3e, 0xd2, 0xf2, 0x44, 0x3e, 0xd2, 0xa3, 0x4b, 0xbe, 0xc7, 0x86, 0xbb, 0x3d, 0xe3, 0x10, 0xec, 0x3d, 0xb5, 0xe1, 0xdd, 0x3d, 0xc5, 0x62, 0x57, 0xbd, 0x68, 0x30, 0xa6, 0xbd, 0x5a, 0x5a, 0x2a, 0x3e, 0x68, 0x6e, 0x94, 0x3e, 0x0a, 0xc9, 0xaf, 0x3c, 0xdf, 0xc8, 0xe7, 0xbc, 
0xf6, 0xfe, 0xff, 0xff, 0x04, 0x00, 0x00, 0x00, 0x0c, 0x00, 0x00, 0x00, 0xc7, 0x3a, 0x07, 0xbd, 0xea, 0x74, 0x5b, 0xbe, 0x8f, 0xfe, 0x52, 0x3e, 0x0e, 0xff, 0xff, 0xff, 0x04, 0x00, 0x00, 0x00, 0x50, 0x00, 0x00, 0x00, 0xe0, 0xd2, 0x40, 0x3d, 0x23, 0xdd, 0x9d, 0xbd, 0x15, 0xbb, 0x69, 
0xbc, 0x62, 0xa1, 0xa8, 0x3d, 0xa3, 0x72, 0x38, 0x3e, 0xee, 0x73, 0x94, 0x3e, 0xc4, 0xe2, 0x1e, 0x3e, 0xfe, 0x43, 0x16, 0x3d, 0x85, 0xdc, 0x04, 0xbe, 0xd5, 0xd6, 0x11, 0xbe, 0xbb, 0x78, 0x62, 0x3d, 0xfc, 0x4a, 0x1d, 0x3e, 0x85, 0xf5, 0x70, 0xbb, 0x89, 0x8c, 0xc4, 0xbd, 0x98, 0xa4, 
0x1a, 0x3d, 0x55, 0xe9, 0xbd, 0xbd, 0x17, 0x81, 0xcd, 0x3d, 0x00, 0x00, 0x00, 0x00, 0x0c, 0x00, 0x87, 0x3e, 0xe0, 0xcf, 0x8b, 0xbd, 0x5c, 0xfa, 0xff, 0xff, 0x60, 0xfa, 0xff, 0xff, 0x0f, 0x00, 0x00, 0x00, 0x4d, 0x4c, 0x49, 0x52, 0x20, 0x43, 0x6f, 0x6e, 0x76, 0x65, 0x72, 0x74, 0x65, 
0x64, 0x2e, 0x00, 0x01, 0x00, 0x00, 0x00, 0x14, 0x00, 0x00, 0x00, 0x00, 0x00, 0x0e, 0x00, 0x18, 0x00, 0x14, 0x00, 0x10, 0x00, 0x0c, 0x00, 0x08, 0x00, 0x04, 0x00, 0x0e, 0x00, 0x00, 0x00, 0x14, 0x00, 0x00, 0x00, 0x1c, 0x00, 0x00, 0x00, 0x24, 0x01, 0x00, 0x00, 0x28, 0x01, 0x00, 0x00, 
0x2c, 0x01, 0x00, 0x00, 0x04, 0x00, 0x00, 0x00, 0x6d, 0x61, 0x69, 0x6e, 0x00, 0x00, 0x00, 0x00, 0x04, 0x00, 0x00, 0x00, 0xcc, 0x00, 0x00, 0x00, 0x84, 0x00, 0x00, 0x00, 0x50, 0x00, 0x00, 0x00, 0x14, 0x00, 0x00, 0x00, 0x00, 0x00, 0x0e, 0x00, 0x1a, 0x00, 0x14, 0x00, 0x10, 0x00, 0x0c, 
0x00, 0x0b, 0x00, 0x04, 0x00, 0x0e, 0x00, 0x00, 0x00, 0x1c, 0x00, 0x00, 0x00, 0x00, 0x00, 0x00, 0x09, 0x1c, 0x00, 0x00, 0x00, 0x20, 0x00, 0x00, 0x00, 0x01, 0x00, 0x00, 0x00, 0x00, 0x00, 0x06, 0x00, 0x08, 0x00, 0x04, 0x00, 0x06, 0x00, 0x00, 0x00, 0x00, 0x00, 0x80, 0x3f, 0x01, 0x00, 
0x00, 0x00, 0x0a, 0x00, 0x00, 0x00, 0x01, 0x00, 0x00, 0x00, 0x09, 0x00, 0x00, 0x00, 0x9a, 0xff, 0xff, 0xff, 0x10, 0x00, 0x00, 0x00, 0x00, 0x00, 0x00, 0x08, 0x0c, 0x00, 0x00, 0x00, 0x10, 0x00, 0x00, 0x00, 0x24, 0xfb, 0xff, 0xff, 0x01, 0x00, 0x00, 0x00, 0x09, 0x00, 0x00, 0x00, 0x03, 
0x00, 0x00, 0x00, 0x08, 0x00, 0x00, 0x00, 0x06, 0x00, 0x00, 0x00, 0x02, 0x00, 0x00, 0x00, 0xca, 0xff, 0xff, 0xff, 0x10, 0x00, 0x00, 0x00, 0x00, 0x00, 0x00, 0x08, 0x10, 0x00, 0x00, 0x00, 0x14, 0x00, 0x00, 0x00, 0xba, 0xff, 0xff, 0xff, 0x00, 0x00, 0x00, 0x01, 0x01, 0x00, 0x00, 0x00, 
0x08, 0x00, 0x00, 0x00, 0x03, 0x00, 0x00, 0x00, 0x07, 0x00, 0x00, 0x00, 0x05, 0x00, 0x00, 0x00, 0x01, 0x00, 0x00, 0x00, 0x00, 0x00, 0x0e, 0x00, 0x16, 0x00, 0x00, 0x00, 0x10, 0x00, 0x0c, 0x00, 0x0b, 0x00, 0x04, 0x00, 0x0e, 0x00, 0x00, 0x00, 0x18, 0x00, 0x00, 0x00, 0x00, 0x00, 0x00, 
0x08, 0x18, 0x00, 0x00, 0x00, 0x1c, 0x00, 0x00, 0x00, 0x00, 0x00, 0x06, 0x00, 0x08, 0x00, 0x07, 0x00, 0x06, 0x00, 0x00, 0x00, 0x00, 0x00, 0x00, 0x01, 0x01, 0x00, 0x00, 0x00, 0x07, 0x00, 0x00, 0x00, 0x03, 0x00, 0x00, 0x00, 0x00, 0x00, 0x00, 0x00, 0x04, 0x00, 0x00, 0x00, 0x03, 0x00, 
0x00, 0x00, 0x01, 0x00, 0x00, 0x00, 0x0a, 0x00, 0x00, 0x00, 0x01, 0x00, 0x00, 0x00, 0x00, 0x00, 0x00, 0x00, 0x0b, 0x00, 0x00, 0x00, 0x04, 0x04, 0x00, 0x00, 0x94, 0x03, 0x00, 0x00, 0x24, 0x03, 0x00, 0x00, 0xd0, 0x02, 0x00, 0x00, 0x88, 0x02, 0x00, 0x00, 0x3c, 0x02, 0x00, 0x00, 0xf0, 
0x01, 0x00, 0x00, 0x68, 0x01, 0x00, 0x00, 0xd8, 0x00, 0x00, 0x00, 0x60, 0x00, 0x00, 0x00, 0x04, 0x00, 0x00, 0x00, 0x3e, 0xfc, 0xff, 0xff, 0x00, 0x00, 0x00, 0x01, 0x14, 0x00, 0x00, 0x00, 0x1c, 0x00, 0x00, 0x00, 0x1c, 0x00, 0x00, 0x00, 0x0b, 0x00, 0x00, 0x00, 0x34, 0x00, 0x00, 0x00, 
0x02, 0x00, 0x00, 0x00, 0xff, 0xff, 0xff, 0xff, 0x03, 0x00, 0x00, 0x00, 0x28, 0xfc, 0xff, 0xff, 0x19, 0x00, 0x00, 0x00, 0x53, 0x74, 0x61, 0x74, 0x65, 0x66, 0x75, 0x6c, 0x50, 0x61, 0x72, 0x74, 0x69, 0x74, 0x69, 0x6f, 0x6e, 0x65, 0x64, 0x43, 0x61, 0x6c, 0x6c, 0x3a, 0x30, 0x00, 0x00, 
0x00, 0x02, 0x00, 0x00, 0x00, 0x01, 0x00, 0x00, 0x00, 0x03, 0x00, 0x00, 0x00, 0x96, 0xfc, 0xff, 0xff, 0x00, 0x00, 0x00, 0x01, 0x14, 0x00, 0x00, 0x00, 0x1c, 0x00, 0x00, 0x00, 0x1c, 0x00, 0x00, 0x00, 0x0a, 0x00, 0x00, 0x00, 0x50, 0x00, 0x00, 0x00, 0x02, 0x00, 0x00, 0x00, 0xff, 0xff, 
0xff, 0xff, 0x03, 0x00, 0x00, 0x00, 0x80, 0xfc, 0xff, 0xff, 0x34, 0x00, 0x00, 0x00, 0x73, 0x65, 0x71, 0x75, 0x65, 0x6e, 0x74, 0x69, 0x61, 0x6c, 0x2f, 0x64, 0x65, 0x6e, 0x73, 0x65, 0x5f, 0x32, 0x2f, 0x4d, 0x61, 0x74, 0x4d, 0x75, 0x6c, 0x3b, 0x73, 0x65, 0x71, 0x75, 0x65, 0x6e, 0x74, 
0x69, 0x61, 0x6c, 0x2f, 0x64, 0x65, 0x6e, 0x73, 0x65, 0x5f, 0x32, 0x2f, 0x42, 0x69, 0x61, 0x73, 0x41, 0x64, 0x64, 0x00, 0x00, 0x00, 0x00, 0x02, 0x00, 0x00, 0x00, 0x01, 0x00, 0x00, 0x00, 0x03, 0x00, 0x00, 0x00, 0x0a, 0xfd, 0xff, 0xff, 0x00, 0x00, 0x00, 0x01, 0x14, 0x00, 0x00, 0x00, 
0x1c, 0x00, 0x00, 0x00, 0x1c, 0x00, 0x00, 0x00, 0x09, 0x00, 0x00, 0x00, 0x68, 0x00, 0x00, 0x00, 0x02, 0x00, 0x00, 0x00, 0xff, 0xff, 0xff, 0xff, 0x14, 0x00, 0x00, 0x00, 0xf4, 0xfc, 0xff, 0xff, 0x4c, 0x00, 0x00, 0x00, 0x73, 0x65, 0x71, 0x75, 0x65, 0x6e, 0x74, 0x69, 0x61, 0x6c, 0x2f, 
0x64, 0x65, 0x6e, 0x73, 0x65, 0x5f, 0x31, 0x2f, 0x4d, 0x61, 0x74, 0x4d, 0x75, 0x6c, 0x3b, 0x73, 0x65, 0x71, 0x75, 0x65, 0x6e, 0x74, 0x69, 0x61, 0x6c, 0x2f, 0x64, 0x65, 0x6e, 0x73, 0x65, 0x5f, 0x31, 0x2f, 0x52, 0x65, 0x6c, 0x75, 0x3b, 0x73, 0x65, 0x71, 0x75, 0x65, 0x6e, 0x74, 0x69, 
0x61, 0x6c, 0x2f, 0x64, 0x65, 0x6e, 0x73, 0x65, 0x5f, 0x31, 0x2f, 0x42, 0x69, 0x61, 0x73, 0x41, 0x64, 0x64, 0x00, 0x00, 0x00, 0x00, 0x02, 0x00, 0x00, 0x00, 0x01, 0x00, 0x00, 0x00, 0x14, 0x00, 0x00, 0x00, 0x96, 0xfd, 0xff, 0xff, 0x00, 0x00, 0x00, 0x01, 0x14, 0x00, 0x00, 0x00, 0x1c, 
0x00, 0x00, 0x00, 0x1c, 0x00, 0x00, 0x00, 0x08, 0x00, 0x00, 0x00, 0x60, 0x00, 0x00, 0x00, 0x02, 0x00, 0x00, 0x00, 0xff, 0xff, 0xff, 0xff, 0x29, 0x00, 0x00, 0x00, 0x80, 0xfd, 0xff, 0xff, 0x46, 0x00, 0x00, 0x00, 0x73, 0x65, 0x71, 0x75, 0x65, 0x6e, 0x74, 0x69, 0x61, 0x6c, 0x2f, 0x64, 
0x65, 0x6e, 0x73, 0x65, 0x2f, 0x4d, 0x61, 0x74, 0x4d, 0x75, 0x6c, 0x3b, 0x73, 0x65, 0x71, 0x75, 0x65, 0x6e, 0x74, 0x69, 0x61, 0x6c, 0x2f, 0x64, 0x65, 0x6e, 0x73, 0x65, 0x2f, 0x52, 0x65, 0x6c, 0x75, 0x3b, 0x73, 0x65, 0x71, 0x75, 0x65, 0x6e, 0x74, 0x69, 0x61, 0x6c, 0x2f, 0x64, 0x65, 
0x6e, 0x73, 0x65, 0x2f, 0x42, 0x69, 0x61, 0x73, 0x41, 0x64, 0x64, 0x00, 0x00, 0x02, 0x00, 0x00, 0x00, 0x01, 0x00, 0x00, 0x00, 0x29, 0x00, 0x00, 0x00, 0x86, 0xfe, 0xff, 0xff, 0x00, 0x00, 0x00, 0x01, 0x10, 0x00, 0x00, 0x00, 0x10, 0x00, 0x00, 0x00, 0x07, 0x00, 0x00, 0x00, 0x28, 0x00, 
0x00, 0x00, 0xf4, 0xfd, 0xff, 0xff, 0x19, 0x00, 0x00, 0x00, 0x73, 0x65, 0x71, 0x75, 0x65, 0x6e, 0x74, 0x69, 0x61, 0x6c, 0x2f, 0x64, 0x65, 0x6e, 0x73, 0x65, 0x5f, 0x32, 0x2f, 0x4d, 0x61, 0x74, 0x4d, 0x75, 0x6c, 0x00, 0x00, 0x00, 0x02, 0x00, 0x00, 0x00, 0x03, 0x00, 0x00, 0x00, 0x14, 
0x00, 0x00, 0x00, 0xce, 0xfe, 0xff, 0xff, 0x00, 0x00, 0x00, 0x01, 0x10, 0x00, 0x00, 0x00, 0x10, 0x00, 0x00, 0x00, 0x06, 0x00, 0x00, 0x00, 0x28, 0x00, 0x00, 0x00, 0x3c, 0xfe, 0xff, 0xff, 0x19, 0x00, 0x00, 0x00, 0x73, 0x65, 0x71, 0x75, 0x65, 0x6e, 0x74, 0x69, 0x61, 0x6c, 0x2f, 0x64, 
0x65, 0x6e, 0x73, 0x65, 0x5f, 0x31, 0x2f, 0x4d, 0x61, 0x74, 0x4d, 0x75, 0x6c, 0x00, 0x00, 0x00, 0x02, 0x00, 0x00, 0x00, 0x14, 0x00, 0x00, 0x00, 0x29, 0x00, 0x00, 0x00, 0x16, 0xff, 0xff, 0xff, 0x00, 0x00, 0x00, 0x01, 0x10, 0x00, 0x00, 0x00, 0x10, 0x00, 0x00, 0x00, 0x05, 0x00, 0x00, 
0x00, 0x24, 0x00, 0x00, 0x00, 0x84, 0xfe, 0xff, 0xff, 0x17, 0x00, 0x00, 0x00, 0x73, 0x65, 0x71, 0x75, 0x65, 0x6e, 0x74, 0x69, 0x61, 0x6c, 0x2f, 0x64, 0x65, 0x6e, 0x73, 0x65, 0x2f, 0x4d, 0x61, 0x74, 0x4d, 0x75, 0x6c, 0x00, 0x02, 0x00, 0x00, 0x00, 0x29, 0x00, 0x00, 0x00, 0x0f, 0x00, 
0x00, 0x00, 0x5a, 0xff, 0xff, 0xff, 0x00, 0x00, 0x00, 0x01, 0x10, 0x00, 0x00, 0x00, 0x10, 0x00, 0x00, 0x00, 0x04, 0x00, 0x00, 0x00, 0x34, 0x00, 0x00, 0x00, 0xc8, 0xfe, 0xff, 0xff, 0x27, 0x00, 0x00, 0x00, 0x73, 0x65, 0x71, 0x75, 0x65, 0x6e, 0x74, 0x69, 0x61, 0x6c, 0x2f, 0x64, 0x65, 
0x6e, 0x73, 0x65, 0x2f, 0x42, 0x69, 0x61, 0x73, 0x41, 0x64, 0x64, 0x2f, 0x52, 0x65, 0x61, 0x64, 0x56, 0x61, 0x72, 0x69, 0x61, 0x62, 0x6c, 0x65, 0x4f, 0x70, 0x00, 0x01, 0x00, 0x00, 0x00, 0x29, 0x00, 0x00, 0x00, 0xaa, 0xff, 0xff, 0xff, 0x00, 0x00, 0x00, 0x01, 0x10, 0x00, 0x00, 0x00, 
0x10, 0x00, 0x00, 0x00, 0x03, 0x00, 0x00, 0x00, 0x38, 0x00, 0x00, 0x00, 0x18, 0xff, 0xff, 0xff, 0x29, 0x00, 0x00, 0x00, 0x73, 0x65, 0x71, 0x75, 0x65, 0x6e, 0x74, 0x69, 0x61, 0x6c, 0x2f, 0x64, 0x65, 0x6e, 0x73, 0x65, 0x5f, 0x32, 0x2f, 0x42, 0x69, 0x61, 0x73, 0x41, 0x64, 0x64, 0x2f, 
0x52, 0x65, 0x61, 0x64, 0x56, 0x61, 0x72, 0x69, 0x61, 0x62, 0x6c, 0x65, 0x4f, 0x70, 0x00, 0x00, 0x00, 0x01, 0x00, 0x00, 0x00, 0x03, 0x00, 0x00, 0x00, 0x00, 0x00, 0x16, 0x00, 0x18, 0x00, 0x14, 0x00, 0x00, 0x00, 0x10, 0x00, 0x0c, 0x00, 0x08, 0x00, 0x00, 0x00, 0x00, 0x00, 0x00, 0x00, 
0x07, 0x00, 0x16, 0x00, 0x00, 0x00, 0x00, 0x00, 0x00, 0x01, 0x10, 0x00, 0x00, 0x00, 0x10, 0x00, 0x00, 0x00, 0x02, 0x00, 0x00, 0x00, 0x38, 0x00, 0x00, 0x00, 0x84, 0xff, 0xff, 0xff, 0x29, 0x00, 0x00, 0x00, 0x73, 0x65, 0x71, 0x75, 0x65, 0x6e, 0x74, 0x69, 0x61, 0x6c, 0x2f, 0x64, 0x65, 
0x6e, 0x73, 0x65, 0x5f, 0x31, 0x2f, 0x42, 0x69, 0x61, 0x73, 0x41, 0x64, 0x64, 0x2f, 0x52, 0x65, 0x61, 0x64, 0x56, 0x61, 0x72, 0x69, 0x61, 0x62, 0x6c, 0x65, 0x4f, 0x70, 0x00, 0x00, 0x00, 0x01, 0x00, 0x00, 0x00, 0x14, 0x00, 0x00, 0x00, 0x00, 0x00, 0x16, 0x00, 0x1c, 0x00, 0x18, 0x00, 
0x00, 0x00, 0x14, 0x00, 0x10, 0x00, 0x0c, 0x00, 0x00, 0x00, 0x00, 0x00, 0x08, 0x00, 0x07, 0x00, 0x16, 0x00, 0x00, 0x00, 0x00, 0x00, 0x00, 0x01, 0x14, 0x00, 0x00, 0x00, 0x20, 0x00, 0x00, 0x00, 0x20, 0x00, 0x00, 0x00, 0x01, 0x00, 0x00, 0x00, 0x3c, 0x00, 0x00, 0x00, 0x02, 0x00, 0x00, 
0x00, 0xff, 0xff, 0xff, 0xff, 0x0f, 0x00, 0x00, 0x00, 0x04, 0x00, 0x04, 0x00, 0x04, 0x00, 0x00, 0x00, 0x1d, 0x00, 0x00, 0x00, 0x73, 0x65, 0x72, 0x76, 0x69, 0x6e, 0x67, 0x5f, 0x64, 0x65, 0x66, 0x61, 0x75, 0x6c, 0x74, 0x5f, 0x64, 0x65, 0x6e, 0x73, 0x65, 0x5f, 0x69, 0x6e, 0x70, 0x75, 
0x74, 0x3a, 0x30, 0x00, 0x00, 0x00, 0x02, 0x00, 0x00, 0x00, 0x01, 0x00, 0x00, 0x00, 0x0f, 0x00, 0x00, 0x00, 0x02, 0x00, 0x00, 0x00, 0x20, 0x00, 0x00, 0x00, 0x04, 0x00, 0x00, 0x00, 0xf4, 0xff, 0xff, 0xff, 0x19, 0x00, 0x00, 0x00, 0x00, 0x00, 0x00, 0x19, 0x0c, 0x00, 0x0c, 0x00, 0x0b, 
0x00, 0x00, 0x00, 0x00, 0x00, 0x04, 0x00, 0x0c, 0x00, 0x00, 0x00, 0x09, 0x00, 0x00, 0x00, 0x00, 0x00, 0x00, 0x09 };