#pragma once

#ifdef __has_attribute
#define HAVE_ATTRIBUTE(x) __has_attribute(x)
#else
#define HAVE_ATTRIBUTE(x) 0
#endif
#if HAVE_ATTRIBUTE(aligned) || (defined(__GNUC__) && !defined(__clang__))
#define DATA_ALIGN_ATTRIBUTE __attribute__((aligned(4)))
#else
#define DATA_ALIGN_ATTRIBUTE
#endif

// automatically configure network
#define TF_NUM_INPUTS 15
#define TF_NUM_OUTPUTS 2
#define TF_NUM_OPS 2
#define TF_OP_FULLYCONNECTED
#define TF_OP_SOFTMAX

int expected_classes[] = {1, 0, 1, 1, 0, 0, 0, 1, 0, 1, 1, 0, 0, 0, 0, 0, 1, 1, 1, 0, 0, 1, 1, 0, 0, 1, 0, 1, 0, 0, 0, 1, 1, 0, 0, 0, 1, 0, 0, 0, 1, 0, 1, 1, 1, 0, 0, 0, 1, 1, 0, 1, 1, 
0, 0, 0, 1, 0, 1, 1, 1, 0, 1, 0, 0, 0, 1, 0, 0, 1, 0, 0, 1, 1, 1, 0, 0, 0, 1, 1, 0, 0, 0, 0, 1, 0, 0, 0, 1, 1, 1, 1, 1, 0, 1, 0, 1, 0, 0, 1};

float samples[][15] = {
{1.0f, 0.0f, 0.0039215686274509f, 0.1f, 0.0f, 0.0f, 0.01f, 0.0f, 0.0f, 0.5f, 0.0f, 1.0f, 1.0f, 0.0019569471624266f, 0.0f},
{0.0f, 0.5274860540992238f, 0.3372549019607843f, 0.9f, 0.0f, 0.61f, 1.0f, 0.0f, 0.0f, 0.5f, 0.61f, 0.5254901960784314f, 0.0f, 0.0019569471624266f, 0.0f},
{0.0f, 0.1695557923014435f, 0.2235294117647058f, 0.9f, 0.0f, 1.0f, 1.0f, 0.0f, 0.0f, 0.0f, 1.0f, 0.0117647058823529f, 0.0f, 0.1272015655577299f, 0.0f},
{0.83f, 0.0f, 0.3372549019607843f, 0.2f, 0.0f, 0.31f, 1.0f, 0.0f, 0.1964620157074655f, 0.5f, 0.03f, 0.1137254901960784f, 1.0f, 0.0156555772994129f, 0.12f},
{0.0f, 0.3113737036329547f, 1.0f, 0.9f, 1.0f, 1.0f, 1.0f, 0.01f, 0.6790393436802554f, 0.5f, 0.01f, 0.6078431372549019f, 0.0f, 0.0078277886497064f, 0.0f},
{0.72f, 0.3859736806409068f, 0.1098039215686274f, 0.9f, 1.0f, 0.11f, 1.0f, 0.0f, 0.4223890529711506f, 0.5f, 0.0f, 1.0f, 0.0f, 0.0058708414872798f, 0.0f},
{0.0f, 0.3226249870955455f, 1.0f, 0.9f, 1.0f, 1.0f, 1.0f, 0.0f, 0.4356724332174359f, 0.5f, 0.01f, 0.592156862745098f, 0.0f, 0.0919765166340508f, 0.0f},
{0.66f, 0.0f, 0.5019607843137255f, 0.9f, 0.0f, 0.5f, 1.0f, 0.0f, 0.0f, 0.5f, 0.0f, 1.0f, 0.0f, 0.0019569471624266f, 0.0f},
{0.33f, 0.357814330511511f, 0.5058823529411764f, 0.9f, 1.0f, 0.51f, 1.0f, 0.0f, 0.411130530199611f, 0.5f, 0.0f, 1.0f, 0.0f, 0.0039138943248532f, 0.0f},
{1.0f, 0.0f, 0.0078431372549019f, 0.1f, 0.0f, 0.01f, 0.02f, 0.0f, 0.0f, 0.5f, 0.0f, 1.0f, 1.0f, 0.0039138943248532f, 0.0f},
{0.02f, 0.0f, 0.6705882352941176f, 0.5f, 0.0f, 0.73f, 1.0f, 0.69f, 0.0f, 0.5f, 0.0f, 0.9215686274509804f, 0.0f, 0.2348336594911937f, 1.0f},
{0.0f, 0.3704398841349445f, 0.2862745098039215f, 0.9f, 1.0f, 0.16f, 1.0f, 0.0f, 0.9073782554431132f, 0.5f, 0.03f, 0.1490196078431372f, 0.0f, 0.0019569471624266f, 0.0f},
{0.0f, 0.3263993851108594f, 1.0f, 0.9f, 1.0f, 1.0f, 1.0f, 0.0f, 0.5804559990533295f, 0.5f, 0.01f, 0.2784313725490196f, 0.0f, 0.0156555772994129f, 0.0f},
{0.0f, 0.2988423745623338f, 1.0f, 0.9f, 1.0f, 1.0f, 1.0f, 0.0f, 0.4600316354940863f, 0.5f, 0.0f, 1.0f, 0.0f, 0.0469667318982387f, 0.0f},
{0.0f, 0.3068293052922314f, 1.0f, 0.9f, 1.0f, 1.0f, 1.0f, 0.0f, 0.5417428956796678f, 0.5f, 0.03f, 0.1372549019607843f, 0.0f, 0.0313111545988258f, 0.0f},
{0.0f, 0.2132250094058222f, 1.0f, 0.9f, 0.0f, 1.0f, 1.0f, 0.0f, 0.2697351323185535f, 1.0f, 1.0f, 1.0f, 0.0f, 0.9882583170254402f, 0.0f},
{1.0f, 0.0f, 0.0705882352941176f, 0.1f, 0.0f, 0.07f, 0.09f, 0.0f, 0.0f, 0.5f, 0.0f, 1.0f, 1.0f, 0.035225048923679f, 0.0f},
{1.0f, 0.0f, 0.0745098039215686f, 0.1f, 0.0f, 0.07f, 0.16f, 0.0f, 0.0f, 0.5f, 0.0f, 1.0f, 1.0f, 0.0371819960861056f, 0.0f},
{0.0f, 0.0f, 0.3411764705882353f, 0.5f, 0.0f, 0.34f, 1.0f, 1.0f, 0.0f, 0.5f, 0.01f, 1.0f, 0.0f, 0.0019569471624266f, 1.0f},
{0.0f, 0.2942326136331429f, 1.0f, 0.9f, 1.0f, 1.0f, 1.0f, 0.0f, 0.5320628520300201f, 0.5f, 0.0f, 1.0f, 0.0f, 0.0332681017612524f, 0.0f},
{0.0f, 0.3134139347705576f, 1.0f, 0.9f, 1.0f, 1.0f, 1.0f, 0.0f, 0.5317903931073389f, 0.5f, 0.03f, 0.1411764705882353f, 0.0f, 0.035225048923679f, 0.0f},
{1.0f, 0.0f, 0.0313725490196078f, 0.1f, 0.0f, 0.03f, 0.07f, 0.0f, 0.0f, 0.5f, 0.0f, 1.0f, 1.0f, 0.0156555772994129f, 0.0f},
{1.0f, 0.0f, 0.0509803921568627f, 0.2f, 0.0f, 0.05f, 0.05f, 0.0f, 0.0f, 0.5f, 0.0f, 1.0f, 1.0f, 0.0254403131115459f, 0.0f},
{0.0f, 0.3167194961006819f, 1.0f, 0.9f, 1.0f, 1.0f, 1.0f, 0.0f, 0.6214838579798935f, 0.5f, 0.01f, 0.7058823529411764f, 0.0f, 0.0900195694716242f, 0.0f},
{0.0f, 0.3178408510645715f, 1.0f, 0.9f, 1.0f, 1.0f, 1.0f, 0.0f, 0.4314617672530678f, 0.5f, 0.0f, 1.0f, 0.0f, 0.0136986301369863f, 0.0f},
{0.0f, 0.3483957423425758f, 0.2313725490196078f, 0.9f, 0.0f, 1.0f, 1.0f, 0.0f, 0.0f, 0.0f, 1.0f, 0.1803921568627451f, 0.0f, 1.0f, 0.0f},
{0.0f, 0.2231767271014228f, 1.0f, 0.9f, 0.0f, 1.0f, 1.0f, 0.0f, 0.279979969361224f, 1.0f, 0.83f, 1.0f, 0.0f, 1.0f, 0.0f},
{0.07f, 0.6265830433917299f, 0.9333333333333332f, 0.4f, 1.0f, 0.99f, 1.0f, 0.0f, 0.0491155039268663f, 0.5f, 0.0f, 0.9450980392156862f, 1.0f, 0.0234833659491193f, 0.0f},
{0.0f, 0.3664894923903333f, 0.3215686274509803f, 0.9f, 1.0f, 0.52f, 1.0f, 0.01f, 0.3997781664116736f, 0.5f, 0.01f, 0.6196078431372549f, 0.0f, 0.0039138943248532f, 0.0f},
{0.0f, 0.318025567922756f, 1.0f, 0.9f, 1.0f, 1.0f, 1.0f, 0.05f, 0.7010181439421433f, 0.5f, 0.05f, 0.0784313725490196f, 0.0f, 0.0293542074363992f, 0.0f},
{0.01f, 0.0386028094012785f, 0.0117647058823529f, 0.9f, 0.0f, 0.01f, 0.08f, 0.0f, 0.0491155039268663f, 1.0f, 0.99f, 1.0f, 0.0f, 0.0058708414872798f, 0.0f},
{0.96f, 0.0f, 0.0039215686274509f, 0.1f, 0.0f, 0.0f, 0.0f, 0.0f, 0.0f, 0.5f, 0.0f, 1.0f, 0.92f, 0.0019569471624266f, 0.0f},
{0.89f, 0.0f, 0.2313725490196078f, 0.2f, 0.0f, 0.24f, 0.5f, 0.01f, 0.2697351323185535f, 0.5f, 0.01f, 0.7254901960784313f, 1.0f, 0.0039138943248532f, 0.0f},
{0.0f, 0.2977915493931328f, 1.0f, 0.9f, 1.0f, 1.0f, 1.0f, 0.0f, 0.6706488346402784f, 0.5f, 0.0f, 1.0f, 0.0f, 0.0215264187866927f, 0.0f},
{0.0f, 0.2107493982135692f, 0.996078431372549f, 0.9f, 0.0f, 1.0f, 1.0f, 0.0f, 0.303038975636811f, 1.0f, 0.0f, 1.0f, 0.0f, 0.2211350293542074f, 0.0f},
{0.0f, 0.6343013400762022f, 0.4470588235294117f, 0.9f, 0.0f, 0.38f, 1.0f, 0.0f, 0.0f, 0.5f, 0.38f, 0.796078431372549f, 0.0f, 0.0293542074363992f, 0.0f},
{0.0f, 0.0f, 0.0313725490196078f, 0.5f, 0.0f, 0.03f, 0.06f, 1.0f, 0.0f, 0.5f, 0.0f, 1.0f, 0.0f, 0.0156555772994129f, 1.0f},
{0.0f, 0.3134139347705576f, 1.0f, 0.9f, 1.0f, 1.0f, 1.0f, 0.0f, 0.6030764941678928f, 0.5f, 0.08f, 0.0509803921568627f, 0.0f, 0.0254403131115459f, 0.0f},
{0.0f, 0.3215967963837532f, 1.0f, 0.9f, 1.0f, 1.0f, 1.0f, 0.03f, 0.5602737046695786f, 0.5f, 0.03f, 0.1137254901960784f, 0.0f, 0.0724070450097847f, 0.05f},
{0.0f, 0.3239670299065578f, 1.0f, 0.9f, 1.0f, 1.0f, 1.0f, 0.0f, 0.5725331290143713f, 0.5f, 0.0f, 1.0f, 0.0f, 0.0978473581213307f, 0.0f},
{1.0f, 0.0f, 0.0313725490196078f, 0.1f, 0.0f, 0.03f, 0.03f, 0.0f, 0.0f, 0.5f, 0.0f, 1.0f, 1.0f, 0.0156555772994129f, 0.0f},
{0.0f, 0.3040556824341893f, 1.0f, 0.9f, 1.0f, 1.0f, 1.0f, 0.0f, 0.5727084676598451f, 0.5f, 0.0f, 1.0f, 0.0f, 0.0410958904109589f, 0.0f},
{0.0f, 0.0f, 0.0235294117647058f, 0.5f, 0.0f, 0.02f, 0.02f, 1.0f, 0.0f, 0.5f, 0.0f, 1.0f, 0.0f, 0.0117416829745596f, 1.0f},
{0.06f, 0.6074172723998263f, 0.9803921568627452f, 0.9f, 1.0f, 0.98f, 1.0f, 0.0f, 0.639557561307564f, 0.5f, 0.0f, 1.0f, 0.0f, 0.0469667318982387f, 0.0f},
{0.0f, 0.0f, 0.3372549019607843f, 0.5f, 0.0f, 0.34f, 1.0f, 1.0f, 0.0f, 0.5f, 0.01f, 0.3568627450980392f, 0.0f, 0.0234833659491193f, 0.33f},
{0.0f, 0.2144227347437785f, 1.0f, 0.9f, 0.0f, 1.0f, 1.0f, 0.0f, 0.271292528943008f, 1.0f, 0.26f, 1.0f, 0.0f, 0.1330724070450097f, 0.0f},
{0.0f, 0.3210754938409553f, 0.611764705882353f, 0.9f, 1.0f, 1.0f, 1.0f, 0.0f, 0.438782718444716f, 0.5f, 0.33f, 0.0117647058823529f, 0.0f, 0.0313111545988258f, 0.0f},
{0.0f, 0.3090395986107279f, 0.9450980392156862f, 0.9f, 1.0f, 0.95f, 1.0f, 0.0f, 0.6024750222570332f, 0.5f, 0.0f, 1.0f, 0.0f, 0.0802348336594911f, 0.0f},
{1.0f, 0.0f, 0.0274509803921568f, 0.1f, 0.0f, 0.03f, 0.03f, 0.0f, 0.0f, 0.5f, 0.0f, 1.0f, 1.0f, 0.0136986301369863f, 0.0f},
{1.0f, 0.0f, 0.0117647058823529f, 0.1f, 0.0f, 0.01f, 0.01f, 0.0f, 0.0f, 0.5f, 0.0f, 1.0f, 1.0f, 0.0058708414872798f, 0.0f},
{0.0f, 0.302857957096233f, 1.0f, 0.9f, 1.0f, 1.0f, 1.0f, 0.0f, 0.4417622015476655f, 0.5f, 0.05f, 0.0823529411764705f, 0.0f, 0.0019569471624266f, 0.0f},
{1.0f, 0.0f, 0.0313725490196078f, 0.1f, 0.0f, 0.03f, 0.03f, 0.0f, 0.0f, 0.5f, 0.0f, 1.0f, 1.0f, 0.0156555772994129f, 0.0f},
{0.12f, 0.0f, 0.8509803921568627f, 0.9f, 0.0f, 0.85f, 1.0f, 0.33f, 0.2697351323185535f, 0.5f, 0.0f, 1.0f, 0.0f, 0.0019569471624266f, 0.0f},
{0.0f, 0.3144066897865915f, 1.0f, 0.9f, 1.0f, 1.0f, 1.0f, 0.0f, 0.4240139095058937f, 0.5f, 0.0f, 1.0f, 0.0f, 0.0156555772994129f, 0.0f},
{0.0f, 0.3038181891886253f, 0.7725490196078432f, 0.9f, 1.0f, 0.77f, 1.0f, 0.0f, 0.546620343721968f, 0.5f, 0.0f, 1.0f, 0.0f, 0.0058708414872798f, 0.0f},
{0.0f, 0.3092558788114318f, 1.0f, 0.9f, 1.0f, 1.0f, 1.0f, 0.0f, 0.6428705631287633f, 0.5f, 0.0f, 1.0f, 0.0f, 0.0391389432485322f, 0.0f},
{0.89f, 0.0f, 0.0039215686274509f, 0.1f, 0.0f, 0.0f, 0.0f, 0.1f, 0.0f, 0.5f, 0.0f, 1.0f, 0.83f, 0.0019569471624266f, 0.0f},
{0.0f, 0.2991020117770513f, 1.0f, 0.9f, 1.0f, 1.0f, 1.0f, 0.0f, 0.4585124016248001f, 0.5f, 0.0f, 1.0f, 0.0f, 0.0587084148727984f, 0.0f},
{0.91f, 0.0f, 0.3333333333333333f, 0.1f, 0.0f, 0.29f, 0.25f, 0.02f, 0.0f, 0.5f, 0.01f, 0.4156862745098039f, 1.0f, 0.0117416829745596f, 0.0f},
{1.0f, 0.0f, 0.0509803921568627f, 0.1f, 0.0f, 0.05f, 0.12f, 0.0f, 0.0f, 0.5f, 0.0f, 1.0f, 1.0f, 0.0254403131115459f, 0.0f},
{0.0f, 0.0f, 0.0039215686274509f, 0.5f, 0.0f, 0.0f, 0.01f, 1.0f, 0.0f, 0.5f, 0.0f, 1.0f, 0.0f, 0.0019569471624266f, 1.0f},
{0.0f, 0.2961771731216651f, 1.0f, 0.9f, 1.0f, 1.0f, 1.0f, 0.0f, 0.4591674943703429f, 0.5f, 0.0f, 1.0f, 0.0f, 0.0371819960861056f, 0.0f},
{1.0f, 0.0f, 0.0549019607843137f, 0.1f, 0.0f, 0.05f, 0.06f, 0.0f, 0.0f, 0.5f, 0.0f, 1.0f, 1.0f, 0.0273972602739726f, 0.0f},
{0.0f, 0.0f, 0.5725490196078431f, 0.9f, 1.0f, 0.8f, 1.0f, 0.0f, 0.3139618914802666f, 0.5f, 0.02f, 0.2392156862745098f, 0.0f, 0.0039138943248532f, 0.0f},
{0.0f, 0.3191211851915002f, 1.0f, 0.9f, 1.0f, 1.0f, 1.0f, 0.0f, 0.4382007135797595f, 0.5f, 0.1f, 0.0392156862745098f, 0.0f, 0.0039138943248532f, 0.0f},
{0.0f, 0.3214235704845679f, 0.992156862745098f, 0.9f, 1.0f, 1.0f, 1.0f, 0.0f, 0.5257276179943207f, 0.5f, 0.01f, 0.3333333333333333f, 0.0f, 0.0587084148727984f, 0.0f},
{1.0f, 0.0f, 0.0117647058823529f, 0.1f, 0.0f, 0.01f, 0.01f, 0.0f, 0.0f, 0.5f, 0.0f, 1.0f, 1.0f, 0.0058708414872798f, 0.0f},
{0.0f, 0.2993604441743736f, 1.0f, 0.9f, 1.0f, 1.0f, 1.0f, 0.0f, 0.4298364966003348f, 0.5f, 0.03f, 0.1568627450980392f, 0.0f, 0.0019569471624266f, 0.0f},
{0.0f, 0.327654471054213f, 1.0f, 0.9f, 1.0f, 1.0f, 1.0f, 0.0f, 0.5820278981584915f, 0.5f, 0.01f, 0.3176470588235294f, 0.0f, 0.0215264187866927f, 0.0f},
{0.11f, 0.0f, 0.2627450980392157f, 0.9f, 0.0f, 0.26f, 1.0f, 0.0f, 0.1964620157074655f, 0.5f, 0.0f, 1.0f, 0.0f, 0.0019569471624266f, 0.0f},
{0.0f, 0.3119936589961097f, 1.0f, 0.9f, 1.0f, 1.0f, 1.0f, 0.0f, 0.5098415762050612f, 0.5f, 0.14f, 0.0274509803921568f, 0.0f, 0.0039138943248532f, 0.0f},
{0.0f, 0.3242975476819216f, 1.0f, 0.9f, 1.0f, 1.0f, 1.0f, 0.0f, 0.4002789366510003f, 0.5f, 0.0f, 1.0f, 0.0f, 0.0567514677103718f, 0.0f},
{0.99f, 0.0f, 0.0745098039215686f, 0.1f, 0.0f, 0.07f, 0.07f, 0.01f, 0.0f, 0.5f, 0.0f, 1.0f, 0.99f, 0.0371819960861056f, 0.0f},
{1.0f, 0.0f, 0.0235294117647058f, 0.1f, 0.0f, 0.02f, 0.03f, 0.0f, 0.0f, 0.5f, 0.0f, 1.0f, 1.0f, 0.0117416829745596f, 0.0f},
{0.0f, 0.4065785283303523f, 0.0980392156862745f, 0.9f, 0.0f, 1.0f, 1.0f, 0.0f, 0.0f, 0.0f, 1.0f, 0.0039215686274509f, 0.0f, 0.0019569471624266f, 0.0f},
{0.0f, 0.30038234590398f, 0.984313725490196f, 0.9f, 1.0f, 1.0f, 1.0f, 0.0f, 0.5086623574118299f, 0.5f, 0.25f, 0.0156862745098039f, 0.0f, 0.0078277886497064f, 0.0f},
{0.0f, 0.3094713223361544f, 1.0f, 0.9f, 1.0f, 1.0f, 1.0f, 0.0f, 0.4903897440207246f, 0.5f, 0.0f, 1.0f, 0.0f, 0.0508806262230919f, 0.0f},
{0.0f, 0.3221132645211429f, 1.0f, 0.9f, 1.0f, 1.0f, 1.0f, 0.0f, 0.4958405121162431f, 0.5f, 0.01f, 0.2705882352941176f, 0.0f, 0.0156555772994129f, 0.0f},
{1.0f, 0.0f, 0.2431372549019607f, 0.2f, 0.0f, 0.24f, 0.33f, 0.0f, 0.0f, 0.5f, 0.0f, 1.0f, 1.0f, 0.0371819960861056f, 0.0f},
{0.88f, 0.0f, 0.2352941176470588f, 0.2f, 1.0f, 0.24f, 0.33f, 0.0f, 0.255864927236376f, 0.5f, 0.01f, 0.7411764705882353f, 1.0f, 0.0136986301369863f, 0.0f},
{0.0f, 0.3045276520528425f, 1.0f, 0.9f, 1.0f, 1.0f, 1.0f, 0.0f, 0.656116885515093f, 0.5f, 0.0f, 1.0f, 0.0f, 0.0058708414872798f, 0.0f},
{0.0f, 0.4142590631789739f, 0.0274509803921568f, 0.9f, 0.0f, 0.19f, 1.0f, 0.0f, 0.0f, 0.5f, 0.19f, 0.1411764705882353f, 0.0f, 0.0019569471624266f, 0.0f},
{0.0f, 0.3226249870955455f, 1.0f, 0.9f, 1.0f, 1.0f, 1.0f, 0.0f, 0.4828696095391896f, 0.5f, 0.07f, 0.0549019607843137f, 0.0f, 0.0293542074363992f, 0.0f},
{0.0f, 0.3183931737570241f, 1.0f, 0.9f, 1.0f, 1.0f, 1.0f, 0.0f, 0.5621784845826935f, 0.5f, 0.0f, 1.0f, 0.0f, 0.0156555772994129f, 0.0f},
{1.0f, 0.0f, 0.0156862745098039f, 0.1f, 0.0f, 0.02f, 0.04f, 0.0f, 0.0f, 0.5f, 0.0f, 1.0f, 1.0f, 0.0078277886497064f, 0.0f},
{0.0f, 0.0f, 0.0980392156862745f, 0.9f, 1.0f, 0.23f, 1.0f, 0.0f, 0.3139618914802666f, 0.5f, 0.01f, 0.4313725490196078f, 0.0f, 0.0019569471624266f, 0.0f},
{0.0f, 0.3144066897865915f, 1.0f, 0.9f, 1.0f, 1.0f, 1.0f, 0.0f, 0.5965692114716159f, 0.5f, 0.01f, 0.3764705882352941f, 0.0f, 0.0117416829745596f, 0.0f},
{0.0f, 0.2120009583374359f, 0.992156862745098f, 0.9f, 0.0f, 0.99f, 1.0f, 0.0f, 0.3356008363225545f, 1.0f, 0.0f, 1.0f, 0.0f, 0.009784735812133f, 0.0f},
{0.0f, 0.0f, 0.0039215686274509f, 1.0f, 0.0f, 0.03f, 1.0f, 1.0f, 0.0f, 0.5f, 1.0f, 0.1176470588235294f, 0.0f, 0.0019569471624266f, 1.0f},
{1.0f, 0.0f, 0.0274509803921568f, 0.2f, 0.0f, 0.03f, 0.06f, 0.0f, 0.0f, 0.5f, 0.0f, 1.0f, 1.0f, 0.0136986301369863f, 0.0f},
{0.99f, 0.0f, 0.0039215686274509f, 0.5f, 0.0f, 0.0f, 0.0f, 0.01f, 0.0f, 0.5f, 0.0f, 1.0f, 0.99f, 0.0019569471624266f, 1.0f},
{1.0f, 0.0f, 0.0235294117647058f, 0.1f, 0.0f, 0.02f, 0.03f, 0.0f, 0.0f, 0.5f, 0.0f, 1.0f, 1.0f, 0.0117416829745596f, 0.0f},
{1.0f, 0.0f, 0.0588235294117647f, 0.1f, 0.0f, 0.06f, 0.14f, 0.0f, 0.0f, 0.5f, 0.0f, 1.0f, 1.0f, 0.0293542074363992f, 0.0f},
{0.0f, 0.3844840562199903f, 0.1647058823529411f, 0.9f, 1.0f, 0.66f, 1.0f, 0.0f, 0.411130530199611f, 0.5f, 0.02f, 0.2431372549019607f, 0.0f, 0.0019569471624266f, 0.0f},
{1.0f, 0.0f, 0.0470588235294117f, 0.1f, 0.0f, 0.05f, 0.05f, 0.0f, 0.0f, 0.5f, 0.0f, 1.0f, 1.0f, 0.0234833659491193f, 0.0f},
{0.0f, 0.2945145994593159f, 0.8980392156862745f, 0.9f, 1.0f, 1.0f, 1.0f, 0.0f, 0.532334267331836f, 0.5f, 0.04f, 0.1019607843137254f, 0.0f, 0.0039138943248532f, 0.0f},
{1.0f, 0.0f, 0.0392156862745098f, 0.1f, 0.0f, 0.04f, 0.09f, 0.0f, 0.0f, 0.5f, 0.0f, 1.0f, 1.0f, 0.0195694716242661f, 0.0f},
{0.0f, 0.3030995717124557f, 1.0f, 0.9f, 1.0f, 1.0f, 1.0f, 0.0f, 0.4774566853764055f, 0.5f, 0.04f, 0.0980392156862745f, 0.0f, 0.0489236790606653f, 0.0f},
{0.0f, 0.283338830695329f, 0.592156862745098f, 0.9f, 1.0f, 1.0f, 1.0f, 0.0f, 0.6769136464169742f, 0.5f, 0.01f, 0.592156862745098f, 0.0f, 0.0019569471624266f, 0.0f},
{1.0f, 0.0f, 0.0588235294117647f, 0.1f, 0.0f, 0.06f, 0.07f, 0.0f, 0.0f, 0.5f, 0.0f, 1.0f, 1.0f, 0.0293542074363992f, 0.0f}
};

/** model size = 8244 bytes **/
const unsigned char snn_model_binary[] DATA_ALIGN_ATTRIBUTE = { 0x1c, 0x00, 0x00, 0x00, 0x54, 0x46, 0x4c, 0x33, 0x14, 0x00, 0x20, 0x00, 0x1c, 0x00, 0x18, 0x00, 0x14, 0x00, 0x10, 0x00, 0x0c, 0x00, 0x00, 0x00, 0x08, 0x00, 0x04, 0x00, 0x14, 0x00, 0x00, 0x00, 0x1c, 0x00, 0x00, 0x00, 0x90, 0x00, 0x00, 0x00, 0xe8, 
0x00, 0x00, 0x00, 0x04, 0x1a, 0x00, 0x00, 0x14, 0x1a, 0x00, 0x00, 0xd0, 0x1f, 0x00, 0x00, 0x03, 0x00, 0x00, 0x00, 0x01, 0x00, 0x00, 0x00, 0x10, 0x00, 0x00, 0x00, 0x00, 0x00, 0x0a, 0x00, 0x10, 0x00, 0x0c, 0x00, 0x08, 0x00, 0x04, 0x00, 0x0a, 0x00, 0x00, 0x00, 0x0c, 0x00, 0x00, 0x00, 0x1c, 0x00, 0x00, 0x00, 0x38, 
0x00, 0x00, 0x00, 0x0f, 0x00, 0x00, 0x00, 0x73, 0x65, 0x72, 0x76, 0x69, 0x6e, 0x67, 0x5f, 0x64, 0x65, 0x66, 0x61, 0x75, 0x6c, 0x74, 0x00, 0x01, 0x00, 0x00, 0x00, 0x04, 0x00, 0x00, 0x00, 0x98, 0xff, 0xff, 0xff, 0x0a, 0x00, 0x00, 0x00, 0x04, 0x00, 0x00, 0x00, 0x07, 0x00, 0x00, 0x00, 0x64, 0x65, 0x6e, 0x73, 0x65, 
0x5f, 0x32, 0x00, 0x01, 0x00, 0x00, 0x00, 0x04, 0x00, 0x00, 0x00, 0xde, 0xe5, 0xff, 0xff, 0x04, 0x00, 0x00, 0x00, 0x0b, 0x00, 0x00, 0x00, 0x64, 0x65, 0x6e, 0x73, 0x65, 0x5f, 0x69, 0x6e, 0x70, 0x75, 0x74, 0x00, 0x02, 0x00, 0x00, 0x00, 0x34, 0x00, 0x00, 0x00, 0x04, 0x00, 0x00, 0x00, 0xdc, 0xff, 0xff, 0xff, 0x0d, 
0x00, 0x00, 0x00, 0x04, 0x00, 0x00, 0x00, 0x13, 0x00, 0x00, 0x00, 0x43, 0x4f, 0x4e, 0x56, 0x45, 0x52, 0x53, 0x49, 0x4f, 0x4e, 0x5f, 0x4d, 0x45, 0x54, 0x41, 0x44, 0x41, 0x54, 0x41, 0x00, 0x08, 0x00, 0x0c, 0x00, 0x08, 0x00, 0x04, 0x00, 0x08, 0x00, 0x00, 0x00, 0x0c, 0x00, 0x00, 0x00, 0x04, 0x00, 0x00, 0x00, 0x13, 
0x00, 0x00, 0x00, 0x6d, 0x69, 0x6e, 0x5f, 0x72, 0x75, 0x6e, 0x74, 0x69, 0x6d, 0x65, 0x5f, 0x76, 0x65, 0x72, 0x73, 0x69, 0x6f, 0x6e, 0x00, 0x0e, 0x00, 0x00, 0x00, 0x18, 0x19, 0x00, 0x00, 0x10, 0x19, 0x00, 0x00, 0xb0, 0x18, 0x00, 0x00, 0x98, 0x18, 0x00, 0x00, 0xe4, 0x17, 0x00, 0x00, 0x38, 0x0e, 0x00, 0x00, 0x58, 
0x01, 0x00, 0x00, 0xa8, 0x00, 0x00, 0x00, 0xa0, 0x00, 0x00, 0x00, 0x98, 0x00, 0x00, 0x00, 0x90, 0x00, 0x00, 0x00, 0x88, 0x00, 0x00, 0x00, 0x68, 0x00, 0x00, 0x00, 0x04, 0x00, 0x00, 0x00, 0x8e, 0xe6, 0xff, 0xff, 0x04, 0x00, 0x00, 0x00, 0x54, 0x00, 0x00, 0x00, 0x0c, 0x00, 0x00, 0x00, 0x08, 0x00, 0x0e, 0x00, 0x08, 
0x00, 0x04, 0x00, 0x08, 0x00, 0x00, 0x00, 0x10, 0x00, 0x00, 0x00, 0x24, 0x00, 0x00, 0x00, 0x00, 0x00, 0x06, 0x00, 0x08, 0x00, 0x04, 0x00, 0x06, 0x00, 0x00, 0x00, 0x04, 0x00, 0x00, 0x00, 0x00, 0x00, 0x00, 0x00, 0x00, 0x00, 0x0a, 0x00, 0x10, 0x00, 0x0c, 0x00, 0x08, 0x00, 0x04, 0x00, 0x0a, 0x00, 0x00, 0x00, 0x02, 
0x00, 0x00, 0x00, 0x02, 0x00, 0x00, 0x00, 0x04, 0x00, 0x00, 0x00, 0x06, 0x00, 0x00, 0x00, 0x32, 0x2e, 0x31, 0x32, 0x2e, 0x31, 0x00, 0x00, 0xee, 0xe6, 0xff, 0xff, 0x04, 0x00, 0x00, 0x00, 0x10, 0x00, 0x00, 0x00, 0x31, 0x2e, 0x35, 0x2e, 0x30, 0x00, 0x00, 0x00, 0x00, 0x00, 0x00, 0x00, 0x00, 0x00, 0x00, 0x00, 0xfc, 
0xe1, 0xff, 0xff, 0x00, 0xe2, 0xff, 0xff, 0x04, 0xe2, 0xff, 0xff, 0x08, 0xe2, 0xff, 0xff, 0x1a, 0xe7, 0xff, 0xff, 0x04, 0x00, 0x00, 0x00, 0xa0, 0x00, 0x00, 0x00, 0x16, 0x65, 0x70, 0x3f, 0x70, 0x47, 0x02, 0xbf, 0xb1, 0x68, 0x56, 0xbf, 0xc7, 0x76, 0x3b, 0x3f, 0xc4, 0x5b, 0x8c, 0x3f, 0xa4, 0x41, 0x0d, 0x3f, 0x88, 
0x20, 0xd9, 0xbe, 0x15, 0xe0, 0xdb, 0x3f, 0x70, 0x83, 0x41, 0xbe, 0x01, 0x29, 0x6f, 0xbf, 0x9a, 0xd1, 0x04, 0xbf, 0xc2, 0x44, 0x67, 0xbf, 0x3d, 0x63, 0x59, 0x3e, 0xe7, 0x37, 0x2c, 0x3f, 0xfd, 0x52, 0xaa, 0x3e, 0x92, 0x85, 0x15, 0x3f, 0xb5, 0x54, 0x4e, 0x3f, 0x88, 0x12, 0x0b, 0x3f, 0x47, 0xea, 0x0b, 0xbf, 0xf7, 
0x51, 0x97, 0x3f, 0x10, 0x58, 0x6c, 0xbf, 0x47, 0x63, 0x2c, 0x3f, 0x08, 0xf3, 0x60, 0x3f, 0xb4, 0x11, 0x89, 0xbe, 0xbd, 0x11, 0x9a, 0xbf, 0x42, 0xa2, 0x76, 0xbf, 0xd7, 0x8a, 0x4c, 0x3f, 0x1f, 0x05, 0xcf, 0xbf, 0x2c, 0x5e, 0x1b, 0x3f, 0x73, 0xc5, 0x38, 0x3f, 0x42, 0x2f, 0x8c, 0x3f, 0x10, 0x3d, 0x34, 0x3f, 0x66, 
0x7a, 0x50, 0xbf, 0x15, 0xe7, 0x54, 0xbe, 0xea, 0xcf, 0x89, 0xbf, 0xec, 0x37, 0xe6, 0xbe, 0x0e, 0xbd, 0x03, 0xbf, 0x2a, 0x2c, 0xa8, 0xbe, 0xcb, 0x8f, 0xfd, 0x3e, 0x57, 0x7a, 0xac, 0xbf, 0xc6, 0xe7, 0xff, 0xff, 0x04, 0x00, 0x00, 0x00, 0xd0, 0x0c, 0x00, 0x00, 0xe3, 0x6f, 0xe2, 0x3e, 0xff, 0x47, 0x4e, 0x3e, 0xf7, 
0x8f, 0xb6, 0x3e, 0xe4, 0xfc, 0x8f, 0xbe, 0xa1, 0x9d, 0x04, 0xbe, 0x7c, 0x5c, 0x03, 0x3e, 0x4b, 0xb1, 0x07, 0xbe, 0xce, 0xaf, 0xf7, 0x3d, 0x45, 0x02, 0xa4, 0xbe, 0x75, 0x7c, 0x24, 0xbf, 0x67, 0x33, 0xe8, 0x3e, 0x36, 0x0a, 0x84, 0x3e, 0x4b, 0x8d, 0xc9, 0x3c, 0x2f, 0x3c, 0xd1, 0xbc, 0x63, 0x19, 0x08, 0xbe, 0xa2, 
0x67, 0xf1, 0x3d, 0xfa, 0x90, 0x90, 0x3e, 0xaa, 0xf2, 0x06, 0x3e, 0x0a, 0xa3, 0x12, 0xbe, 0xcb, 0xef, 0xd6, 0x3e, 0xcc, 0xe1, 0x3f, 0x3e, 0x41, 0x5d, 0xf8, 0x3e, 0xca, 0xb9, 0xc1, 0xbe, 0x8c, 0xd3, 0x8b, 0x3d, 0x13, 0xcd, 0x23, 0x3f, 0xf6, 0xef, 0x7b, 0xbf, 0x75, 0x6e, 0xbc, 0x3d, 0x5d, 0x1d, 0x1a, 0x3e, 0xfe, 
0x29, 0xc5, 0xbf, 0xd8, 0xd4, 0x99, 0x3d, 0x64, 0x8a, 0x8e, 0x3d, 0x99, 0xcd, 0x01, 0xbf, 0x69, 0xf3, 0xa7, 0xbe, 0x7d, 0xe1, 0x92, 0x3d, 0xeb, 0x1a, 0xf8, 0x3e, 0xb4, 0xb9, 0x21, 0x3e, 0x4e, 0xf3, 0x14, 0xbe, 0xb2, 0x49, 0x4a, 0xbe, 0x33, 0xb2, 0x07, 0x3f, 0xd1, 0xcf, 0x35, 0x3f, 0xe8, 0x19, 0xc2, 0x3d, 0x82, 
0xf7, 0xf6, 0xbd, 0x39, 0xeb, 0xce, 0x3e, 0x68, 0x40, 0x3d, 0xbe, 0xeb, 0x53, 0x05, 0x3e, 0x3b, 0xdc, 0x5d, 0x3e, 0x23, 0x04, 0xa5, 0x3e, 0x05, 0x79, 0x04, 0x3d, 0x87, 0x4a, 0x8c, 0xbe, 0x09, 0x3a, 0x2b, 0x3f, 0x77, 0x82, 0x08, 0x3f, 0xe6, 0x6a, 0x02, 0xbe, 0x0f, 0xe4, 0xad, 0xbe, 0x32, 0xa2, 0x28, 0x3d, 0x2c, 
0xdb, 0x04, 0x3e, 0x2e, 0x21, 0x70, 0x3e, 0x49, 0xcb, 0x08, 0x3e, 0xc4, 0xd1, 0x82, 0x3d, 0x45, 0x90, 0xe5, 0xbb, 0x0b, 0xb2, 0x6c, 0x3e, 0x20, 0x35, 0xbe, 0xbe, 0x17, 0x79, 0x0b, 0xbd, 0xaa, 0xcf, 0x22, 0xbf, 0xb0, 0x29, 0x81, 0x3e, 0x1c, 0xcb, 0x84, 0xbe, 0x6b, 0x58, 0x27, 0xbf, 0x32, 0x92, 0x8c, 0x3f, 0x80, 
0x4e, 0x44, 0xbc, 0xf1, 0xf5, 0x79, 0xbc, 0x4a, 0x08, 0x88, 0x3f, 0xe0, 0x78, 0x86, 0x3e, 0xa5, 0x0a, 0x7f, 0x3e, 0x49, 0x4a, 0xe6, 0x3e, 0x55, 0x18, 0x51, 0x3d, 0x44, 0x7d, 0xf4, 0x3e, 0xbf, 0xfd, 0xd7, 0xbd, 0xc9, 0x09, 0x9e, 0x3d, 0xa4, 0x8d, 0x65, 0xbe, 0x8b, 0xad, 0x6b, 0xbd, 0xef, 0xbf, 0x76, 0xbf, 0xbf, 
0x6e, 0xfb, 0xbe, 0x4f, 0x4a, 0x9c, 0x3e, 0xd9, 0x65, 0x82, 0xbe, 0x26, 0x50, 0x8c, 0x3d, 0x89, 0x72, 0x09, 0xbf, 0x7e, 0xaa, 0x20, 0x3e, 0x90, 0x8c, 0xbb, 0x3e, 0x62, 0x1a, 0x33, 0xbf, 0x18, 0xb3, 0xcb, 0x3e, 0x35, 0x9d, 0xaa, 0x3e, 0xff, 0x0a, 0x2f, 0x3f, 0x87, 0xab, 0x4a, 0x3f, 0xe8, 0x31, 0x14, 0xbf, 0x91, 
0x53, 0xac, 0x3e, 0x71, 0x9f, 0x0d, 0x3e, 0xe1, 0xe3, 0x3f, 0x3d, 0x06, 0xff, 0x27, 0xbe, 0x67, 0x28, 0xc0, 0x3e, 0x3b, 0x4f, 0x97, 0x3d, 0x1c, 0xed, 0xeb, 0x3d, 0x35, 0x57, 0x70, 0xbb, 0x6f, 0x48, 0xb7, 0xbe, 0xe7, 0xdf, 0xad, 0xbc, 0x2b, 0xd3, 0x09, 0xbf, 0xba, 0x6f, 0xf2, 0x3e, 0xf2, 0xcf, 0x54, 0xbe, 0x3d, 
0xe9, 0x80, 0xbe, 0x0d, 0x63, 0x3b, 0x3f, 0xff, 0x08, 0xc4, 0x3c, 0xa0, 0xc6, 0x3e, 0x3e, 0x8a, 0xe8, 0x1f, 0xbe, 0xa4, 0xc0, 0x1b, 0xbe, 0xb3, 0x83, 0xe9, 0x3c, 0x4b, 0x4f, 0xe9, 0x3e, 0x0d, 0x83, 0xd3, 0x3e, 0x52, 0x0a, 0x83, 0xbc, 0xac, 0x4b, 0x30, 0xbe, 0x97, 0x17, 0x18, 0xbf, 0xea, 0x15, 0xfc, 0x3d, 0xb9, 
0xf3, 0x75, 0x3e, 0x2e, 0x23, 0xef, 0xba, 0xe9, 0xe8, 0x4f, 0xbf, 0xc7, 0x97, 0xd7, 0x3c, 0x79, 0x98, 0x99, 0x3d, 0xa8, 0xc1, 0x43, 0xbe, 0x8c, 0x1c, 0xd3, 0x3e, 0x72, 0x66, 0x52, 0xbe, 0x8d, 0xee, 0x67, 0x3e, 0x7a, 0xd4, 0xb0, 0xbd, 0xf7, 0xe6, 0x5f, 0xbe, 0xc2, 0x6b, 0x48, 0xbe, 0x98, 0x47, 0x9f, 0xbe, 0x75, 
0x1c, 0xf2, 0xbe, 0x0f, 0x4d, 0x9f, 0x3e, 0x77, 0xa2, 0x21, 0x3f, 0x5c, 0x25, 0x0d, 0x3d, 0xfd, 0x2e, 0x22, 0x3c, 0x40, 0x03, 0x6c, 0x3e, 0xa9, 0x56, 0x53, 0x3b, 0x3c, 0x02, 0xa2, 0xbd, 0x25, 0x68, 0x25, 0xbe, 0x80, 0x96, 0x43, 0xbe, 0xcd, 0x68, 0xf7, 0x3e, 0x2a, 0x6f, 0x39, 0xbe, 0xc3, 0x40, 0x39, 0x3f, 0xfa, 
0xd3, 0xaa, 0x3c, 0xbd, 0x35, 0x7a, 0xbe, 0xd1, 0xd5, 0x42, 0x3f, 0x39, 0x3c, 0x94, 0xbf, 0x97, 0x6c, 0x1b, 0x3e, 0x94, 0xcd, 0x28, 0x3e, 0xce, 0x65, 0x9d, 0xbf, 0x4c, 0x04, 0x37, 0x3e, 0xd5, 0x6b, 0xad, 0x3d, 0x44, 0x21, 0xfb, 0xbe, 0x78, 0x2d, 0x73, 0x3e, 0x36, 0x94, 0x55, 0x3e, 0xa0, 0xe3, 0xce, 0x3d, 0xb6, 
0xcd, 0xbc, 0x3e, 0x0f, 0xf9, 0x8a, 0x3e, 0xa8, 0x87, 0x85, 0xbe, 0xb9, 0xbf, 0x05, 0x3f, 0x3a, 0x21, 0x63, 0x3f, 0xbf, 0x89, 0x43, 0xbf, 0xf4, 0xa7, 0xf1, 0x3e, 0x9a, 0xc8, 0xcb, 0xbe, 0xad, 0x6e, 0x01, 0x3f, 0x79, 0x37, 0xd2, 0xbe, 0x18, 0xfd, 0x4e, 0x3e, 0xc0, 0xa8, 0x09, 0xbe, 0x6b, 0xf8, 0xaa, 0xbc, 0x14, 
0x30, 0x8d, 0xbe, 0xde, 0x4a, 0x17, 0xbf, 0xf5, 0x71, 0x24, 0xbf, 0xe6, 0xdd, 0x7d, 0xbd, 0x3b, 0x7a, 0x1e, 0x3f, 0x38, 0xbb, 0x40, 0x3e, 0x74, 0x76, 0x95, 0x3e, 0xb8, 0x91, 0x81, 0x3e, 0xd5, 0xd9, 0x4f, 0xbd, 0xd2, 0x76, 0x17, 0x3c, 0xc0, 0xc8, 0xff, 0xbe, 0x10, 0xab, 0x80, 0xbc, 0xb5, 0xda, 0xc8, 0x3e, 0x11, 
0xb8, 0x68, 0x3e, 0x91, 0xe9, 0x30, 0x3f, 0x2a, 0xc8, 0x74, 0x3d, 0xf4, 0x36, 0x86, 0xbd, 0x46, 0xf6, 0x59, 0x3f, 0x33, 0x9b, 0xd7, 0xbf, 0xfe, 0x98, 0x25, 0x3e, 0xca, 0xeb, 0xa1, 0xbe, 0x85, 0x17, 0x61, 0xbf, 0xa1, 0x6c, 0x3f, 0xbe, 0xa8, 0x92, 0x64, 0x3e, 0xe8, 0x24, 0xa4, 0xbe, 0xc4, 0xd7, 0x39, 0x3e, 0x36, 
0x07, 0xd0, 0x3e, 0xca, 0xcb, 0x49, 0x3e, 0x95, 0x5c, 0xd8, 0xbd, 0x4d, 0x2e, 0x06, 0xbe, 0x2a, 0x6e, 0x01, 0xbf, 0x48, 0x07, 0x2d, 0x3f, 0x77, 0xa9, 0xd5, 0x3e, 0x8f, 0xfb, 0xa7, 0xbe, 0xcd, 0xda, 0xee, 0x3e, 0x77, 0xfa, 0x3e, 0x3d, 0x8d, 0x47, 0x22, 0x3f, 0xe2, 0x37, 0xe8, 0x3d, 0xac, 0x2c, 0x54, 0x3d, 0xb3, 
0x4c, 0x33, 0x3e, 0x9d, 0xfc, 0x1f, 0xbf, 0x7d, 0x6e, 0x4a, 0xb9, 0x5a, 0xf8, 0x08, 0xbe, 0x1d, 0xe8, 0x0a, 0xbf, 0xfb, 0x1d, 0xaf, 0xbe, 0x26, 0x03, 0x02, 0x3f, 0xc8, 0xf4, 0xb9, 0xbd, 0xc9, 0x9f, 0x72, 0xbd, 0x57, 0xbd, 0xdd, 0x3d, 0x1e, 0xca, 0xaf, 0xbe, 0x58, 0xce, 0x00, 0xbf, 0xda, 0x7a, 0xcc, 0xbe, 0x81, 
0xf3, 0xbd, 0xbe, 0x05, 0xe0, 0xb8, 0x3e, 0xcd, 0x9f, 0x7f, 0xbe, 0xa0, 0xf0, 0x24, 0x3f, 0x68, 0x6e, 0xba, 0xbe, 0x28, 0x48, 0x19, 0xbe, 0xbd, 0x0f, 0xdf, 0x3e, 0x29, 0xeb, 0x36, 0xbf, 0xb7, 0xb6, 0xb5, 0xbd, 0x04, 0xb7, 0x81, 0x3e, 0x87, 0x84, 0xfe, 0xbe, 0x84, 0xc3, 0xae, 0x3d, 0x41, 0xa1, 0x55, 0x3d, 0x58, 
0x3e, 0x5d, 0xbf, 0x79, 0xb8, 0x0c, 0xbe, 0x50, 0x4a, 0xe5, 0x3d, 0x37, 0x0e, 0x25, 0x3f, 0xb5, 0x90, 0x9f, 0x3d, 0xeb, 0x80, 0xda, 0x3e, 0x29, 0xcf, 0x32, 0xbe, 0xa7, 0x51, 0x38, 0x3f, 0xd8, 0x6d, 0x00, 0x3f, 0x91, 0x78, 0x24, 0xbf, 0xbf, 0x02, 0x35, 0xbf, 0x80, 0xda, 0xd1, 0x3e, 0x5d, 0x97, 0xa9, 0xbe, 0x57, 
0x3b, 0xd6, 0x3e, 0xda, 0x86, 0x81, 0xbd, 0x36, 0x47, 0x5f, 0x3e, 0x37, 0x8a, 0x1b, 0xbe, 0x45, 0xb7, 0x90, 0xbe, 0xd3, 0x31, 0x2f, 0x3f, 0xe5, 0xca, 0x7d, 0x3f, 0x29, 0xf4, 0xdc, 0x3d, 0x11, 0x7e, 0x7b, 0xbe, 0xb9, 0xb9, 0x2c, 0x3d, 0x09, 0x8c, 0xc1, 0x3e, 0x81, 0xce, 0x27, 0x3e, 0x25, 0x25, 0xad, 0x3e, 0xab, 
0xab, 0x17, 0x3f, 0x81, 0xac, 0xea, 0x3e, 0x87, 0xfd, 0x04, 0x3f, 0xf3, 0xdd, 0x63, 0xbf, 0x3d, 0xcd, 0xdb, 0xbd, 0x4c, 0x97, 0x30, 0xbf, 0xe6, 0x74, 0x88, 0x3e, 0x54, 0x12, 0x94, 0x3e, 0xb7, 0xdc, 0xd3, 0xbe, 0xb5, 0xed, 0x58, 0x3f, 0xfd, 0x19, 0xd5, 0xbd, 0xaa, 0x1a, 0xde, 0x3b, 0x09, 0x7d, 0x7f, 0x3f, 0xf3, 
0x7e, 0xd1, 0xbd, 0xe0, 0x08, 0x99, 0x3e, 0xf3, 0x20, 0x0a, 0x3f, 0xe4, 0xf4, 0xad, 0x3d, 0x2b, 0x25, 0x4d, 0x3e, 0xc1, 0x9e, 0x3e, 0xbf, 0xce, 0xd2, 0xc1, 0xbd, 0x37, 0x10, 0x4d, 0x3b, 0x02, 0xef, 0x18, 0x3e, 0x26, 0xfc, 0x80, 0xbf, 0xa0, 0x4c, 0x8b, 0xbf, 0xb8, 0x95, 0xba, 0x3e, 0x57, 0x75, 0xff, 0x3e, 0xa1, 
0xd5, 0x62, 0x3d, 0xe2, 0xab, 0xcb, 0x3d, 0xb3, 0x0d, 0x24, 0x3c, 0xcd, 0xb3, 0x33, 0xbe, 0xfd, 0x01, 0x0e, 0x3d, 0x84, 0x94, 0x85, 0x3e, 0x7e, 0x08, 0xbc, 0xbb, 0x2e, 0x08, 0x05, 0xbf, 0xdd, 0x1a, 0xb2, 0xbe, 0x5d, 0xa3, 0x5a, 0x3e, 0x3d, 0x4c, 0x38, 0x3e, 0x19, 0x1b, 0x0f, 0xbd, 0x2d, 0xb0, 0xd3, 0x3d, 0x4f, 
0x29, 0x07, 0xbe, 0x0d, 0x81, 0xea, 0xbb, 0x2c, 0xba, 0x58, 0x3e, 0x34, 0x7a, 0x4c, 0xbd, 0x4b, 0x75, 0xdc, 0x3e, 0xb2, 0x38, 0x4c, 0x3d, 0xdc, 0x93, 0x44, 0xbe, 0x3f, 0xed, 0x14, 0x3f, 0x44, 0x56, 0x87, 0xbe, 0x78, 0xe6, 0x06, 0x3e, 0xee, 0x17, 0x1f, 0x3f, 0x23, 0xf5, 0xc6, 0xbf, 0xaa, 0x23, 0x31, 0x3e, 0x45, 
0x2d, 0xa5, 0xbd, 0x91, 0x25, 0xc8, 0xbf, 0xfb, 0xde, 0xfd, 0x3a, 0x87, 0x32, 0xa2, 0xbe, 0x75, 0xff, 0x02, 0xbf, 0x68, 0x11, 0x4e, 0xbe, 0x3c, 0x2e, 0x56, 0x3e, 0x2a, 0xa1, 0xe3, 0xbe, 0x05, 0x24, 0x17, 0xbe, 0x2b, 0x3e, 0x7a, 0xbe, 0x1b, 0x10, 0x50, 0xbf, 0x6d, 0x94, 0xfc, 0xbd, 0xa6, 0x37, 0xe2, 0x3e, 0xa7, 
0x5f, 0xe4, 0x3e, 0x9c, 0x83, 0x44, 0xbd, 0xe7, 0x00, 0x64, 0x3d, 0x6f, 0x97, 0xaf, 0xbe, 0x87, 0x3a, 0x16, 0xbe, 0xfb, 0x37, 0xb7, 0xbd, 0x0b, 0xe1, 0x79, 0xbf, 0x12, 0x11, 0x23, 0xbe, 0x86, 0x29, 0x55, 0x3e, 0x09, 0x3e, 0xe2, 0x3e, 0x91, 0xc5, 0x91, 0x3e, 0x93, 0x82, 0x06, 0xbf, 0xd7, 0x76, 0x8e, 0x3d, 0xdd, 
0xff, 0x0a, 0x3f, 0x78, 0xe0, 0xac, 0x3c, 0x2d, 0x52, 0x51, 0xbe, 0x66, 0x21, 0x11, 0x3c, 0x6d, 0x06, 0xbd, 0x3e, 0xbc, 0xa7, 0x03, 0x3f, 0x8d, 0x00, 0x08, 0x3e, 0xa6, 0x64, 0x33, 0xbe, 0x89, 0x2a, 0xf8, 0xbd, 0xe6, 0x41, 0x0b, 0xbf, 0x56, 0x80, 0x7d, 0x3e, 0xb8, 0xf9, 0xbe, 0x3d, 0xda, 0xd2, 0x09, 0xbf, 0x5a, 
0xcd, 0xc4, 0x3e, 0x21, 0x57, 0x7e, 0xbe, 0x97, 0x44, 0x16, 0xbf, 0xc5, 0xb4, 0xbe, 0x3e, 0xd4, 0x66, 0xb0, 0xbe, 0xa4, 0x52, 0xdc, 0x3e, 0x69, 0x88, 0x42, 0x3f, 0x86, 0x8f, 0x38, 0x3d, 0xe7, 0xb5, 0xee, 0x3e, 0x17, 0xea, 0xe5, 0xbc, 0xd5, 0x63, 0xa1, 0x3d, 0x7d, 0x07, 0xe2, 0x3d, 0x82, 0x1f, 0x01, 0x3f, 0x53, 
0x39, 0x45, 0x3f, 0x43, 0x10, 0xae, 0xbe, 0xe5, 0x4f, 0x97, 0x3d, 0xbc, 0x0c, 0x97, 0xbe, 0x49, 0x97, 0xbd, 0x3e, 0x47, 0xbd, 0x97, 0xbe, 0x3a, 0xec, 0x08, 0xbe, 0x56, 0x24, 0x3d, 0x3c, 0xcf, 0x14, 0xf5, 0xbd, 0x02, 0x2d, 0xd6, 0x3e, 0x84, 0x4b, 0x50, 0x3e, 0x6c, 0x04, 0xaf, 0x3e, 0xc8, 0x98, 0x6e, 0x3f, 0xf0, 
0x3c, 0x7f, 0x3e, 0xb6, 0x10, 0x04, 0xbf, 0xd8, 0xa4, 0xe2, 0x3e, 0x3c, 0x8f, 0x94, 0x3e, 0xb3, 0xf6, 0xa6, 0xbd, 0xad, 0xec, 0xc8, 0x3d, 0x87, 0x92, 0xa3, 0x3e, 0x2a, 0xda, 0x15, 0x3e, 0xe0, 0xa8, 0xbe, 0x3e, 0xaf, 0x1e, 0x4d, 0xbf, 0x21, 0x31, 0x6d, 0x3e, 0xf9, 0xd1, 0x4b, 0xbf, 0x2c, 0x73, 0x89, 0x3e, 0x88, 
0x93, 0x80, 0xbd, 0xac, 0xa0, 0x25, 0xbf, 0xfb, 0x0a, 0x7d, 0x3f, 0x68, 0xf7, 0xbb, 0x3d, 0xd2, 0x07, 0xfb, 0xbb, 0x78, 0x8d, 0x61, 0x3f, 0xcf, 0xc5, 0x22, 0x3e, 0x8e, 0x67, 0x2d, 0x3e, 0x4d, 0xf7, 0xac, 0x3e, 0x37, 0xbc, 0x97, 0xbd, 0x26, 0x8e, 0xab, 0x3e, 0x36, 0x12, 0x87, 0xbe, 0x67, 0x21, 0x8f, 0xbd, 0x02, 
0x5b, 0x74, 0x3e, 0xa1, 0x8e, 0x9d, 0x3e, 0xe0, 0x05, 0x68, 0xbe, 0xa1, 0x3e, 0x1d, 0xbf, 0x2b, 0xd5, 0x4e, 0x3f, 0xe9, 0x2f, 0x4e, 0xbf, 0xd7, 0x1f, 0x26, 0x3f, 0xec, 0x6a, 0xa6, 0xbe, 0xd3, 0x2b, 0xdd, 0x3c, 0xbd, 0x43, 0x6d, 0xbe, 0x59, 0x28, 0xc0, 0xbe, 0xe5, 0x71, 0x49, 0x3e, 0x2f, 0xd2, 0xc6, 0x3d, 0xa5, 
0x54, 0x45, 0x3f, 0xfb, 0x1c, 0xac, 0xbe, 0xe5, 0x1d, 0x18, 0xbf, 0xab, 0xe2, 0x04, 0x3e, 0x90, 0xcb, 0xc5, 0x3e, 0x44, 0xe7, 0xa3, 0x3e, 0x06, 0xdd, 0x0f, 0xbd, 0xfb, 0xdb, 0x9d, 0xbc, 0x8d, 0xd0, 0x14, 0x3f, 0x90, 0x0c, 0x20, 0x3e, 0xf1, 0xab, 0x00, 0xbe, 0xb5, 0x4a, 0xfb, 0xbd, 0x65, 0xc0, 0x91, 0xbe, 0xde, 
0x43, 0x2f, 0xbe, 0x95, 0x6a, 0xa9, 0xbd, 0x20, 0x98, 0x50, 0x3e, 0xc6, 0x4e, 0x05, 0xbf, 0xa5, 0x8b, 0x00, 0xbf, 0x8f, 0x01, 0xc1, 0xbd, 0xbd, 0x6c, 0x10, 0xbf, 0x5d, 0x19, 0x88, 0xbe, 0xd0, 0xed, 0x3d, 0x3e, 0xa7, 0xfd, 0xa4, 0x3e, 0x9c, 0x3d, 0xf2, 0x3e, 0xc5, 0x3b, 0xc3, 0x3d, 0x37, 0xaa, 0x04, 0x3e, 0xd9, 
0x94, 0xe7, 0xbc, 0xc4, 0x29, 0x35, 0xbe, 0x71, 0xcf, 0x37, 0xbd, 0x08, 0x12, 0x94, 0xbd, 0xf4, 0x4f, 0xa2, 0xbc, 0x96, 0x22, 0x24, 0xbf, 0x98, 0xaa, 0x77, 0x3d, 0x3a, 0xc7, 0xc2, 0xbe, 0xc5, 0x31, 0x88, 0x3e, 0xdb, 0x0b, 0x10, 0xbf, 0xd1, 0x90, 0x44, 0x3e, 0x45, 0x65, 0xb8, 0x3e, 0xb0, 0x56, 0xa7, 0xbf, 0xc2, 
0xe6, 0x59, 0x3e, 0xb7, 0x41, 0x83, 0x3e, 0x9f, 0xd5, 0x4b, 0x3f, 0x60, 0x44, 0x8a, 0xbe, 0x90, 0x4e, 0x2d, 0xbf, 0x05, 0x73, 0xf5, 0xbd, 0xcd, 0x7f, 0xba, 0xbd, 0xcb, 0x43, 0x85, 0x3e, 0xf6, 0x86, 0x2f, 0xbe, 0x3c, 0x87, 0x1e, 0xbf, 0x5f, 0xdc, 0xf8, 0x3e, 0xea, 0x34, 0x21, 0x3d, 0x35, 0x7c, 0xa4, 0xbe, 0x31, 
0x70, 0x4c, 0xbf, 0x40, 0x25, 0xfa, 0x3b, 0xfe, 0x36, 0x63, 0xbf, 0x9f, 0xb5, 0x64, 0xbe, 0xcc, 0x24, 0x94, 0x3e, 0xdf, 0x25, 0x3e, 0xbf, 0xd1, 0x93, 0x15, 0xbf, 0x7a, 0xc8, 0x74, 0x3e, 0xb8, 0x6a, 0xe1, 0xbe, 0x1c, 0xf8, 0x83, 0x3d, 0x7b, 0x44, 0x40, 0x3e, 0x6f, 0x8d, 0xb3, 0x3e, 0x3a, 0x56, 0x47, 0x3f, 0x78, 
0x7f, 0xce, 0x3e, 0x22, 0xa1, 0xf8, 0xbd, 0x58, 0xb2, 0xd8, 0xbd, 0x1c, 0xde, 0xbe, 0xbf, 0x68, 0x75, 0x57, 0x3e, 0x7d, 0x17, 0xa8, 0x3e, 0x5a, 0x76, 0xfa, 0xbe, 0xc7, 0x2f, 0x00, 0xbf, 0x73, 0x54, 0x15, 0x3e, 0x58, 0x61, 0x65, 0x3e, 0x13, 0xc8, 0x81, 0x3e, 0x0a, 0xb8, 0x2f, 0x3e, 0x29, 0xba, 0x63, 0xbe, 0x06, 
0x46, 0x92, 0xbe, 0xac, 0x73, 0x2b, 0x3d, 0x7f, 0xaa, 0x3e, 0x3e, 0xc7, 0x47, 0xf9, 0xbd, 0x13, 0x41, 0x9c, 0x3e, 0x86, 0xba, 0xd8, 0x3e, 0x80, 0xa4, 0x93, 0xbe, 0xff, 0xfc, 0x0a, 0xbe, 0xed, 0x3d, 0x14, 0x3e, 0x1a, 0x68, 0xa9, 0xbe, 0x68, 0xf6, 0x4d, 0xbe, 0x87, 0xf8, 0xf8, 0xbe, 0x2a, 0x0c, 0xc1, 0x3d, 0xaa, 
0xf6, 0x9f, 0xbe, 0x89, 0xcf, 0x17, 0xbf, 0x95, 0x9a, 0x57, 0xbe, 0x74, 0x51, 0x42, 0x3e, 0x4f, 0x6f, 0x6a, 0x3e, 0xa0, 0x59, 0x86, 0xbe, 0xff, 0xaf, 0x80, 0xbe, 0x95, 0x6c, 0xf5, 0xbc, 0x61, 0x7c, 0x87, 0x3e, 0xd3, 0x6b, 0xd2, 0xbe, 0xd1, 0x9c, 0xa7, 0x3e, 0x5b, 0x64, 0xbc, 0xbe, 0x8f, 0xd1, 0x8d, 0xbe, 0x9e, 
0x98, 0x71, 0xbe, 0x62, 0x01, 0xe3, 0xbc, 0x37, 0x66, 0x47, 0x3d, 0x76, 0x3e, 0x9c, 0xbb, 0xf8, 0xd4, 0x0d, 0x3f, 0x46, 0x8e, 0xaa, 0x3d, 0x4e, 0x2c, 0xaf, 0xbb, 0xbf, 0x3c, 0x17, 0x3e, 0x49, 0x55, 0x88, 0x3e, 0x0a, 0x64, 0xa8, 0x3d, 0x8e, 0x30, 0xf0, 0x3d, 0x3a, 0x74, 0x14, 0x3f, 0x35, 0xdb, 0x07, 0xbd, 0xd6, 
0x6d, 0xec, 0x3e, 0x93, 0x3b, 0x30, 0xbe, 0x8c, 0xd2, 0x79, 0xbd, 0x60, 0xcd, 0xac, 0x3c, 0x43, 0xf5, 0x9d, 0xbe, 0x40, 0xe5, 0xc4, 0xbe, 0x3c, 0xb3, 0xa6, 0xbd, 0xf7, 0xc7, 0x4d, 0xbf, 0x3a, 0x23, 0xb5, 0x3d, 0xc0, 0x5a, 0xc8, 0x3e, 0x20, 0xb9, 0x7f, 0xbe, 0xe0, 0x09, 0xa5, 0x3e, 0x7f, 0x49, 0x09, 0xbe, 0x41, 
0x7c, 0xa9, 0xbc, 0x6d, 0x11, 0x4e, 0xbe, 0xf0, 0x28, 0xaf, 0xbd, 0xec, 0x99, 0x89, 0x3d, 0x0e, 0x44, 0x9d, 0x3e, 0x20, 0x40, 0xf1, 0x3d, 0xf4, 0xc3, 0x4d, 0x3f, 0x2c, 0x6a, 0xb4, 0xbe, 0x90, 0xac, 0x64, 0x3e, 0x92, 0xbe, 0x1a, 0x3f, 0xc1, 0x68, 0x98, 0xbf, 0x18, 0x46, 0xb0, 0xbd, 0x7d, 0x25, 0x8f, 0xbe, 0xd4, 
0x82, 0xa5, 0xbf, 0x07, 0x2e, 0x1c, 0xbd, 0xab, 0x96, 0xbb, 0x3a, 0xc4, 0xfe, 0x1e, 0xbf, 0xeb, 0x3c, 0x80, 0xbd, 0xfe, 0xa3, 0x92, 0x3e, 0xc8, 0x28, 0x4e, 0x3a, 0xb9, 0xc6, 0xde, 0x3e, 0xb7, 0xe6, 0x48, 0x3e, 0x02, 0xd2, 0x70, 0xbe, 0x61, 0x71, 0x43, 0x3f, 0x69, 0x64, 0xd9, 0x3e, 0x7c, 0x29, 0x9a, 0xbe, 0xf4, 
0x5b, 0xb9, 0x3e, 0xd1, 0xeb, 0xa6, 0xbe, 0xeb, 0x4e, 0x21, 0x3f, 0x65, 0x6e, 0x5a, 0xbd, 0xce, 0xfd, 0x94, 0x3e, 0xc2, 0xd6, 0xab, 0xbe, 0x2f, 0xf2, 0x12, 0xbf, 0x5a, 0x23, 0x9b, 0xbe, 0x22, 0x4e, 0xf6, 0xbe, 0x86, 0x7a, 0x72, 0xbf, 0xb9, 0x98, 0xdc, 0x3e, 0x49, 0x70, 0x41, 0x3f, 0xb2, 0x9b, 0x8f, 0x3c, 0xdd, 
0xc2, 0xdf, 0x3d, 0x41, 0xcd, 0x9c, 0xbd, 0xb1, 0x04, 0x0c, 0xbe, 0x1c, 0x31, 0x27, 0x3d, 0x6b, 0xfb, 0xe9, 0xbe, 0xbf, 0x5b, 0xab, 0xbe, 0x8e, 0x89, 0xbe, 0x3e, 0xa7, 0x64, 0x38, 0x3e, 0xed, 0xe4, 0xf4, 0x3e, 0x7a, 0x79, 0x67, 0x3e, 0x9c, 0x49, 0x02, 0x3e, 0xc9, 0x14, 0x18, 0x3f, 0x07, 0x07, 0x81, 0xbf, 0x25, 
0xf1, 0x8a, 0x3e, 0x6b, 0x13, 0xf5, 0xbd, 0xec, 0xab, 0x97, 0xbf, 0x46, 0x21, 0xb4, 0x3e, 0x16, 0x05, 0x87, 0x3e, 0xd7, 0xa6, 0x3f, 0xbe, 0xf6, 0xbf, 0x08, 0x3e, 0x00, 0xf9, 0x22, 0x3d, 0xe0, 0xdf, 0xb0, 0x3e, 0xf7, 0x85, 0xd6, 0x3d, 0x8e, 0xc4, 0x36, 0xbe, 0x92, 0xc1, 0x14, 0xbf, 0x2b, 0xd1, 0xdb, 0x3e, 0x2d, 
0x44, 0xe5, 0x3e, 0x68, 0xc4, 0x94, 0xbe, 0x88, 0x65, 0x1c, 0x3e, 0x70, 0x84, 0x51, 0xbd, 0xfc, 0x81, 0x16, 0x3f, 0x9b, 0x73, 0xc9, 0xbe, 0xb2, 0x0e, 0xf5, 0xbd, 0xe5, 0x52, 0xf9, 0xbc, 0x0e, 0xfe, 0x1c, 0xbd, 0x36, 0x58, 0x52, 0xbe, 0x56, 0x82, 0x85, 0xbe, 0x0a, 0x23, 0xc3, 0xbe, 0xf4, 0x61, 0x1a, 0x3b, 0x36, 
0x29, 0xdc, 0x3e, 0xa7, 0x2b, 0x08, 0x3a, 0xd8, 0x4e, 0x96, 0x3e, 0x60, 0x1b, 0x42, 0xbd, 0xa8, 0x1f, 0xaf, 0x3e, 0xce, 0x2f, 0xc3, 0xbd, 0x64, 0x19, 0x96, 0xbe, 0xba, 0x83, 0x06, 0xbe, 0x51, 0x8f, 0x3d, 0x3e, 0x7b, 0x41, 0xe2, 0x3d, 0x25, 0x64, 0xde, 0x3e, 0xbe, 0x59, 0xc9, 0xbe, 0xac, 0x2a, 0x82, 0x3e, 0x94, 
0x0c, 0x6f, 0x3e, 0xef, 0x36, 0x9f, 0xbf, 0x34, 0x20, 0x99, 0x3e, 0x59, 0x2d, 0x63, 0x3e, 0x47, 0x78, 0x81, 0xbf, 0x5d, 0x3b, 0xe0, 0x3d, 0xd9, 0xcf, 0x19, 0x3e, 0xdc, 0x63, 0xe8, 0xbe, 0x79, 0x49, 0xa9, 0xbc, 0xc3, 0x48, 0x0b, 0xbe, 0xf7, 0x03, 0xb7, 0x3e, 0x22, 0x00, 0xb7, 0x3e, 0x9c, 0xd5, 0x20, 0x3e, 0x0c, 
0x9c, 0x4a, 0xbd, 0x7c, 0xcb, 0x0a, 0x3f, 0x84, 0x8d, 0x16, 0x3f, 0x92, 0x45, 0x28, 0xbf, 0x47, 0xe5, 0xd1, 0x3d, 0xc6, 0xc5, 0x8f, 0xbe, 0x52, 0x07, 0xd4, 0x3e, 0x48, 0x3d, 0x32, 0xbe, 0x80, 0xfd, 0xbd, 0xba, 0x7d, 0x66, 0x2f, 0x3e, 0xf5, 0x84, 0x73, 0xbe, 0x52, 0x7a, 0x21, 0xbe, 0x58, 0xb9, 0x1c, 0xbf, 0xe0, 
0xaa, 0x35, 0xbf, 0xaa, 0x28, 0xaa, 0xbc, 0xac, 0x69, 0x1b, 0x3f, 0x18, 0x55, 0x70, 0xbe, 0xbb, 0x00, 0x9b, 0x3e, 0x58, 0x37, 0x45, 0xbd, 0x4c, 0x6e, 0xce, 0x3e, 0xbd, 0x70, 0x8d, 0x3d, 0x32, 0x3e, 0x08, 0xbe, 0xb9, 0x50, 0x7b, 0x3d, 0x62, 0x1f, 0x0e, 0x3f, 0x49, 0x78, 0x8b, 0x3e, 0x41, 0xd8, 0xf0, 0x3e, 0x50, 
0x64, 0x9a, 0x3d, 0xb8, 0x11, 0x04, 0x3d, 0x45, 0x0d, 0x3c, 0x3f, 0x7b, 0xb3, 0xd5, 0xbf, 0xa7, 0xe4, 0x7e, 0x3e, 0xce, 0x1d, 0xbb, 0xbd, 0xb6, 0xe9, 0xa5, 0xbf, 0xe0, 0x8f, 0x4c, 0x3e, 0x0d, 0x1b, 0xc9, 0xbc, 0xb6, 0x2d, 0x0b, 0xbf, 0xab, 0xb5, 0x62, 0x3e, 0x60, 0x9f, 0xe3, 0xbd, 0x06, 0xfc, 0x22, 0xbe, 0xc0, 
0x12, 0x78, 0x3e, 0xe7, 0x98, 0x2d, 0xbd, 0xb8, 0x44, 0x1c, 0x3c, 0x20, 0x88, 0x53, 0x3f, 0x07, 0x6d, 0x1b, 0x3f, 0x72, 0xc5, 0x05, 0xbf, 0x81, 0x69, 0xf0, 0x3e, 0x95, 0x30, 0xaa, 0xbe, 0x98, 0xe5, 0x90, 0x3e, 0x9a, 0x1c, 0xc6, 0xbe, 0xf8, 0xc4, 0xc4, 0x3c, 0x7d, 0xd2, 0x61, 0x3d, 0x8b, 0x78, 0x3a, 0x3d, 0x32, 
0x09, 0x46, 0xbd, 0x38, 0xaa, 0xac, 0xbe, 0xa3, 0xee, 0x1f, 0xbf, 0x9e, 0xfa, 0x22, 0x3e, 0x97, 0x0e, 0xc4, 0x3e, 0x29, 0x4f, 0x09, 0x3e, 0x2a, 0x82, 0x58, 0x3d, 0x40, 0x37, 0x43, 0x3e, 0x0a, 0x55, 0xa8, 0xbd, 0x21, 0xe5, 0xae, 0x3c, 0xa0, 0x77, 0xd9, 0xbe, 0x56, 0x16, 0x1c, 0x3d, 0x97, 0x57, 0x11, 0x3f, 0xac, 
0x0f, 0xb6, 0x3d, 0xdc, 0x9c, 0x42, 0x3f, 0xb4, 0x4e, 0xb3, 0xbc, 0xa6, 0x53, 0x23, 0xbe, 0xe8, 0x33, 0x44, 0x3f, 0x25, 0x40, 0x5f, 0xbf, 0xcf, 0x29, 0x38, 0xbc, 0xcc, 0x55, 0x0f, 0x3e, 0x06, 0x76, 0x84, 0xbf, 0x9c, 0xc1, 0x80, 0x3e, 0x31, 0xcc, 0x89, 0x3d, 0xfd, 0x6d, 0xd0, 0xbe, 0xde, 0xe5, 0x64, 0xbe, 0x43, 
0x53, 0x65, 0x3e, 0xf4, 0x9a, 0xee, 0x3e, 0x19, 0x20, 0x6b, 0x3e, 0x5e, 0xab, 0xb0, 0x3d, 0xe4, 0x37, 0xba, 0xbe, 0x7b, 0xcc, 0x5b, 0x3f, 0x40, 0x1e, 0x92, 0x3e, 0x2c, 0x06, 0x11, 0xbf, 0x1e, 0x8b, 0x23, 0xbe, 0x4e, 0x17, 0x72, 0x3e, 0x4c, 0x1a, 0x05, 0xbf, 0x59, 0x3f, 0x0b, 0x3f, 0x06, 0xe1, 0x82, 0x3c, 0xb0, 
0x1d, 0x2b, 0xbf, 0x7c, 0x04, 0x8c, 0xbd, 0x3d, 0x74, 0xd6, 0x3e, 0xc1, 0xcf, 0x47, 0x3e, 0xb9, 0xeb, 0x1b, 0x3f, 0x87, 0xb9, 0xfa, 0x3d, 0xd8, 0x25, 0x68, 0x3e, 0xa7, 0x28, 0xeb, 0x3e, 0x08, 0x01, 0x67, 0xbe, 0x58, 0x3a, 0x22, 0x3d, 0xa6, 0x53, 0xb7, 0x3c, 0xc9, 0x66, 0x4f, 0xbe, 0xe4, 0x46, 0x3d, 0x3e, 0x82, 
0x2d, 0x0c, 0x3f, 0xa7, 0xe8, 0xab, 0xbe, 0xba, 0xf2, 0x9a, 0x3e, 0x43, 0x56, 0x4b, 0x3d, 0xa2, 0x91, 0x0e, 0x3f, 0xb6, 0x62, 0xd1, 0xbd, 0x5f, 0xfc, 0xcc, 0xbe, 0xde, 0xed, 0x26, 0x3f, 0xf0, 0x71, 0xfd, 0xbd, 0xaa, 0x8f, 0xbd, 0xbb, 0x66, 0x9e, 0x37, 0x3f, 0x8e, 0x25, 0xf3, 0xbe, 0xa6, 0x9a, 0xb5, 0x3e, 0x31, 
0x25, 0x1d, 0x3f, 0xfb, 0x1d, 0xc0, 0xbd, 0x01, 0x70, 0x90, 0x3e, 0xba, 0x83, 0x04, 0xbf, 0x26, 0x01, 0x2e, 0x3f, 0x78, 0x58, 0x3d, 0xbe, 0xed, 0x38, 0x2b, 0x3f, 0x44, 0xf6, 0x37, 0x3f, 0x8f, 0xa9, 0xfc, 0xbe, 0x46, 0xd0, 0x03, 0xbe, 0x60, 0x76, 0xa3, 0x3d, 0x79, 0x8c, 0x3c, 0xbf, 0x07, 0x4c, 0xb6, 0xbe, 0xf0, 
0xfe, 0xbe, 0x3e, 0xe8, 0xe6, 0x5c, 0x3e, 0x8f, 0xfa, 0x08, 0xbe, 0x63, 0x90, 0x9a, 0xbd, 0x19, 0x59, 0x14, 0xbf, 0x85, 0xcc, 0xa7, 0xbd, 0x45, 0x43, 0xd5, 0xbe, 0x3c, 0xb3, 0x0f, 0x3e, 0x68, 0x96, 0x00, 0x3f, 0x9a, 0x44, 0xf8, 0x3c, 0x49, 0x3f, 0xd4, 0x3d, 0x62, 0xf2, 0x23, 0x3e, 0xf9, 0x65, 0xf8, 0x3d, 0x04, 
0x34, 0x05, 0xbd, 0xfe, 0x8c, 0x0e, 0x3e, 0x5d, 0x6a, 0xad, 0x3c, 0x00, 0x93, 0x13, 0x3f, 0x90, 0xd2, 0x0b, 0xbd, 0xcc, 0xbb, 0x42, 0x3f, 0x72, 0x5d, 0x1f, 0xbf, 0x68, 0x1c, 0x00, 0x3d, 0x92, 0x03, 0xcc, 0x3e, 0x53, 0x07, 0x54, 0xbf, 0x74, 0x7c, 0xcb, 0x3d, 0xbc, 0xfe, 0x62, 0xbe, 0x1e, 0xd1, 0x9a, 0xbf, 0x0f, 
0x3a, 0xf0, 0xbe, 0x19, 0xa2, 0x83, 0xbe, 0xb1, 0x7f, 0x93, 0xbe, 0xc1, 0xe7, 0x04, 0x3f, 0xc1, 0x68, 0x1d, 0xbd, 0x1c, 0x6f, 0xd1, 0x3d, 0x3b, 0x6e, 0x12, 0x3f, 0x8f, 0xd3, 0xb7, 0x3d, 0x4b, 0x1d, 0x01, 0xbf, 0x1d, 0x45, 0x3f, 0x3f, 0x0a, 0x1a, 0x42, 0x3f, 0xde, 0x6a, 0xd3, 0xbd, 0xa2, 0xf4, 0xff, 0xff, 0x04, 
0x00, 0x00, 0x00, 0x9c, 0x09, 0x00, 0x00, 0xda, 0x55, 0x6b, 0x3e, 0xfc, 0x2b, 0x2c, 0x3f, 0x1c, 0xe2, 0x3a, 0xbe, 0xee, 0x67, 0xa6, 0x3e, 0x27, 0x12, 0x8b, 0xbd, 0x10, 0x89, 0xd7, 0xbe, 0xda, 0x79, 0x4a, 0xbe, 0xd0, 0x35, 0x2a, 0x3f, 0xf0, 0x2d, 0x4f, 0x3e, 0x97, 0x02, 0xb2, 0xbe, 0x8a, 0x0e, 0xad, 0x3e, 0xb9, 
0xfd, 0x9a, 0x3e, 0x74, 0x91, 0xe6, 0xbd, 0x5c, 0x1d, 0x12, 0xc0, 0xef, 0xb9, 0x5c, 0xbf, 0xcd, 0x3c, 0x9a, 0x3e, 0x46, 0x87, 0x56, 0xbf, 0x38, 0x37, 0x14, 0xbe, 0x8f, 0xe2, 0x45, 0xbd, 0x58, 0xf5, 0x6a, 0x3c, 0x4a, 0x03, 0x00, 0xbf, 0xca, 0x55, 0x6b, 0xbd, 0xa9, 0x66, 0x39, 0xbd, 0x70, 0xdf, 0x91, 0xbe, 0x95, 
0xec, 0x02, 0x3f, 0xa4, 0xda, 0x5c, 0x3c, 0xf2, 0x80, 0x88, 0xbd, 0x6f, 0x2c, 0x22, 0x3e, 0x88, 0x1f, 0x5f, 0x3f, 0xac, 0xe8, 0xb5, 0x3e, 0x1a, 0x71, 0x07, 0xbe, 0x6d, 0xfb, 0x06, 0xbe, 0x6c, 0xe9, 0x24, 0x3d, 0xff, 0x10, 0x52, 0xbf, 0xf7, 0xeb, 0x00, 0xbf, 0xb7, 0x69, 0xbe, 0x39, 0x00, 0xef, 0x76, 0x3e, 0x26, 
0xb1, 0x4c, 0xbd, 0x2c, 0x55, 0x2c, 0x3e, 0x5a, 0xba, 0x2a, 0xbe, 0xd4, 0x88, 0xb6, 0xbe, 0xb7, 0x88, 0x30, 0x3e, 0x97, 0xa0, 0x6e, 0x3e, 0x7d, 0x19, 0x48, 0xbf, 0xa1, 0xfd, 0x1c, 0x3e, 0x4e, 0x2c, 0x06, 0x3d, 0x66, 0x0f, 0x68, 0xbe, 0xb0, 0x95, 0x12, 0x3f, 0xba, 0x85, 0x93, 0x3e, 0x92, 0x71, 0x04, 0xbe, 0x0d, 
0x3a, 0x95, 0xbe, 0x02, 0xbc, 0xd9, 0xbe, 0x50, 0x29, 0x3a, 0x3e, 0xae, 0x11, 0x12, 0xbf, 0xb4, 0xeb, 0x91, 0xbe, 0x07, 0xf6, 0x38, 0x3e, 0xd1, 0x12, 0xbd, 0x3e, 0x43, 0xe5, 0x05, 0x3d, 0x53, 0xf8, 0xb4, 0x3e, 0xd9, 0x65, 0x33, 0x3e, 0x49, 0x01, 0xa3, 0xbe, 0x5d, 0x64, 0x38, 0xbd, 0x85, 0x84, 0x2d, 0x3e, 0xd6, 
0xab, 0x07, 0xbd, 0x70, 0xd0, 0xa0, 0xbd, 0xfb, 0x71, 0xf4, 0x3d, 0x98, 0x23, 0x6b, 0xbc, 0xfa, 0x98, 0x50, 0xbe, 0xab, 0xa6, 0x16, 0xbe, 0x32, 0xd9, 0x6f, 0x3d, 0x8b, 0xf0, 0x4d, 0xbe, 0xa7, 0xd9, 0x97, 0x3e, 0x4e, 0x59, 0x68, 0xbe, 0xf5, 0x27, 0x1a, 0xbf, 0x68, 0xcb, 0xc1, 0xbd, 0x04, 0x60, 0x04, 0x3f, 0xdf, 
0xb0, 0x4a, 0x3f, 0x2e, 0x82, 0x6d, 0x3d, 0x60, 0x43, 0xdf, 0xbd, 0xb1, 0x66, 0x7c, 0x3e, 0xe6, 0xbf, 0x46, 0x3e, 0xf9, 0xf8, 0x8b, 0xbd, 0x1b, 0xef, 0xc6, 0x3d, 0xee, 0x8d, 0xaa, 0x3e, 0x54, 0xa1, 0x8d, 0xbd, 0x05, 0x01, 0x74, 0xbe, 0x9f, 0xe4, 0xe1, 0xbc, 0x7e, 0x49, 0xca, 0xbe, 0xf0, 0x1f, 0x56, 0x3f, 0x1d, 
0x4b, 0x28, 0xbd, 0x02, 0x1d, 0xa6, 0x3e, 0x7d, 0xc0, 0x7a, 0x3e, 0x90, 0x3c, 0x70, 0x3d, 0x62, 0x57, 0xe2, 0xbe, 0xaa, 0xa4, 0x78, 0xbe, 0x6d, 0x2f, 0x9b, 0xbe, 0x93, 0x26, 0x54, 0x3e, 0xc9, 0x5e, 0x2e, 0x3e, 0xce, 0xea, 0x83, 0xbe, 0x1c, 0x8f, 0x9a, 0xbd, 0x99, 0x42, 0x3c, 0x3e, 0x0d, 0xe0, 0xad, 0x3d, 0x4a, 
0x80, 0x89, 0xbe, 0xff, 0xa1, 0x8b, 0x3e, 0x9a, 0x9a, 0xb4, 0x3d, 0x0b, 0x82, 0x6b, 0x3e, 0xa0, 0xd8, 0x31, 0xbf, 0x76, 0x20, 0x93, 0xbe, 0x10, 0x8a, 0x81, 0xbe, 0xcc, 0x77, 0x7c, 0x3e, 0x06, 0x74, 0xc4, 0xbe, 0x12, 0xd9, 0x9f, 0x3e, 0xb1, 0xb7, 0x05, 0x3e, 0x1e, 0x46, 0x0b, 0xbf, 0x89, 0x3b, 0xa9, 0x3e, 0xc1, 
0xc5, 0x96, 0x3e, 0x03, 0x82, 0x6e, 0x3e, 0xc6, 0x2c, 0x41, 0xbe, 0xca, 0x47, 0xda, 0x3e, 0x48, 0x9a, 0xc2, 0x3d, 0x5c, 0x92, 0x19, 0x3e, 0x58, 0x76, 0x13, 0xbf, 0x34, 0x8a, 0xb0, 0xbd, 0x8e, 0xed, 0x9d, 0xbe, 0x22, 0x4c, 0x6e, 0xbe, 0xf1, 0xcb, 0xd4, 0x3d, 0x35, 0xd2, 0x8f, 0xbe, 0xb9, 0xf8, 0x2d, 0xbd, 0x7d, 
0xbb, 0xdf, 0xbf, 0x23, 0xda, 0xe8, 0x3e, 0x6f, 0x83, 0xde, 0x3e, 0x5d, 0x3d, 0x86, 0x3e, 0x04, 0x73, 0xa0, 0xbe, 0xb5, 0x6a, 0xd8, 0x3d, 0x95, 0x1d, 0x04, 0xbe, 0x95, 0xfc, 0xd8, 0xbd, 0x72, 0x87, 0x5a, 0x3f, 0xdf, 0x23, 0x1b, 0xba, 0x65, 0x90, 0xc6, 0xbd, 0x47, 0x1d, 0x37, 0xbe, 0xb8, 0xc8, 0x99, 0x3e, 0x23, 
0x0c, 0x4a, 0x3e, 0xf2, 0xd5, 0xad, 0x3e, 0x61, 0xf8, 0xa8, 0x3d, 0x16, 0xf5, 0x6d, 0xbf, 0xd4, 0xfa, 0x0a, 0xbf, 0x02, 0xe8, 0xde, 0xbc, 0x1e, 0x87, 0x66, 0x3d, 0xf6, 0x16, 0x60, 0x3f, 0xf0, 0x67, 0x4e, 0x3e, 0x9d, 0x95, 0xa8, 0x3d, 0x6e, 0x60, 0x00, 0xbf, 0x0f, 0x5a, 0x2e, 0x3e, 0xa8, 0xbd, 0x4d, 0x3d, 0x0f, 
0x86, 0x0f, 0xbe, 0x6d, 0x03, 0xdd, 0x3e, 0xe0, 0xd2, 0xc9, 0xbd, 0x80, 0xee, 0xc4, 0x3c, 0x15, 0x24, 0x1f, 0xbe, 0x88, 0x3c, 0xed, 0xbe, 0xbc, 0x55, 0xef, 0x3e, 0x52, 0x11, 0xb5, 0xbe, 0xc5, 0x02, 0x08, 0xbe, 0x4b, 0x12, 0xf0, 0x3d, 0xcb, 0x85, 0x43, 0x3e, 0x93, 0x7b, 0x04, 0xbf, 0x28, 0xbb, 0xe9, 0xbe, 0xe0, 
0x52, 0x85, 0x3e, 0x66, 0xac, 0xa7, 0xbc, 0xe8, 0xb5, 0xc3, 0x3d, 0x85, 0x27, 0x04, 0xbc, 0x21, 0x18, 0xb3, 0x3d, 0x2b, 0xf5, 0xec, 0xbc, 0xf6, 0x0a, 0xfb, 0x3e, 0x55, 0xb4, 0xab, 0x3e, 0xa1, 0x19, 0x79, 0xbe, 0x45, 0xce, 0xb1, 0xbe, 0xff, 0x57, 0x90, 0x3e, 0x7c, 0x23, 0x0d, 0x3f, 0xc8, 0xd9, 0x18, 0xbe, 0x4c, 
0x60, 0x37, 0x3e, 0x96, 0xa8, 0x0d, 0xbf, 0x60, 0x13, 0xc4, 0xbe, 0x4b, 0xa4, 0x9b, 0xbe, 0xaa, 0x6b, 0x8d, 0xbe, 0x05, 0x34, 0x77, 0x3e, 0xc9, 0xdf, 0x04, 0xbf, 0xdb, 0x7f, 0x4c, 0x3e, 0x0a, 0xc9, 0xf1, 0xbe, 0xab, 0x7d, 0x94, 0x3e, 0xed, 0x02, 0xb4, 0xbd, 0x0b, 0x32, 0x8f, 0x3e, 0x12, 0x6f, 0x35, 0xbc, 0xec, 
0xb0, 0x0b, 0x3f, 0xab, 0xab, 0xb2, 0x3e, 0xd1, 0xc5, 0x59, 0xbd, 0x1a, 0x9f, 0x5b, 0x3c, 0xe1, 0x91, 0x8f, 0x3e, 0xe9, 0xc0, 0x2b, 0xbe, 0xe9, 0xf8, 0x99, 0xbd, 0xb2, 0xf9, 0x71, 0x3e, 0x4e, 0x5a, 0x4a, 0x3e, 0x33, 0x46, 0x29, 0xbd, 0x5d, 0x71, 0xee, 0xbe, 0x1b, 0x5c, 0xec, 0x3d, 0x16, 0x57, 0x0f, 0xbd, 0x14, 
0x96, 0x89, 0x3e, 0x95, 0x41, 0xf8, 0xbe, 0x40, 0x5b, 0xad, 0xbf, 0x00, 0x3f, 0x32, 0x3e, 0x2a, 0xd8, 0xcb, 0xbb, 0x7c, 0x09, 0x69, 0xbe, 0xd6, 0xeb, 0xdc, 0xbd, 0xcd, 0x0b, 0xf9, 0xbd, 0xf8, 0x69, 0x4a, 0xbd, 0x80, 0x01, 0x9c, 0xbc, 0x87, 0x34, 0x50, 0xbe, 0x6a, 0xae, 0x34, 0x3e, 0xae, 0x38, 0x1b, 0xbe, 0x27, 
0x28, 0xdf, 0xbd, 0xb5, 0x55, 0x12, 0x3e, 0xef, 0xf8, 0x00, 0xbd, 0x0c, 0x79, 0xfe, 0xbd, 0x39, 0x12, 0x07, 0x3c, 0x39, 0xda, 0xa6, 0xbe, 0x0a, 0xfb, 0xc4, 0x3d, 0x32, 0x49, 0x95, 0x3e, 0x3d, 0x6b, 0xa5, 0x3d, 0xaf, 0x93, 0xbc, 0xbd, 0x04, 0xe9, 0xf0, 0xbe, 0xde, 0x8f, 0x20, 0xbc, 0x54, 0x32, 0x86, 0x3e, 0x55, 
0xb7, 0xcc, 0xbd, 0xf5, 0x37, 0x31, 0xbf, 0x80, 0x38, 0xd0, 0xbe, 0x2f, 0x8a, 0x7b, 0x3d, 0x91, 0x2d, 0xe1, 0x3d, 0x14, 0x28, 0x9f, 0xbc, 0x54, 0x1e, 0xb8, 0xbe, 0x3c, 0xd5, 0xd6, 0x3e, 0x06, 0x77, 0x74, 0xbe, 0xdc, 0x81, 0xaa, 0xbe, 0xdc, 0x70, 0x84, 0x3d, 0x85, 0x0e, 0x94, 0xbd, 0xef, 0x63, 0x2e, 0xbf, 0xe6, 
0xc2, 0x9a, 0x3e, 0x4f, 0xb3, 0x44, 0x3d, 0xd2, 0xc0, 0xe3, 0x3e, 0x5d, 0x49, 0xca, 0xbf, 0x01, 0xc7, 0x64, 0x3e, 0x74, 0xcb, 0xb2, 0x3e, 0x01, 0xa7, 0x36, 0xbe, 0x1f, 0xe3, 0x1a, 0xbf, 0x1b, 0x15, 0x74, 0xbe, 0xa4, 0x3b, 0xc0, 0x3d, 0x80, 0xf6, 0x91, 0x3e, 0x52, 0x9f, 0x11, 0xbf, 0x02, 0x18, 0x7e, 0x3e, 0xe8, 
0x08, 0xfb, 0x3e, 0x9a, 0xc6, 0x8b, 0x3d, 0x79, 0x86, 0xda, 0xbe, 0x6f, 0xc9, 0xe0, 0xbd, 0xa5, 0x74, 0x6f, 0xbd, 0x65, 0x13, 0xe9, 0xbe, 0x53, 0xcd, 0xd3, 0xbb, 0xf5, 0x89, 0x67, 0x3c, 0x3e, 0x87, 0xf3, 0xbd, 0x77, 0x2e, 0x93, 0x3e, 0x73, 0x79, 0x38, 0x3f, 0xfd, 0xea, 0xb5, 0xbd, 0xb3, 0x3a, 0xa9, 0x3e, 0xcf, 
0xb6, 0x27, 0xbf, 0x2d, 0x77, 0x36, 0x3e, 0x43, 0xe0, 0xaa, 0x3e, 0x73, 0xc2, 0xec, 0xbe, 0x20, 0xe4, 0xd5, 0xbe, 0x3d, 0x41, 0x97, 0x3e, 0x7d, 0xf4, 0x84, 0x3e, 0x2b, 0x3c, 0x57, 0xbf, 0xf0, 0xb7, 0x84, 0xbe, 0xae, 0xb5, 0x9e, 0x3e, 0x95, 0xb2, 0x3f, 0xbe, 0x06, 0x81, 0x65, 0x3e, 0xa6, 0x61, 0x18, 0x3f, 0xb7, 
0x39, 0xea, 0xbd, 0x08, 0x31, 0xb6, 0xbb, 0x07, 0x16, 0x3a, 0xbf, 0x72, 0x92, 0xd3, 0x3d, 0xc9, 0xc2, 0xdd, 0xbe, 0x40, 0xb6, 0x46, 0xbe, 0x84, 0x6f, 0xd7, 0x3e, 0x77, 0x30, 0x5a, 0x3e, 0x89, 0xfa, 0x31, 0xbf, 0x8a, 0x16, 0x0b, 0x3f, 0x14, 0xeb, 0x8d, 0x3e, 0x48, 0x5c, 0x7c, 0xbe, 0x88, 0x4c, 0xff, 0xbd, 0x50, 
0x98, 0xde, 0x3a, 0xa3, 0xc3, 0x8f, 0x3f, 0x91, 0x94, 0x61, 0x3e, 0xb7, 0x40, 0x39, 0xbe, 0xc6, 0xf7, 0x23, 0xbd, 0x88, 0x8b, 0x4d, 0x3e, 0xf4, 0xe7, 0x31, 0xbe, 0x89, 0xec, 0xa8, 0x3d, 0x1a, 0x30, 0xa7, 0xbe, 0x60, 0xf8, 0xe7, 0x3b, 0x14, 0x39, 0x60, 0xbe, 0x1a, 0x01, 0xcf, 0x3d, 0x3f, 0x0e, 0x3e, 0xbe, 0xbd, 
0x83, 0x93, 0xbe, 0x44, 0x5d, 0xc1, 0x3b, 0x99, 0xe1, 0xb7, 0xba, 0x65, 0xd8, 0x7c, 0xbe, 0x80, 0x53, 0x61, 0xbd, 0x1d, 0xf7, 0x29, 0xbe, 0xe9, 0x26, 0x01, 0xbf, 0xf6, 0xea, 0xb4, 0x3e, 0x64, 0x6a, 0xc4, 0xbe, 0x1f, 0x9f, 0x54, 0x3e, 0x2e, 0x47, 0xa6, 0x3e, 0x14, 0x3d, 0x52, 0xbd, 0xf9, 0xf3, 0x5a, 0x3d, 0x97, 
0x26, 0xaf, 0xbd, 0x3d, 0x24, 0xcf, 0x3e, 0x72, 0xbf, 0xf7, 0xbd, 0x5c, 0x1c, 0xdf, 0xbe, 0x5d, 0x07, 0xed, 0xbb, 0x71, 0x27, 0x6a, 0x3f, 0x71, 0x25, 0x55, 0xbe, 0xb4, 0x1b, 0x61, 0x3e, 0xe5, 0x4a, 0x83, 0xbc, 0xb1, 0xb2, 0x21, 0xbe, 0x65, 0xab, 0x77, 0xbe, 0x16, 0xf7, 0xbd, 0xbe, 0x9f, 0xda, 0x46, 0xbf, 0x1f, 
0x3e, 0xae, 0x3e, 0x84, 0xfa, 0x6d, 0xbe, 0xee, 0x51, 0xcd, 0xbe, 0x42, 0x38, 0x3a, 0xbe, 0x83, 0xfb, 0xf6, 0x3d, 0x59, 0xed, 0x3c, 0x3e, 0xe9, 0x97, 0x30, 0x3e, 0x3e, 0xd2, 0xe2, 0x3e, 0x2f, 0xb4, 0xb7, 0xbe, 0x79, 0xfa, 0x55, 0xbe, 0x50, 0x04, 0x95, 0x3e, 0xb4, 0x7b, 0x9d, 0xbd, 0xb0, 0x56, 0x13, 0xbe, 0xd0, 
0xa1, 0xb3, 0x3c, 0x30, 0x53, 0x38, 0x3e, 0xcc, 0xbb, 0x69, 0xbe, 0xc0, 0xc9, 0x66, 0x3d, 0x30, 0x46, 0x78, 0xbd, 0xcf, 0xd7, 0x94, 0xbe, 0xb1, 0x6a, 0x9d, 0xbe, 0xf8, 0x7c, 0x11, 0xbd, 0x28, 0x7c, 0xe7, 0x3d, 0x00, 0xcc, 0xa3, 0x3b, 0x00, 0x5d, 0x60, 0xbe, 0xcd, 0xf3, 0x8a, 0xbf, 0x38, 0x71, 0x25, 0x3f, 0x71, 
0x12, 0xd8, 0xbd, 0x45, 0x31, 0x16, 0xbe, 0xca, 0xe6, 0x96, 0xbc, 0xa7, 0x7d, 0xb6, 0xbe, 0x9d, 0x02, 0x99, 0xbe, 0xe3, 0x78, 0x2c, 0xbf, 0xe0, 0xa5, 0x32, 0x3d, 0x92, 0x34, 0x38, 0x3e, 0x28, 0x46, 0xc4, 0x3e, 0x01, 0x33, 0x24, 0x3e, 0x2f, 0x0b, 0xd1, 0xbe, 0xfc, 0xf8, 0xcc, 0xbe, 0xd9, 0xf0, 0x14, 0x3f, 0x42, 
0x81, 0x94, 0x3d, 0x6b, 0xe2, 0x9b, 0x3f, 0x95, 0xac, 0x71, 0xbd, 0xe9, 0x85, 0xe3, 0xbe, 0xd2, 0xc3, 0xde, 0x3b, 0x5f, 0x6c, 0x60, 0x3e, 0x07, 0x57, 0x22, 0x3e, 0x2b, 0xfe, 0x52, 0x3c, 0xc8, 0xe1, 0xf3, 0x3e, 0xdb, 0x73, 0x4d, 0xbf, 0x9a, 0x1e, 0x23, 0xbd, 0x80, 0xdd, 0xfc, 0x3d, 0x0b, 0x76, 0x1c, 0xbe, 0xfb, 
0xb4, 0x05, 0x3f, 0xc7, 0xa4, 0x77, 0xbe, 0xa5, 0x93, 0xf6, 0x3d, 0x43, 0xcc, 0xb4, 0xbe, 0x31, 0xd4, 0xb7, 0x3e, 0x5f, 0x69, 0xb1, 0x3e, 0x81, 0x3b, 0x99, 0x3d, 0xec, 0x44, 0xf7, 0x3d, 0xe3, 0x3b, 0x83, 0xbe, 0x51, 0x6a, 0x9e, 0xbe, 0x44, 0xd4, 0x06, 0xbe, 0x70, 0xd4, 0xfb, 0x3d, 0xa5, 0x45, 0xf2, 0x3d, 0x43, 
0x71, 0xc3, 0x3d, 0xea, 0x96, 0xe3, 0xbe, 0x0f, 0xdf, 0x9d, 0xbf, 0x39, 0xc0, 0x3f, 0xbd, 0xdf, 0x18, 0x9d, 0x3d, 0xd3, 0x2b, 0x53, 0x3f, 0xf0, 0xf7, 0xab, 0x3e, 0x13, 0xc2, 0x1a, 0xbd, 0x2d, 0xba, 0x03, 0x3e, 0x4d, 0x94, 0x87, 0xbe, 0x76, 0x38, 0xab, 0x3c, 0xf5, 0x04, 0x54, 0x3d, 0x8f, 0x5b, 0x9d, 0x3d, 0x22, 
0x52, 0xbb, 0xbe, 0x37, 0x26, 0xa7, 0xbd, 0x98, 0xbd, 0x6b, 0x3e, 0x36, 0x31, 0x8e, 0x3d, 0x8b, 0x5f, 0x18, 0x3f, 0x78, 0xdb, 0xa8, 0x3e, 0x74, 0xc8, 0x38, 0xbe, 0x31, 0xe4, 0x1a, 0xbf, 0x73, 0x99, 0xc4, 0x3d, 0x13, 0xca, 0x50, 0x3d, 0x5b, 0x09, 0xb0, 0xbe, 0xf9, 0x83, 0x1c, 0x3e, 0xc0, 0xb3, 0x01, 0x3d, 0x5e, 
0xfd, 0x20, 0x3e, 0x11, 0xca, 0x85, 0xbe, 0x03, 0x0b, 0x48, 0xbf, 0x57, 0x93, 0x25, 0x3d, 0xa7, 0x97, 0x1a, 0xc0, 0xf1, 0x37, 0x8c, 0x3c, 0xaf, 0x31, 0x9c, 0x3f, 0xdc, 0xf0, 0x2e, 0xbf, 0x51, 0xdb, 0xb4, 0x3e, 0xd5, 0xb9, 0xc6, 0x3e, 0x50, 0x9f, 0x4e, 0xbe, 0xc8, 0x2f, 0x75, 0xbe, 0xbd, 0xed, 0x1f, 0x3e, 0xbd, 
0x58, 0x59, 0x3e, 0xf9, 0x3f, 0xfe, 0x3d, 0xea, 0xfb, 0xef, 0x3e, 0x80, 0x3a, 0x79, 0xbd, 0x87, 0x56, 0xbe, 0x3d, 0x6b, 0x75, 0x76, 0x3e, 0x31, 0x79, 0x10, 0x3e, 0xf2, 0xb4, 0xd4, 0x3e, 0x47, 0x57, 0x74, 0xbf, 0x6c, 0x38, 0x96, 0xbe, 0x0a, 0x4c, 0x20, 0x3e, 0x69, 0x9c, 0xa4, 0xbf, 0x3d, 0x90, 0x44, 0x3e, 0xd9, 
0x3b, 0xab, 0x3d, 0xd3, 0xe0, 0x40, 0xbd, 0x74, 0x01, 0x2e, 0xbe, 0x85, 0x80, 0xd2, 0xbd, 0xa0, 0x82, 0x83, 0x3e, 0xd0, 0xb6, 0xe4, 0xbe, 0x7b, 0x90, 0x1d, 0x3e, 0xe8, 0x28, 0xea, 0xbd, 0x44, 0x07, 0x93, 0x3e, 0xed, 0x59, 0xcb, 0x3e, 0xdc, 0x59, 0x92, 0x3e, 0xa8, 0x74, 0x9f, 0x3e, 0x9e, 0xbe, 0x93, 0x3e, 0xcb, 
0xed, 0x8e, 0xbf, 0xef, 0x54, 0x27, 0x3e, 0xbd, 0xed, 0x85, 0x3e, 0x6c, 0x3d, 0x8a, 0xbc, 0x3a, 0x42, 0xf5, 0xbe, 0xe3, 0xeb, 0xd0, 0xbe, 0xf8, 0x0c, 0x55, 0x3e, 0x4e, 0xee, 0xb7, 0x3e, 0x76, 0x30, 0xde, 0x3c, 0x39, 0x42, 0xe0, 0x3d, 0xcf, 0x32, 0x1f, 0xbe, 0xd4, 0x8d, 0x88, 0x3e, 0x51, 0xc8, 0xb8, 0x3e, 0xe3, 
0x0e, 0x0a, 0x3e, 0x7a, 0xba, 0x53, 0xbe, 0xf9, 0x84, 0xb9, 0xbd, 0x91, 0xf0, 0xb3, 0x3e, 0xca, 0x5d, 0xab, 0x3e, 0xbf, 0xf9, 0x67, 0xbe, 0xc6, 0xd6, 0xa9, 0x3e, 0x2e, 0xe2, 0x38, 0xbe, 0xc0, 0x27, 0x0a, 0xbf, 0x56, 0x9a, 0x6e, 0xbe, 0x80, 0x5b, 0xc2, 0x3e, 0xa1, 0xe0, 0x99, 0xbe, 0x5d, 0x67, 0xb4, 0xbc, 0xad, 
0x5b, 0x03, 0x3e, 0xcb, 0xe2, 0x9b, 0xbe, 0x73, 0x99, 0xa2, 0xbe, 0x9d, 0x18, 0x0a, 0xbe, 0x3e, 0x58, 0x88, 0xbe, 0x0b, 0xf5, 0x06, 0x3f, 0xd5, 0xc6, 0x70, 0x3e, 0x6f, 0xca, 0x5a, 0x3e, 0x51, 0x57, 0x6a, 0x3d, 0x70, 0xbd, 0x2f, 0x3e, 0x35, 0x29, 0x14, 0x3e, 0xd5, 0x30, 0x84, 0xbe, 0x51, 0x13, 0x1f, 0xbe, 0x0d, 
0x8c, 0x7b, 0xbd, 0x75, 0xcd, 0x6a, 0xbe, 0xb2, 0xd2, 0xe4, 0xbc, 0xf5, 0x43, 0x83, 0xbe, 0xd4, 0x81, 0x99, 0x3d, 0x5c, 0xab, 0x4d, 0xbd, 0x34, 0x54, 0x33, 0x3f, 0xdb, 0xab, 0x39, 0x3c, 0x50, 0x2b, 0x2e, 0xbe, 0xa0, 0xab, 0xc1, 0x3d, 0xb9, 0x57, 0xef, 0xbe, 0xf1, 0xbf, 0x6a, 0x3e, 0xc4, 0x4e, 0x24, 0xbe, 0x43, 
0xb5, 0x44, 0x3e, 0x7a, 0x5d, 0xf6, 0x3d, 0x0d, 0xc1, 0xaf, 0x3e, 0x07, 0x4d, 0x50, 0xbe, 0x11, 0x7a, 0x26, 0xbe, 0x8d, 0xea, 0xfc, 0xbf, 0x3e, 0xd7, 0xe6, 0x3e, 0x56, 0xd6, 0x3f, 0x3e, 0xd4, 0xa6, 0x03, 0xbf, 0xa0, 0x1f, 0xdf, 0x3e, 0x97, 0x77, 0x3d, 0x3e, 0x34, 0x9d, 0x14, 0xbe, 0xc4, 0x5f, 0xb6, 0x3d, 0x20, 
0x80, 0xfb, 0x3d, 0x50, 0xec, 0x03, 0x3e, 0xb0, 0x6b, 0x4a, 0x3e, 0x7a, 0xa9, 0x05, 0xbe, 0x86, 0x37, 0x7f, 0xbd, 0x83, 0xf0, 0xfe, 0xbe, 0x0a, 0xa4, 0x92, 0xbe, 0x55, 0x03, 0xa8, 0x3d, 0x9f, 0x30, 0xda, 0xbd, 0xab, 0x24, 0x8e, 0xbe, 0x3b, 0xe6, 0x93, 0x3e, 0x78, 0xa2, 0xc6, 0x3e, 0xc9, 0x0b, 0x0a, 0x3e, 0xec, 
0x96, 0xba, 0xbd, 0xce, 0x43, 0x0e, 0xbd, 0x9b, 0xf0, 0xe5, 0xbc, 0xd1, 0x1c, 0xfe, 0x3b, 0xe2, 0x47, 0x23, 0xbd, 0xe8, 0x79, 0x8e, 0x3e, 0xe6, 0x64, 0x82, 0xbe, 0x9e, 0x33, 0x78, 0xbd, 0xfe, 0x5a, 0x27, 0x3e, 0x98, 0xd2, 0x56, 0xbd, 0x26, 0x9e, 0x88, 0xbe, 0xea, 0x86, 0x99, 0xbe, 0xa4, 0x15, 0x99, 0xbf, 0xfc, 
0xb9, 0x69, 0xbe, 0xfa, 0x99, 0xcc, 0x3e, 0x43, 0x73, 0xae, 0x3d, 0xe6, 0x08, 0x50, 0xbe, 0xc4, 0xf8, 0x59, 0xbd, 0xba, 0xfa, 0xbc, 0x3d, 0x25, 0xcb, 0xc0, 0x3b, 0x73, 0xac, 0x84, 0x3e, 0x94, 0x5b, 0x83, 0xbe, 0xa4, 0xfe, 0xa3, 0x3c, 0x90, 0x83, 0x37, 0x3e, 0xcf, 0x9f, 0x06, 0x3f, 0xfa, 0xa3, 0x57, 0x3e, 0x78, 
0xfc, 0xa0, 0xbf, 0xb9, 0x3f, 0xe3, 0xbe, 0xa3, 0xde, 0x37, 0x3e, 0x45, 0xf0, 0x0a, 0x3e, 0x0a, 0x54, 0x91, 0x3e, 0x6f, 0xe5, 0x2b, 0xbe, 0x83, 0x28, 0x04, 0x3e, 0xa6, 0xb8, 0x68, 0x3d, 0xf1, 0x1a, 0x1b, 0xbf, 0xae, 0x4a, 0xbf, 0x3d, 0x6f, 0x35, 0xa0, 0xbe, 0x7e, 0xf5, 0x98, 0xbc, 0xc5, 0x82, 0x7f, 0x3d, 0x87, 
0xf3, 0xb3, 0xbf, 0xde, 0xb5, 0x0e, 0xbe, 0x89, 0xe5, 0x22, 0x3e, 0x1f, 0x24, 0x65, 0x3e, 0x00, 0xe6, 0x77, 0x3c, 0x56, 0x92, 0x9e, 0xbd, 0x53, 0x04, 0xb5, 0x3c, 0x3c, 0xd5, 0x38, 0x3e, 0x1f, 0x38, 0xfc, 0xbe, 0xb4, 0x01, 0x53, 0xbf, 0xb5, 0x45, 0xac, 0xbd, 0x82, 0xf6, 0xa4, 0x3e, 0x38, 0x57, 0xbe, 0xbd, 0xa0, 
0x7a, 0xfd, 0xbd, 0x29, 0xb7, 0x0e, 0xbf, 0x93, 0xbc, 0x54, 0x3f, 0xaf, 0x14, 0x35, 0xbe, 0x9e, 0xac, 0x6c, 0x3e, 0x48, 0x06, 0xea, 0x3e, 0x35, 0x7e, 0xa1, 0x3d, 0xc7, 0x81, 0xa2, 0x3d, 0xeb, 0xef, 0x35, 0x3e, 0xaa, 0xb8, 0xd7, 0x3e, 0x25, 0x42, 0x18, 0xbf, 0x70, 0x16, 0x32, 0xbf, 0xbf, 0x4a, 0xad, 0x3e, 0x4f, 
0x56, 0x91, 0xbd, 0xea, 0x33, 0xd2, 0xbe, 0x6c, 0x0c, 0x4b, 0x3e, 0x54, 0xa8, 0x90, 0x3d, 0x1d, 0x55, 0xb6, 0xbf, 0x62, 0x8c, 0x57, 0xbc, 0x4a, 0xfe, 0xff, 0xff, 0x04, 0x00, 0x00, 0x00, 0xa4, 0x00, 0x00, 0x00, 0x8f, 0x84, 0xbd, 0x3d, 0xeb, 0x7b, 0x05, 0x3e, 0xee, 0x8a, 0xd3, 0x3c, 0x3e, 0x5d, 0xaa, 0xbc, 0x8b, 
0x3d, 0x0e, 0x3e, 0x18, 0x11, 0xe6, 0xbd, 0xbe, 0xf7, 0x50, 0x3d, 0x8c, 0x1c, 0xd3, 0x3b, 0x26, 0xb5, 0xa7, 0xbd, 0xd1, 0x66, 0x13, 0xbd, 0x7d, 0x68, 0x8a, 0xbd, 0x24, 0xb9, 0xf6, 0xbc, 0x44, 0x4b, 0xb6, 0xbd, 0x1b, 0x86, 0xbc, 0x3d, 0x81, 0xc5, 0x38, 0xbc, 0x01, 0x9b, 0xf4, 0xba, 0x38, 0x13, 0xa3, 0xbd, 0xc7, 
0x4b, 0x26, 0x3d, 0xf9, 0xe5, 0x2c, 0x3d, 0xa8, 0x4e, 0x47, 0xbd, 0xda, 0x0a, 0x8d, 0xbc, 0xb1, 0x1d, 0xa1, 0xbd, 0xfc, 0x57, 0x93, 0xbc, 0x00, 0x00, 0x00, 0x00, 0xb2, 0x61, 0x2e, 0x3d, 0x70, 0xa3, 0x14, 0xbe, 0x14, 0xb2, 0x33, 0x3d, 0xf3, 0xa2, 0xac, 0xbc, 0x5e, 0xcd, 0x10, 0x3e, 0x14, 0xd8, 0x72, 0xbe, 0xe1, 
0xc1, 0x24, 0xbb, 0x8d, 0xe0, 0xff, 0x3d, 0xc8, 0x2e, 0xa8, 0xbc, 0x8e, 0x24, 0x0c, 0xbd, 0x5c, 0x0b, 0x3c, 0x3d, 0x34, 0xfa, 0x34, 0x3d, 0xa6, 0x7b, 0xa5, 0xbd, 0xe9, 0x15, 0x2f, 0xbc, 0x7d, 0x1d, 0xd1, 0x3d, 0x1e, 0xf3, 0xba, 0x3c, 0x9f, 0x5b, 0x16, 0xbd, 0xfa, 0xfe, 0xff, 0xff, 0x04, 0x00, 0x00, 0x00, 0x08, 
0x00, 0x00, 0x00, 0xcc, 0x16, 0x8e, 0xbd, 0xc3, 0x16, 0x8e, 0x3d, 0x0e, 0xff, 0xff, 0xff, 0x04, 0x00, 0x00, 0x00, 0x50, 0x00, 0x00, 0x00, 0xfc, 0xbb, 0x89, 0x3d, 0x04, 0x7d, 0x95, 0x3d, 0xa3, 0x9c, 0x80, 0x3d, 0x0d, 0x25, 0xda, 0x3d, 0x39, 0xa9, 0x0c, 0x3e, 0xe9, 0xf9, 0x05, 0x3e, 0xdb, 0x59, 0x2f, 0x3d, 0x2d, 
0x2c, 0xa4, 0x3d, 0xb5, 0xd4, 0xc6, 0x3d, 0x73, 0x0a, 0xb7, 0x3d, 0x26, 0xb1, 0x54, 0x3d, 0xea, 0x69, 0x88, 0x3c, 0x67, 0x06, 0x79, 0xbd, 0x0b, 0x43, 0x16, 0x3e, 0x9e, 0xbb, 0x2a, 0x3e, 0x67, 0x05, 0x26, 0x3e, 0x81, 0x67, 0xff, 0x3d, 0x04, 0xd3, 0xa8, 0x3d, 0xce, 0xb5, 0xf9, 0x3d, 0x9f, 0x0c, 0x84, 0x3d, 0x5c, 
0xfa, 0xff, 0xff, 0x60, 0xfa, 0xff, 0xff, 0x0f, 0x00, 0x00, 0x00, 0x4d, 0x4c, 0x49, 0x52, 0x20, 0x43, 0x6f, 0x6e, 0x76, 0x65, 0x72, 0x74, 0x65, 0x64, 0x2e, 0x00, 0x01, 0x00, 0x00, 0x00, 0x14, 0x00, 0x00, 0x00, 0x00, 0x00, 0x0e, 0x00, 0x18, 0x00, 0x14, 0x00, 0x10, 0x00, 0x0c, 0x00, 0x08, 0x00, 0x04, 0x00, 0x0e, 
0x00, 0x00, 0x00, 0x14, 0x00, 0x00, 0x00, 0x1c, 0x00, 0x00, 0x00, 0x24, 0x01, 0x00, 0x00, 0x28, 0x01, 0x00, 0x00, 0x2c, 0x01, 0x00, 0x00, 0x04, 0x00, 0x00, 0x00, 0x6d, 0x61, 0x69, 0x6e, 0x00, 0x00, 0x00, 0x00, 0x04, 0x00, 0x00, 0x00, 0xcc, 0x00, 0x00, 0x00, 0x84, 0x00, 0x00, 0x00, 0x50, 0x00, 0x00, 0x00, 0x14, 
0x00, 0x00, 0x00, 0x00, 0x00, 0x0e, 0x00, 0x1a, 0x00, 0x14, 0x00, 0x10, 0x00, 0x0c, 0x00, 0x0b, 0x00, 0x04, 0x00, 0x0e, 0x00, 0x00, 0x00, 0x1c, 0x00, 0x00, 0x00, 0x00, 0x00, 0x00, 0x09, 0x1c, 0x00, 0x00, 0x00, 0x20, 0x00, 0x00, 0x00, 0x01, 0x00, 0x00, 0x00, 0x00, 0x00, 0x06, 0x00, 0x08, 0x00, 0x04, 0x00, 0x06, 
0x00, 0x00, 0x00, 0x00, 0x00, 0x80, 0x3f, 0x01, 0x00, 0x00, 0x00, 0x0a, 0x00, 0x00, 0x00, 0x01, 0x00, 0x00, 0x00, 0x09, 0x00, 0x00, 0x00, 0x9a, 0xff, 0xff, 0xff, 0x10, 0x00, 0x00, 0x00, 0x00, 0x00, 0x00, 0x08, 0x0c, 0x00, 0x00, 0x00, 0x10, 0x00, 0x00, 0x00, 0x24, 0xfb, 0xff, 0xff, 0x01, 0x00, 0x00, 0x00, 0x09, 
0x00, 0x00, 0x00, 0x03, 0x00, 0x00, 0x00, 0x08, 0x00, 0x00, 0x00, 0x06, 0x00, 0x00, 0x00, 0x02, 0x00, 0x00, 0x00, 0xca, 0xff, 0xff, 0xff, 0x10, 0x00, 0x00, 0x00, 0x00, 0x00, 0x00, 0x08, 0x10, 0x00, 0x00, 0x00, 0x14, 0x00, 0x00, 0x00, 0xba, 0xff, 0xff, 0xff, 0x00, 0x00, 0x00, 0x01, 0x01, 0x00, 0x00, 0x00, 0x08, 
0x00, 0x00, 0x00, 0x03, 0x00, 0x00, 0x00, 0x07, 0x00, 0x00, 0x00, 0x05, 0x00, 0x00, 0x00, 0x01, 0x00, 0x00, 0x00, 0x00, 0x00, 0x0e, 0x00, 0x16, 0x00, 0x00, 0x00, 0x10, 0x00, 0x0c, 0x00, 0x0b, 0x00, 0x04, 0x00, 0x0e, 0x00, 0x00, 0x00, 0x18, 0x00, 0x00, 0x00, 0x00, 0x00, 0x00, 0x08, 0x18, 0x00, 0x00, 0x00, 0x1c, 
0x00, 0x00, 0x00, 0x00, 0x00, 0x06, 0x00, 0x08, 0x00, 0x07, 0x00, 0x06, 0x00, 0x00, 0x00, 0x00, 0x00, 0x00, 0x01, 0x01, 0x00, 0x00, 0x00, 0x07, 0x00, 0x00, 0x00, 0x03, 0x00, 0x00, 0x00, 0x00, 0x00, 0x00, 0x00, 0x04, 0x00, 0x00, 0x00, 0x03, 0x00, 0x00, 0x00, 0x01, 0x00, 0x00, 0x00, 0x0a, 0x00, 0x00, 0x00, 0x01, 
0x00, 0x00, 0x00, 0x00, 0x00, 0x00, 0x00, 0x0b, 0x00, 0x00, 0x00, 0x04, 0x04, 0x00, 0x00, 0x94, 0x03, 0x00, 0x00, 0x24, 0x03, 0x00, 0x00, 0xd0, 0x02, 0x00, 0x00, 0x88, 0x02, 0x00, 0x00, 0x3c, 0x02, 0x00, 0x00, 0xf0, 0x01, 0x00, 0x00, 0x68, 0x01, 0x00, 0x00, 0xd8, 0x00, 0x00, 0x00, 0x60, 0x00, 0x00, 0x00, 0x04, 
0x00, 0x00, 0x00, 0x3e, 0xfc, 0xff, 0xff, 0x00, 0x00, 0x00, 0x01, 0x14, 0x00, 0x00, 0x00, 0x1c, 0x00, 0x00, 0x00, 0x1c, 0x00, 0x00, 0x00, 0x0b, 0x00, 0x00, 0x00, 0x34, 0x00, 0x00, 0x00, 0x02, 0x00, 0x00, 0x00, 0xff, 0xff, 0xff, 0xff, 0x02, 0x00, 0x00, 0x00, 0x28, 0xfc, 0xff, 0xff, 0x19, 0x00, 0x00, 0x00, 0x53, 
0x74, 0x61, 0x74, 0x65, 0x66, 0x75, 0x6c, 0x50, 0x61, 0x72, 0x74, 0x69, 0x74, 0x69, 0x6f, 0x6e, 0x65, 0x64, 0x43, 0x61, 0x6c, 0x6c, 0x3a, 0x30, 0x00, 0x00, 0x00, 0x02, 0x00, 0x00, 0x00, 0x01, 0x00, 0x00, 0x00, 0x02, 0x00, 0x00, 0x00, 0x96, 0xfc, 0xff, 0xff, 0x00, 0x00, 0x00, 0x01, 0x14, 0x00, 0x00, 0x00, 0x1c, 
0x00, 0x00, 0x00, 0x1c, 0x00, 0x00, 0x00, 0x0a, 0x00, 0x00, 0x00, 0x50, 0x00, 0x00, 0x00, 0x02, 0x00, 0x00, 0x00, 0xff, 0xff, 0xff, 0xff, 0x02, 0x00, 0x00, 0x00, 0x80, 0xfc, 0xff, 0xff, 0x34, 0x00, 0x00, 0x00, 0x73, 0x65, 0x71, 0x75, 0x65, 0x6e, 0x74, 0x69, 0x61, 0x6c, 0x2f, 0x64, 0x65, 0x6e, 0x73, 0x65, 0x5f, 
0x32, 0x2f, 0x4d, 0x61, 0x74, 0x4d, 0x75, 0x6c, 0x3b, 0x73, 0x65, 0x71, 0x75, 0x65, 0x6e, 0x74, 0x69, 0x61, 0x6c, 0x2f, 0x64, 0x65, 0x6e, 0x73, 0x65, 0x5f, 0x32, 0x2f, 0x42, 0x69, 0x61, 0x73, 0x41, 0x64, 0x64, 0x00, 0x00, 0x00, 0x00, 0x02, 0x00, 0x00, 0x00, 0x01, 0x00, 0x00, 0x00, 0x02, 0x00, 0x00, 0x00, 0x0a, 
0xfd, 0xff, 0xff, 0x00, 0x00, 0x00, 0x01, 0x14, 0x00, 0x00, 0x00, 0x1c, 0x00, 0x00, 0x00, 0x1c, 0x00, 0x00, 0x00, 0x09, 0x00, 0x00, 0x00, 0x68, 0x00, 0x00, 0x00, 0x02, 0x00, 0x00, 0x00, 0xff, 0xff, 0xff, 0xff, 0x14, 0x00, 0x00, 0x00, 0xf4, 0xfc, 0xff, 0xff, 0x4c, 0x00, 0x00, 0x00, 0x73, 0x65, 0x71, 0x75, 0x65, 
0x6e, 0x74, 0x69, 0x61, 0x6c, 0x2f, 0x64, 0x65, 0x6e, 0x73, 0x65, 0x5f, 0x31, 0x2f, 0x4d, 0x61, 0x74, 0x4d, 0x75, 0x6c, 0x3b, 0x73, 0x65, 0x71, 0x75, 0x65, 0x6e, 0x74, 0x69, 0x61, 0x6c, 0x2f, 0x64, 0x65, 0x6e, 0x73, 0x65, 0x5f, 0x31, 0x2f, 0x52, 0x65, 0x6c, 0x75, 0x3b, 0x73, 0x65, 0x71, 0x75, 0x65, 0x6e, 0x74, 
0x69, 0x61, 0x6c, 0x2f, 0x64, 0x65, 0x6e, 0x73, 0x65, 0x5f, 0x31, 0x2f, 0x42, 0x69, 0x61, 0x73, 0x41, 0x64, 0x64, 0x00, 0x00, 0x00, 0x00, 0x02, 0x00, 0x00, 0x00, 0x01, 0x00, 0x00, 0x00, 0x14, 0x00, 0x00, 0x00, 0x96, 0xfd, 0xff, 0xff, 0x00, 0x00, 0x00, 0x01, 0x14, 0x00, 0x00, 0x00, 0x1c, 0x00, 0x00, 0x00, 0x1c, 
0x00, 0x00, 0x00, 0x08, 0x00, 0x00, 0x00, 0x60, 0x00, 0x00, 0x00, 0x02, 0x00, 0x00, 0x00, 0xff, 0xff, 0xff, 0xff, 0x29, 0x00, 0x00, 0x00, 0x80, 0xfd, 0xff, 0xff, 0x46, 0x00, 0x00, 0x00, 0x73, 0x65, 0x71, 0x75, 0x65, 0x6e, 0x74, 0x69, 0x61, 0x6c, 0x2f, 0x64, 0x65, 0x6e, 0x73, 0x65, 0x2f, 0x4d, 0x61, 0x74, 0x4d, 
0x75, 0x6c, 0x3b, 0x73, 0x65, 0x71, 0x75, 0x65, 0x6e, 0x74, 0x69, 0x61, 0x6c, 0x2f, 0x64, 0x65, 0x6e, 0x73, 0x65, 0x2f, 0x52, 0x65, 0x6c, 0x75, 0x3b, 0x73, 0x65, 0x71, 0x75, 0x65, 0x6e, 0x74, 0x69, 0x61, 0x6c, 0x2f, 0x64, 0x65, 0x6e, 0x73, 0x65, 0x2f, 0x42, 0x69, 0x61, 0x73, 0x41, 0x64, 0x64, 0x00, 0x00, 0x02, 
0x00, 0x00, 0x00, 0x01, 0x00, 0x00, 0x00, 0x29, 0x00, 0x00, 0x00, 0x86, 0xfe, 0xff, 0xff, 0x00, 0x00, 0x00, 0x01, 0x10, 0x00, 0x00, 0x00, 0x10, 0x00, 0x00, 0x00, 0x07, 0x00, 0x00, 0x00, 0x28, 0x00, 0x00, 0x00, 0xf4, 0xfd, 0xff, 0xff, 0x19, 0x00, 0x00, 0x00, 0x73, 0x65, 0x71, 0x75, 0x65, 0x6e, 0x74, 0x69, 0x61, 
0x6c, 0x2f, 0x64, 0x65, 0x6e, 0x73, 0x65, 0x5f, 0x32, 0x2f, 0x4d, 0x61, 0x74, 0x4d, 0x75, 0x6c, 0x00, 0x00, 0x00, 0x02, 0x00, 0x00, 0x00, 0x02, 0x00, 0x00, 0x00, 0x14, 0x00, 0x00, 0x00, 0xce, 0xfe, 0xff, 0xff, 0x00, 0x00, 0x00, 0x01, 0x10, 0x00, 0x00, 0x00, 0x10, 0x00, 0x00, 0x00, 0x06, 0x00, 0x00, 0x00, 0x28, 
0x00, 0x00, 0x00, 0x3c, 0xfe, 0xff, 0xff, 0x19, 0x00, 0x00, 0x00, 0x73, 0x65, 0x71, 0x75, 0x65, 0x6e, 0x74, 0x69, 0x61, 0x6c, 0x2f, 0x64, 0x65, 0x6e, 0x73, 0x65, 0x5f, 0x31, 0x2f, 0x4d, 0x61, 0x74, 0x4d, 0x75, 0x6c, 0x00, 0x00, 0x00, 0x02, 0x00, 0x00, 0x00, 0x14, 0x00, 0x00, 0x00, 0x29, 0x00, 0x00, 0x00, 0x16, 
0xff, 0xff, 0xff, 0x00, 0x00, 0x00, 0x01, 0x10, 0x00, 0x00, 0x00, 0x10, 0x00, 0x00, 0x00, 0x05, 0x00, 0x00, 0x00, 0x24, 0x00, 0x00, 0x00, 0x84, 0xfe, 0xff, 0xff, 0x17, 0x00, 0x00, 0x00, 0x73, 0x65, 0x71, 0x75, 0x65, 0x6e, 0x74, 0x69, 0x61, 0x6c, 0x2f, 0x64, 0x65, 0x6e, 0x73, 0x65, 0x2f, 0x4d, 0x61, 0x74, 0x4d, 
0x75, 0x6c, 0x00, 0x02, 0x00, 0x00, 0x00, 0x29, 0x00, 0x00, 0x00, 0x0f, 0x00, 0x00, 0x00, 0x5a, 0xff, 0xff, 0xff, 0x00, 0x00, 0x00, 0x01, 0x10, 0x00, 0x00, 0x00, 0x10, 0x00, 0x00, 0x00, 0x04, 0x00, 0x00, 0x00, 0x34, 0x00, 0x00, 0x00, 0xc8, 0xfe, 0xff, 0xff, 0x27, 0x00, 0x00, 0x00, 0x73, 0x65, 0x71, 0x75, 0x65, 
0x6e, 0x74, 0x69, 0x61, 0x6c, 0x2f, 0x64, 0x65, 0x6e, 0x73, 0x65, 0x2f, 0x42, 0x69, 0x61, 0x73, 0x41, 0x64, 0x64, 0x2f, 0x52, 0x65, 0x61, 0x64, 0x56, 0x61, 0x72, 0x69, 0x61, 0x62, 0x6c, 0x65, 0x4f, 0x70, 0x00, 0x01, 0x00, 0x00, 0x00, 0x29, 0x00, 0x00, 0x00, 0xaa, 0xff, 0xff, 0xff, 0x00, 0x00, 0x00, 0x01, 0x10, 
0x00, 0x00, 0x00, 0x10, 0x00, 0x00, 0x00, 0x03, 0x00, 0x00, 0x00, 0x38, 0x00, 0x00, 0x00, 0x18, 0xff, 0xff, 0xff, 0x29, 0x00, 0x00, 0x00, 0x73, 0x65, 0x71, 0x75, 0x65, 0x6e, 0x74, 0x69, 0x61, 0x6c, 0x2f, 0x64, 0x65, 0x6e, 0x73, 0x65, 0x5f, 0x32, 0x2f, 0x42, 0x69, 0x61, 0x73, 0x41, 0x64, 0x64, 0x2f, 0x52, 0x65, 
0x61, 0x64, 0x56, 0x61, 0x72, 0x69, 0x61, 0x62, 0x6c, 0x65, 0x4f, 0x70, 0x00, 0x00, 0x00, 0x01, 0x00, 0x00, 0x00, 0x02, 0x00, 0x00, 0x00, 0x00, 0x00, 0x16, 0x00, 0x18, 0x00, 0x14, 0x00, 0x00, 0x00, 0x10, 0x00, 0x0c, 0x00, 0x08, 0x00, 0x00, 0x00, 0x00, 0x00, 0x00, 0x00, 0x07, 0x00, 0x16, 0x00, 0x00, 0x00, 0x00, 
0x00, 0x00, 0x01, 0x10, 0x00, 0x00, 0x00, 0x10, 0x00, 0x00, 0x00, 0x02, 0x00, 0x00, 0x00, 0x38, 0x00, 0x00, 0x00, 0x84, 0xff, 0xff, 0xff, 0x29, 0x00, 0x00, 0x00, 0x73, 0x65, 0x71, 0x75, 0x65, 0x6e, 0x74, 0x69, 0x61, 0x6c, 0x2f, 0x64, 0x65, 0x6e, 0x73, 0x65, 0x5f, 0x31, 0x2f, 0x42, 0x69, 0x61, 0x73, 0x41, 0x64, 
0x64, 0x2f, 0x52, 0x65, 0x61, 0x64, 0x56, 0x61, 0x72, 0x69, 0x61, 0x62, 0x6c, 0x65, 0x4f, 0x70, 0x00, 0x00, 0x00, 0x01, 0x00, 0x00, 0x00, 0x14, 0x00, 0x00, 0x00, 0x00, 0x00, 0x16, 0x00, 0x1c, 0x00, 0x18, 0x00, 0x00, 0x00, 0x14, 0x00, 0x10, 0x00, 0x0c, 0x00, 0x00, 0x00, 0x00, 0x00, 0x08, 0x00, 0x07, 0x00, 0x16, 
0x00, 0x00, 0x00, 0x00, 0x00, 0x00, 0x01, 0x14, 0x00, 0x00, 0x00, 0x20, 0x00, 0x00, 0x00, 0x20, 0x00, 0x00, 0x00, 0x01, 0x00, 0x00, 0x00, 0x3c, 0x00, 0x00, 0x00, 0x02, 0x00, 0x00, 0x00, 0xff, 0xff, 0xff, 0xff, 0x0f, 0x00, 0x00, 0x00, 0x04, 0x00, 0x04, 0x00, 0x04, 0x00, 0x00, 0x00, 0x1d, 0x00, 0x00, 0x00, 0x73, 
0x65, 0x72, 0x76, 0x69, 0x6e, 0x67, 0x5f, 0x64, 0x65, 0x66, 0x61, 0x75, 0x6c, 0x74, 0x5f, 0x64, 0x65, 0x6e, 0x73, 0x65, 0x5f, 0x69, 0x6e, 0x70, 0x75, 0x74, 0x3a, 0x30, 0x00, 0x00, 0x00, 0x02, 0x00, 0x00, 0x00, 0x01, 0x00, 0x00, 0x00, 0x0f, 0x00, 0x00, 0x00, 0x02, 0x00, 0x00, 0x00, 0x20, 0x00, 0x00, 0x00, 0x04, 
0x00, 0x00, 0x00, 0xf4, 0xff, 0xff, 0xff, 0x19, 0x00, 0x00, 0x00, 0x00, 0x00, 0x00, 0x19, 0x0c, 0x00, 0x0c, 0x00, 0x0b, 0x00, 0x00, 0x00, 0x00, 0x00, 0x04, 0x00, 0x0c, 0x00, 0x00, 0x00, 0x09, 0x00, 0x00, 0x00, 0x00, 0x00, 0x00, 0x09 };