#pragma once
#ifdef __has_attribute
#define HAVE_ATTRIBUTE(x) __has_attribute(x)
#else
#define HAVE_ATTRIBUTE(x) 0
#endif
#if HAVE_ATTRIBUTE(aligned) || (defined(__GNUC__) && !defined(__clang__))
#define DATA_ALIGN_ATTRIBUTE __attribute__((aligned(4)))
#else
#define DATA_ALIGN_ATTRIBUTE
#endif

//network configuration
#define TF_NUM_INPUTS 14
#define TF_NUM_OUTPUTS 3
#define TF_NUM_OPS 3
#define TF_OP_FULLYCONNECTED1
#define TF_OP_FULLYCONNECTED2
#define TF_OP_SOFTMAXs


float x0[13] = {0.0f, 0.5274860540992238f, 0.9f, 0.3372549019607843f, 0.61f, 0.0019569471624266f, 
                0.5f, 0.61f, 0.5254901960784314f, 0.3015873015873015f, 0.0f, 0.0f, 0.0f};
float x1[13] = {1.0f, 0.0f, 0.1f, 0.0039215686274509f, 0.0f, 0.2661448140900195f, 0.5f, 0.0f, 1.0f, 0.7142857142857142f, 0.0f, 1.0f, 0.0f};
float x2[13] = {0.0f, 0.1695557923014435f, 0.9f, 0.2235294117647058f, 1.0f, 0.0019569471624266f, 
                0.0f, 1.0f, 0.0117647058823529f, 0.2063492063492063f, 0.0f, 0.0f, 0.0f};


const unsigned char snn_model[] DATA_ALIGN_ATTRIBUTE = {
        0x1c, 0x00, 0x00, 0x00, 0x54, 0x46, 0x4c, 0x33, 0x14, 0x00, 0x20, 0x00,
        0x1c, 0x00, 0x18, 0x00, 0x14, 0x00, 0x10, 0x00, 0x0c, 0x00, 0x00, 0x00,
        0x08, 0x00, 0x04, 0x00, 0x14, 0x00, 0x00, 0x00, 0x1c, 0x00, 0x00, 0x00,
        0x90, 0x00, 0x00, 0x00, 0xe8, 0x00, 0x00, 0x00, 0x14, 0x19, 0x00, 0x00,
        0x24, 0x19, 0x00, 0x00, 0xe0, 0x1e, 0x00, 0x00, 0x03, 0x00, 0x00, 0x00,
        0x01, 0x00, 0x00, 0x00, 0x10, 0x00, 0x00, 0x00, 0x00, 0x00, 0x0a, 0x00,
        0x10, 0x00, 0x0c, 0x00, 0x08, 0x00, 0x04, 0x00, 0x0a, 0x00, 0x00, 0x00,
        0x0c, 0x00, 0x00, 0x00, 0x1c, 0x00, 0x00, 0x00, 0x38, 0x00, 0x00, 0x00,
        0x0f, 0x00, 0x00, 0x00, 0x73, 0x65, 0x72, 0x76, 0x69, 0x6e, 0x67, 0x5f,
        0x64, 0x65, 0x66, 0x61, 0x75, 0x6c, 0x74, 0x00, 0x01, 0x00, 0x00, 0x00,
        0x04, 0x00, 0x00, 0x00, 0x98, 0xff, 0xff, 0xff, 0x0a, 0x00, 0x00, 0x00,
        0x04, 0x00, 0x00, 0x00, 0x07, 0x00, 0x00, 0x00, 0x64, 0x65, 0x6e, 0x73,
        0x65, 0x5f, 0x32, 0x00, 0x01, 0x00, 0x00, 0x00, 0x04, 0x00, 0x00, 0x00,
        0xce, 0xe6, 0xff, 0xff, 0x04, 0x00, 0x00, 0x00, 0x0b, 0x00, 0x00, 0x00,
        0x64, 0x65, 0x6e, 0x73, 0x65, 0x5f, 0x69, 0x6e, 0x70, 0x75, 0x74, 0x00,
        0x02, 0x00, 0x00, 0x00, 0x34, 0x00, 0x00, 0x00, 0x04, 0x00, 0x00, 0x00,
        0xdc, 0xff, 0xff, 0xff, 0x0d, 0x00, 0x00, 0x00, 0x04, 0x00, 0x00, 0x00,
        0x13, 0x00, 0x00, 0x00, 0x43, 0x4f, 0x4e, 0x56, 0x45, 0x52, 0x53, 0x49,
        0x4f, 0x4e, 0x5f, 0x4d, 0x45, 0x54, 0x41, 0x44, 0x41, 0x54, 0x41, 0x00,
        0x08, 0x00, 0x0c, 0x00, 0x08, 0x00, 0x04, 0x00, 0x08, 0x00, 0x00, 0x00,
        0x0c, 0x00, 0x00, 0x00, 0x04, 0x00, 0x00, 0x00, 0x13, 0x00, 0x00, 0x00,
        0x6d, 0x69, 0x6e, 0x5f, 0x72, 0x75, 0x6e, 0x74, 0x69, 0x6d, 0x65, 0x5f,
        0x76, 0x65, 0x72, 0x73, 0x69, 0x6f, 0x6e, 0x00, 0x0e, 0x00, 0x00, 0x00,
        0x28, 0x18, 0x00, 0x00, 0x20, 0x18, 0x00, 0x00, 0xc0, 0x17, 0x00, 0x00,
        0xa4, 0x17, 0x00, 0x00, 0xf0, 0x16, 0x00, 0x00, 0x8c, 0x0e, 0x00, 0x00,
        0xac, 0x01, 0x00, 0x00, 0xac, 0x00, 0x00, 0x00, 0xa4, 0x00, 0x00, 0x00,
        0x9c, 0x00, 0x00, 0x00, 0x94, 0x00, 0x00, 0x00, 0x8c, 0x00, 0x00, 0x00,
        0x6c, 0x00, 0x00, 0x00, 0x04, 0x00, 0x00, 0x00, 0x7e, 0xe7, 0xff, 0xff,
        0x04, 0x00, 0x00, 0x00, 0x58, 0x00, 0x00, 0x00, 0x0c, 0x00, 0x00, 0x00,
        0x08, 0x00, 0x0e, 0x00, 0x08, 0x00, 0x04, 0x00, 0x08, 0x00, 0x00, 0x00,
        0x10, 0x00, 0x00, 0x00, 0x28, 0x00, 0x00, 0x00, 0x00, 0x00, 0x06, 0x00,
        0x08, 0x00, 0x04, 0x00, 0x06, 0x00, 0x00, 0x00, 0x04, 0x00, 0x00, 0x00,
        0x01, 0x00, 0x00, 0x00, 0xea, 0x03, 0x00, 0x00, 0x00, 0x00, 0x0a, 0x00,
        0x10, 0x00, 0x0c, 0x00, 0x08, 0x00, 0x04, 0x00, 0x0a, 0x00, 0x00, 0x00,
        0x02, 0x00, 0x00, 0x00, 0x02, 0x00, 0x00, 0x00, 0x04, 0x00, 0x00, 0x00,
        0x06, 0x00, 0x00, 0x00, 0x32, 0x2e, 0x31, 0x32, 0x2e, 0x31, 0x00, 0x00,
        0xe2, 0xe7, 0xff, 0xff, 0x04, 0x00, 0x00, 0x00, 0x10, 0x00, 0x00, 0x00,
        0x31, 0x2e, 0x35, 0x2e, 0x30, 0x00, 0x00, 0x00, 0x00, 0x00, 0x00, 0x00,
        0x00, 0x00, 0x00, 0x00, 0xf0, 0xe2, 0xff, 0xff, 0xf4, 0xe2, 0xff, 0xff,
        0xf8, 0xe2, 0xff, 0xff, 0xfc, 0xe2, 0xff, 0xff, 0x0e, 0xe8, 0xff, 0xff,
        0x04, 0x00, 0x00, 0x00, 0xf0, 0x00, 0x00, 0x00, 0x59, 0x55, 0x36, 0x3f,
        0xe7, 0xcd, 0xda, 0x3e, 0xa9, 0x81, 0x57, 0xbf, 0x85, 0x2b, 0xf3, 0x3e,
        0x26, 0x7e, 0x3f, 0x3f, 0x81, 0x3a, 0x0b, 0x3f, 0xd1, 0xe4, 0xf1, 0xbe,
        0x52, 0x0a, 0xd5, 0x3e, 0x45, 0x5e, 0x26, 0x3f, 0x79, 0xe0, 0xb8, 0xbf,
        0xd1, 0x35, 0x27, 0x3f, 0xf8, 0xbd, 0xeb, 0x3d, 0x92, 0xaf, 0x17, 0x3e,
        0x02, 0x26, 0xb1, 0x3e, 0x64, 0x8c, 0xa4, 0xbf, 0x18, 0x5e, 0x82, 0x3e,
        0x21, 0xa4, 0x96, 0xbe, 0x46, 0xd5, 0xf4, 0xbe, 0xe2, 0xd4, 0xa1, 0xbf,
        0x0d, 0x41, 0x40, 0xbf, 0x3e, 0x40, 0x02, 0xbf, 0xe3, 0x55, 0xec, 0x3e,
        0x88, 0x9a, 0xaf, 0x3f, 0xff, 0xb5, 0xc2, 0xbf, 0xa5, 0xbf, 0x74, 0x3e,
        0x45, 0x95, 0xaf, 0xbf, 0x41, 0x24, 0x45, 0xbf, 0x79, 0x0c, 0x89, 0xbd,
        0xb9, 0x77, 0xbc, 0xbf, 0x24, 0x3b, 0xc4, 0x3f, 0xf0, 0xa2, 0x57, 0xbf,
        0x4c, 0xf6, 0x8c, 0xbd, 0x53, 0x0f, 0xa4, 0x3f, 0x53, 0x9b, 0xdc, 0xbe,
        0x71, 0xfe, 0x92, 0xbf, 0x50, 0xa0, 0x23, 0x3f, 0xbc, 0xdf, 0x16, 0xbe,
        0xc7, 0xe5, 0x39, 0x3e, 0xa4, 0x17, 0x2d, 0x3f, 0x21, 0x6e, 0x1e, 0xc0,
        0xa3, 0x86, 0xf1, 0xbe, 0x50, 0xb5, 0x41, 0xbf, 0xd1, 0x18, 0x23, 0xbd,
        0x10, 0x5a, 0xc9, 0x3e, 0xb6, 0x80, 0x3b, 0xbe, 0xa2, 0xc0, 0x41, 0x3f,
        0x91, 0x24, 0x9d, 0x3f, 0x4c, 0x44, 0xa1, 0xbe, 0x3b, 0xcf, 0x52, 0xbf,
        0x03, 0xa4, 0x4d, 0xbe, 0x30, 0xd3, 0x29, 0xbc, 0xce, 0x4b, 0x88, 0x3e,
        0xdc, 0x65, 0xc6, 0xbf, 0x69, 0x03, 0x03, 0xbf, 0x59, 0x5b, 0x96, 0x3f,
        0xd2, 0x30, 0x50, 0xbf, 0x85, 0xfb, 0xbb, 0x3e, 0xd5, 0x34, 0x5d, 0xbe,
        0x2c, 0xc7, 0x7e, 0x3c, 0xb0, 0x28, 0xbb, 0x3f, 0x0a, 0xe9, 0xff, 0xff,
        0x04, 0x00, 0x00, 0x00, 0xd0, 0x0c, 0x00, 0x00, 0xbf, 0xee, 0x9c, 0x3e,
        0x51, 0xc0, 0x49, 0xbf, 0xa9, 0x62, 0x01, 0x3f, 0xef, 0xd4, 0x26, 0xbd,
        0x1b, 0x78, 0x00, 0x3f, 0x2e, 0xd2, 0x1a, 0x3f, 0xd6, 0xd6, 0x82, 0x3e,
        0x1c, 0xc7, 0x4a, 0xbe, 0xde, 0xcd, 0x97, 0x3e, 0xd1, 0x59, 0xcc, 0x3e,
        0xcc, 0x9c, 0xe9, 0x3d, 0x79, 0x2e, 0x57, 0x3f, 0xe8, 0xa5, 0x19, 0x3e,
        0x9f, 0xe4, 0x95, 0xbe, 0x2b, 0xc4, 0x1a, 0xbf, 0x4e, 0x44, 0x79, 0xbe,
        0xb6, 0xaf, 0x9e, 0x3e, 0xac, 0x20, 0xe3, 0x3d, 0x5c, 0x6b, 0x39, 0xbd,
        0x77, 0x6b, 0x8a, 0x3c, 0xb0, 0x82, 0x88, 0x3e, 0x41, 0xb8, 0xdf, 0x3e,
        0xd2, 0x7b, 0x8b, 0x3f, 0xad, 0x7c, 0xb8, 0xbe, 0xad, 0xfa, 0x32, 0xbf,
        0x19, 0x8e, 0x9e, 0xbc, 0x1c, 0x01, 0x00, 0x3f, 0xaa, 0xcc, 0x34, 0xbe,
        0x1d, 0xda, 0x3a, 0x3f, 0x78, 0x5c, 0xdd, 0xbe, 0x13, 0xf1, 0x56, 0x3e,
        0xa7, 0x36, 0x7f, 0x3e, 0xfa, 0x35, 0x96, 0xbe, 0x3e, 0xf8, 0x93, 0xbf,
        0xd4, 0x9f, 0x55, 0x3e, 0x4d, 0x58, 0x22, 0x3e, 0x1f, 0xf3, 0x3b, 0xbf,
        0x22, 0x5f, 0xa9, 0xbe, 0xe0, 0x34, 0xe7, 0x3c, 0x53, 0x07, 0x4d, 0xbd,
        0xf7, 0x04, 0x00, 0x3e, 0xe1, 0xba, 0xa0, 0xbf, 0x16, 0xc3, 0xbc, 0xbe,
        0xe0, 0xc7, 0x9f, 0x3e, 0xed, 0xfb, 0x32, 0xbe, 0x1c, 0x2b, 0x6b, 0x3f,
        0xdd, 0x31, 0x66, 0x3f, 0xec, 0xf9, 0x9a, 0x3f, 0x0b, 0x8d, 0x39, 0x3e,
        0x18, 0x7d, 0xc1, 0x3e, 0xca, 0xb7, 0x0a, 0x3f, 0x1e, 0xef, 0x32, 0xbe,
        0xc4, 0x46, 0xa1, 0xbe, 0xe9, 0x20, 0x56, 0x3e, 0x65, 0xb7, 0xa1, 0x3d,
        0x4f, 0x6a, 0x89, 0xbf, 0x2b, 0xd6, 0xa8, 0xbd, 0x62, 0x1d, 0x85, 0x3e,
        0x27, 0xb4, 0x8b, 0x3d, 0x04, 0x12, 0x83, 0x3e, 0x97, 0x88, 0x38, 0x3d,
        0xc2, 0xb5, 0x73, 0x3e, 0xf9, 0xe3, 0xab, 0x3d, 0xe8, 0xfb, 0xa6, 0xbe,
        0x6e, 0xa9, 0xff, 0xbe, 0x56, 0x6a, 0x0a, 0x3f, 0xbb, 0x3e, 0x29, 0x3e,
        0x42, 0x8d, 0xcf, 0xbe, 0xf2, 0x1e, 0xf7, 0x3d, 0x94, 0x70, 0x98, 0x3e,
        0x2d, 0xeb, 0x8d, 0x3d, 0x5b, 0x75, 0x43, 0x3e, 0x1e, 0x84, 0x8d, 0xbd,
        0x4e, 0x2a, 0x89, 0x3e, 0x59, 0x35, 0x53, 0xbe, 0xcd, 0xc3, 0x1a, 0xbe,
        0xa0, 0xe3, 0x5f, 0xbe, 0x09, 0x6e, 0x1d, 0xbf, 0x82, 0xa8, 0x82, 0xbc,
        0xc7, 0x8c, 0xc9, 0x3e, 0x76, 0xcb, 0xf6, 0xbd, 0x16, 0xd4, 0xa2, 0x3c,
        0x2d, 0x0d, 0xb9, 0xbf, 0x37, 0xf9, 0x19, 0x3e, 0x10, 0xd5, 0x35, 0xbf,
        0xbe, 0x5e, 0x7c, 0xbf, 0x43, 0x34, 0x42, 0x3d, 0x74, 0x5a, 0xac, 0x3e,
        0x8c, 0x0f, 0x5b, 0x3f, 0x23, 0x9a, 0x17, 0x3f, 0x2a, 0x7e, 0x88, 0x3e,
        0x57, 0x5a, 0x08, 0xbd, 0x00, 0xfb, 0xb6, 0x3d, 0x61, 0x30, 0x96, 0xbf,
        0x66, 0xd6, 0x07, 0x3f, 0xc7, 0xe1, 0x65, 0x3e, 0xbd, 0xb7, 0x32, 0xbe,
        0xfd, 0xdc, 0xa5, 0xbe, 0x42, 0xd7, 0x8b, 0xbe, 0xe4, 0xfb, 0x55, 0x3e,
        0xf0, 0xbd, 0x5c, 0xbd, 0xff, 0xb8, 0xd2, 0x3e, 0x4e, 0xa6, 0x44, 0x3d,
        0x5f, 0x32, 0x98, 0xbc, 0xf1, 0x21, 0xd0, 0xbf, 0xc5, 0xef, 0xd2, 0xbe,
        0x7d, 0xb1, 0x4c, 0x3f, 0xa8, 0x02, 0xea, 0xbe, 0x0e, 0x31, 0x69, 0xbf,
        0x7a, 0xf5, 0xdb, 0x3d, 0x5e, 0x8e, 0x61, 0xbf, 0xf7, 0xea, 0x12, 0x3f,
        0x4f, 0x7c, 0x29, 0xbd, 0x58, 0xd0, 0x65, 0x3e, 0x50, 0xc0, 0x9a, 0x3c,
        0x8b, 0x08, 0x8c, 0x3f, 0x6b, 0xb7, 0xfd, 0x3e, 0x41, 0xd5, 0xd5, 0xbe,
        0x71, 0xd0, 0xe0, 0x3e, 0xfc, 0x37, 0x31, 0x3f, 0xad, 0x0a, 0xc8, 0x3e,
        0x80, 0xdf, 0x71, 0xbd, 0x46, 0x17, 0xc0, 0x3d, 0x7d, 0x98, 0x8e, 0x3f,
        0x01, 0xa9, 0x42, 0xbf, 0x1b, 0x06, 0x21, 0x3f, 0xe4, 0x6a, 0x7e, 0x3f,
        0x25, 0x02, 0x16, 0x3e, 0x43, 0xd4, 0x86, 0xbe, 0x2b, 0x1a, 0x2a, 0xbf,
        0x6b, 0xd6, 0x8e, 0xbd, 0xb8, 0x53, 0x5a, 0xbd, 0xca, 0x8a, 0x72, 0x3e,
        0xcb, 0x3f, 0x2d, 0x3e, 0xd3, 0xe0, 0x40, 0x3f, 0x55, 0x25, 0xfe, 0xbd,
        0x4c, 0x56, 0xb8, 0xbe, 0xd6, 0xc1, 0xf0, 0x3e, 0x1e, 0x1b, 0x03, 0x3f,
        0xee, 0x68, 0x84, 0x3e, 0x41, 0x76, 0x96, 0xbe, 0x38, 0xb3, 0xf0, 0x3e,
        0x24, 0x3e, 0x68, 0xbe, 0x42, 0xbd, 0x77, 0xbe, 0x6c, 0x3d, 0xbb, 0x3e,
        0xf5, 0xc1, 0xfb, 0x3f, 0xbd, 0xe9, 0x86, 0x3f, 0x6f, 0x54, 0x8b, 0xbf,
        0xb8, 0xf2, 0x73, 0x3e, 0xe4, 0x73, 0x1c, 0x3f, 0xd1, 0x35, 0x95, 0x3e,
        0x24, 0x3a, 0x1f, 0x3f, 0x68, 0x7e, 0xfd, 0xbe, 0xd3, 0x69, 0xec, 0x3e,
        0x8b, 0x56, 0xd7, 0xbd, 0xe3, 0x8c, 0x1d, 0xbe, 0xc4, 0x81, 0x80, 0xbf,
        0xe8, 0x49, 0x5b, 0xbe, 0x6b, 0x5d, 0xfc, 0x3d, 0x65, 0xa5, 0x93, 0x3e,
        0xd4, 0x78, 0x07, 0xbf, 0x0c, 0x0b, 0xfe, 0x3c, 0x02, 0x6c, 0xb2, 0x3e,
        0x21, 0x5c, 0xb9, 0xbd, 0x79, 0xc5, 0xc2, 0xbe, 0x5e, 0x92, 0x02, 0xbf,
        0x42, 0x00, 0x1d, 0xbd, 0x04, 0x85, 0x0c, 0xbe, 0xf4, 0x8b, 0x99, 0x3e,
        0xb9, 0xfa, 0x88, 0xbe, 0x9d, 0x61, 0x9f, 0x3e, 0x22, 0x52, 0xfc, 0xbd,
        0x96, 0x4b, 0x3d, 0x3d, 0xd7, 0xb8, 0x72, 0x3e, 0x75, 0x79, 0xa5, 0x3e,
        0x14, 0xca, 0xad, 0xbd, 0xad, 0x18, 0x00, 0xbd, 0x7c, 0x5b, 0xbf, 0x3e,
        0xd6, 0x78, 0x93, 0x3e, 0x29, 0xda, 0x8d, 0x3e, 0x55, 0x80, 0x67, 0xbe,
        0xe0, 0xc7, 0x80, 0xbe, 0x0e, 0x9b, 0x22, 0xbc, 0x4f, 0xec, 0xc0, 0x3e,
        0xcc, 0xed, 0xb3, 0xbe, 0x2f, 0xa3, 0xdd, 0xbc, 0xd0, 0x6b, 0xc7, 0x3e,
        0x89, 0x26, 0xae, 0xbe, 0x46, 0x6a, 0x7f, 0xbe, 0x47, 0xd3, 0xb4, 0x3e,
        0xff, 0x41, 0x88, 0x3d, 0x6f, 0xbd, 0x8b, 0xbd, 0x03, 0xf3, 0xe1, 0xbc,
        0x36, 0x55, 0xa6, 0xbc, 0x42, 0x52, 0xbb, 0x3b, 0xf8, 0xf9, 0x42, 0xbc,
        0xe6, 0xc4, 0xcb, 0xbd, 0xdc, 0xe5, 0x27, 0xbf, 0xe8, 0x1c, 0x39, 0xbe,
        0x04, 0x5b, 0x90, 0x3e, 0x41, 0x97, 0xc8, 0x3e, 0xc2, 0x56, 0x8a, 0x3d,
        0x4d, 0x82, 0xe9, 0xbe, 0xa2, 0xc3, 0x05, 0xbd, 0x4f, 0x1a, 0x99, 0x3e,
        0xae, 0x1b, 0xba, 0x3f, 0xb9, 0x7d, 0xf8, 0xbe, 0xde, 0xe5, 0x92, 0x3e,
        0x9b, 0x10, 0x8a, 0x3f, 0x14, 0x19, 0x67, 0x3e, 0x76, 0x73, 0x69, 0xbd,
        0xd3, 0xe8, 0x54, 0xbf, 0x57, 0xbc, 0x90, 0xbe, 0x75, 0x11, 0x86, 0x3e,
        0xd7, 0x91, 0xf3, 0x3d, 0xf6, 0x8f, 0x1b, 0xbe, 0x2b, 0xf5, 0x8d, 0x3f,
        0xf2, 0xbe, 0xc2, 0xbc, 0x8b, 0xb5, 0x40, 0xbe, 0x6c, 0x9c, 0x25, 0x3f,
        0xf4, 0x84, 0x31, 0x3f, 0xfd, 0xf4, 0xd0, 0x3e, 0xc0, 0x96, 0x90, 0xbe,
        0xb7, 0x03, 0xb1, 0x3e, 0x27, 0xfe, 0x17, 0xbe, 0xfd, 0x61, 0x4c, 0x3d,
        0x39, 0x12, 0xfe, 0xbd, 0xe7, 0x34, 0xbe, 0x3f, 0x31, 0x72, 0x76, 0x3f,
        0x76, 0xad, 0x3b, 0xbf, 0x27, 0xfd, 0x20, 0x3f, 0x24, 0x5f, 0x77, 0x3f,
        0x03, 0xd1, 0x09, 0xbe, 0xf7, 0x30, 0xf1, 0x3e, 0xa1, 0xdc, 0xbb, 0xbd,
        0xd2, 0xf8, 0x60, 0x3d, 0x68, 0x73, 0x08, 0xbd, 0xdf, 0x79, 0x54, 0xbe,
        0x9f, 0xec, 0x5d, 0xbf, 0x78, 0xf3, 0xaf, 0x3d, 0xc2, 0x1b, 0x7a, 0x3e,
        0x82, 0x2f, 0x82, 0x3e, 0x26, 0x26, 0xc9, 0xbe, 0x62, 0xe1, 0x98, 0x3d,
        0x4b, 0x39, 0xbb, 0x3e, 0xf0, 0x41, 0x3a, 0x3e, 0xd4, 0xbf, 0x98, 0x3f,
        0x7a, 0xa4, 0x8a, 0x3e, 0x57, 0x85, 0x9e, 0x3e, 0x59, 0x89, 0x05, 0xbe,
        0xc0, 0x7b, 0x66, 0xbf, 0x59, 0x74, 0xf7, 0x3d, 0x20, 0x4b, 0xa7, 0xbe,
        0x99, 0x67, 0x1e, 0x3f, 0x7b, 0x95, 0x89, 0xbe, 0x92, 0x45, 0xab, 0x3e,
        0x50, 0xfb, 0x45, 0x3f, 0xe5, 0x58, 0x94, 0xbe, 0x0d, 0xcc, 0x6e, 0x3d,
        0x0b, 0x26, 0xa6, 0xbe, 0xd7, 0x57, 0xa1, 0x3f, 0x34, 0x5f, 0x94, 0x3d,
        0x22, 0x1d, 0xa0, 0x3e, 0x97, 0xd2, 0xbb, 0x3d, 0xe4, 0x9a, 0x1a, 0x3f,
        0xa1, 0x46, 0x96, 0xbe, 0xcf, 0xa7, 0xe1, 0xbe, 0x46, 0x85, 0x0f, 0x3f,
        0xe1, 0x62, 0x03, 0xbf, 0x27, 0x37, 0x5e, 0x3f, 0xa6, 0xc9, 0xe7, 0xbe,
        0x92, 0xa1, 0x85, 0xbf, 0xf5, 0x08, 0xd2, 0x3e, 0x95, 0x80, 0x9a, 0x3e,
        0x67, 0x95, 0x2c, 0x3f, 0x23, 0x0c, 0x20, 0xbe, 0x26, 0xe9, 0x82, 0xbe,
        0x2d, 0x0d, 0x7b, 0x3e, 0x60, 0x58, 0xea, 0x3c, 0x5b, 0x5b, 0x5a, 0xbf,
        0x0b, 0x69, 0x40, 0x3e, 0x8c, 0x5d, 0x0b, 0xbf, 0xe1, 0xd0, 0xfb, 0x3e,
        0xde, 0x82, 0xef, 0xbe, 0xbe, 0xe4, 0x16, 0x3e, 0xa8, 0x91, 0xb3, 0xbc,
        0x9a, 0x19, 0xc8, 0x3e, 0xf0, 0xeb, 0xa7, 0xbc, 0x16, 0x16, 0xe4, 0xbd,
        0xb7, 0x74, 0xc5, 0xbd, 0xdb, 0xbd, 0xf5, 0xbd, 0x66, 0x2c, 0x71, 0xbe,
        0xaf, 0xa2, 0x62, 0xbe, 0x10, 0x36, 0x77, 0x3e, 0x7c, 0x64, 0xf6, 0xbd,
        0x90, 0xb7, 0x90, 0xbe, 0x53, 0xcd, 0x74, 0xbe, 0x23, 0x91, 0x25, 0xbe,
        0x34, 0x05, 0x9a, 0x3e, 0x3f, 0x8b, 0xee, 0xbc, 0xde, 0xfc, 0x99, 0xbe,
        0x00, 0xf6, 0x3f, 0x3d, 0x1b, 0xd4, 0x0a, 0xbe, 0xb6, 0x7d, 0x28, 0x3e,
        0x82, 0x3c, 0x36, 0x3e, 0x09, 0xc6, 0xa7, 0xbe, 0x36, 0xd2, 0x1c, 0x3e,
        0x06, 0x6b, 0x3c, 0xbe, 0x5a, 0xc2, 0x03, 0x3e, 0xfc, 0x21, 0x05, 0x3e,
        0x51, 0xd1, 0x07, 0xbe, 0x3c, 0x53, 0x93, 0xbe, 0xc6, 0xd3, 0x15, 0xbe,
        0x95, 0xc4, 0x64, 0x3e, 0x5e, 0x66, 0x88, 0xbe, 0x23, 0x0a, 0x3f, 0xbe,
        0x91, 0x1f, 0x8c, 0x3e, 0xcf, 0xe2, 0xa5, 0xbe, 0xf5, 0x89, 0x8f, 0xbb,
        0xca, 0x14, 0x28, 0x3e, 0xdc, 0x6a, 0x81, 0xbe, 0x9c, 0x60, 0x58, 0xbe,
        0xa6, 0x43, 0xf6, 0xbd, 0x21, 0x2a, 0x64, 0x3e, 0x4f, 0x94, 0x4e, 0x3e,
        0x86, 0x13, 0x63, 0xbe, 0x8f, 0x1c, 0x52, 0xbd, 0xbb, 0x2b, 0x82, 0xbe,
        0x1b, 0xe3, 0xae, 0xbd, 0x32, 0x5d, 0x97, 0xbf, 0x22, 0x9e, 0x2c, 0x3f,
        0x6f, 0xd6, 0x54, 0x3e, 0x93, 0x05, 0x1b, 0x3f, 0x8a, 0x2c, 0x37, 0x3f,
        0x26, 0x0b, 0x54, 0x3d, 0x98, 0xe6, 0x4b, 0x3d, 0xfb, 0x73, 0x0e, 0xbd,
        0xa4, 0xc5, 0xae, 0x3e, 0xf3, 0xad, 0x2b, 0xbe, 0x38, 0xca, 0x5b, 0x3f,
        0x4c, 0x17, 0xa4, 0xbe, 0xfc, 0xe7, 0xdf, 0xbb, 0x99, 0xba, 0x49, 0xbf,
        0x5a, 0x07, 0xbc, 0xbb, 0xb7, 0x41, 0xb2, 0xbd, 0x92, 0xad, 0x93, 0x3d,
        0x0e, 0x10, 0x33, 0x3e, 0x0a, 0x16, 0x1d, 0x3e, 0x09, 0x51, 0x43, 0x3e,
        0x08, 0xbc, 0xbb, 0xbd, 0x4d, 0xe9, 0xa0, 0x3f, 0xad, 0xfb, 0x4d, 0xbf,
        0x2c, 0x3f, 0x5c, 0xbf, 0x0b, 0x2a, 0xad, 0x3e, 0x31, 0x7c, 0x18, 0x3f,
        0x0b, 0x4a, 0x97, 0xbe, 0x8c, 0x72, 0x7c, 0x3e, 0x0e, 0xfa, 0x28, 0xbf,
        0xcd, 0xbb, 0xa5, 0x3e, 0x37, 0x45, 0x63, 0x3e, 0x70, 0x3a, 0xea, 0x3c,
        0x00, 0x88, 0xa5, 0xbf, 0x76, 0x47, 0xc1, 0xbd, 0x3e, 0x10, 0xcd, 0xbc,
        0xa8, 0xd7, 0x34, 0xbf, 0xaa, 0x82, 0xda, 0xbe, 0x70, 0x0a, 0xf5, 0x3d,
        0xda, 0x3a, 0x18, 0x3e, 0x43, 0x43, 0x98, 0x3e, 0xd6, 0xfa, 0xaa, 0xbf,
        0x36, 0x2d, 0xa8, 0x3c, 0x4c, 0xae, 0xc9, 0xbe, 0x6d, 0xde, 0x46, 0xbe,
        0x21, 0xea, 0x83, 0xbe, 0x36, 0xea, 0x95, 0xbe, 0x0e, 0x22, 0x00, 0xbf,
        0xff, 0x59, 0xb0, 0x3e, 0x42, 0x7b, 0x97, 0x3e, 0xd3, 0x6a, 0xe7, 0x3e,
        0x96, 0x15, 0x62, 0xbe, 0x1c, 0xe7, 0x68, 0xbf, 0x75, 0x23, 0x4e, 0xbd,
        0xfe, 0xe7, 0x9b, 0x3e, 0x2a, 0xe7, 0x29, 0xbf, 0x3e, 0xfb, 0x06, 0xbf,
        0xa0, 0x76, 0xca, 0xb9, 0xea, 0x6c, 0x32, 0xbe, 0x32, 0x50, 0x80, 0xbd,
        0x75, 0x78, 0x2a, 0x3f, 0x74, 0xa0, 0x34, 0xbf, 0x5a, 0xbd, 0xdd, 0x3e,
        0x0d, 0xb9, 0xeb, 0xbf, 0x9b, 0x3b, 0x7e, 0xbf, 0x00, 0xfe, 0xc6, 0x3e,
        0xa8, 0xe5, 0x76, 0xbf, 0x7d, 0xbc, 0xa4, 0xbf, 0x47, 0x1c, 0x15, 0x3f,
        0xb0, 0xdb, 0x60, 0xbf, 0x5f, 0xcf, 0x25, 0x3f, 0x86, 0x16, 0xa2, 0xbe,
        0xcb, 0x16, 0x8e, 0x3e, 0x4e, 0x73, 0x0d, 0xbe, 0x01, 0xfc, 0x91, 0xbe,
        0x4b, 0xe7, 0x0c, 0xbe, 0x7d, 0x98, 0x9a, 0xbf, 0xf7, 0x6f, 0x35, 0x3e,
        0xb1, 0xa2, 0xdd, 0x3e, 0x55, 0x87, 0xd0, 0xbe, 0x15, 0x11, 0xb9, 0xbe,
        0x47, 0x99, 0x9f, 0xbc, 0xf2, 0x80, 0xd8, 0x3e, 0x18, 0xc3, 0x1e, 0xbf,
        0x5e, 0x13, 0xfe, 0x3e, 0xa6, 0xf4, 0x44, 0x3e, 0x19, 0x06, 0x1f, 0x3f,
        0x6f, 0x0a, 0xaa, 0x3e, 0x09, 0xf4, 0x07, 0xbe, 0xd7, 0xba, 0xa4, 0xbe,
        0x41, 0x52, 0xfd, 0xbd, 0xe7, 0xcd, 0xd1, 0xbc, 0x8d, 0x34, 0x41, 0xbe,
        0xcb, 0x01, 0x2c, 0x3f, 0x4f, 0xe8, 0x60, 0xbe, 0x6d, 0x09, 0x1a, 0xbd,
        0x23, 0x70, 0x2e, 0xbe, 0xaf, 0x06, 0x99, 0xbd, 0x76, 0x63, 0x3a, 0x3e,
        0x1b, 0xdf, 0xb3, 0x3e, 0x7c, 0xa7, 0xad, 0x3e, 0x66, 0x3e, 0xab, 0xbe,
        0xb9, 0x3a, 0xed, 0x3e, 0x4e, 0x62, 0xc6, 0x3e, 0xd1, 0x06, 0xd4, 0x3f,
        0x41, 0x72, 0xcb, 0x3e, 0x7a, 0x40, 0x89, 0xbf, 0x71, 0xff, 0x88, 0x3c,
        0x03, 0x30, 0x7a, 0x3f, 0xd6, 0xbd, 0x1a, 0x3e, 0xb0, 0xf3, 0x6a, 0x3f,
        0xfc, 0xb7, 0xe1, 0xbe, 0x35, 0xc1, 0x50, 0x3e, 0x73, 0x01, 0xb2, 0x3e,
        0x8c, 0x77, 0x74, 0x3e, 0x71, 0x6d, 0x8e, 0xbf, 0x78, 0x5b, 0xae, 0x3d,
        0xd9, 0xe6, 0xfb, 0x3e, 0x60, 0x51, 0x83, 0xbd, 0xff, 0x8a, 0x10, 0xbf,
        0xf5, 0xbc, 0xf2, 0xbc, 0x32, 0x7e, 0x86, 0x3d, 0x0b, 0x02, 0xa7, 0x3e,
        0x48, 0xac, 0x17, 0xbd, 0xa0, 0xd0, 0x55, 0xbe, 0x85, 0xcf, 0x6d, 0xbe,
        0x30, 0x95, 0x65, 0xbd, 0xc1, 0x26, 0x04, 0xbe, 0xdc, 0x50, 0x46, 0x3e,
        0x68, 0x6b, 0x3e, 0xbe, 0xf0, 0xf2, 0x5e, 0xbe, 0x48, 0x9b, 0x25, 0xbd,
        0x4b, 0xf2, 0x0a, 0xbe, 0xf0, 0x28, 0x59, 0x3e, 0xee, 0x07, 0x37, 0x3e,
        0xe0, 0xce, 0x35, 0x3e, 0x80, 0x02, 0x52, 0x3e, 0x96, 0xca, 0x3a, 0x3e,
        0x10, 0x24, 0x2d, 0xbd, 0x3e, 0x0f, 0x94, 0xbe, 0xaf, 0xb9, 0x8a, 0xbe,
        0x30, 0x9d, 0xad, 0xbc, 0x20, 0x94, 0xe3, 0xbd, 0xbf, 0x19, 0x9d, 0xbe,
        0x40, 0xc1, 0xe9, 0x3c, 0xfc, 0xe6, 0x9a, 0xbd, 0x64, 0x92, 0xae, 0xbd,
        0xeb, 0x54, 0x08, 0xbe, 0x10, 0x13, 0xc4, 0xbd, 0x14, 0x66, 0xdf, 0xbd,
        0x6c, 0xf1, 0x98, 0xbe, 0x58, 0x7d, 0xa0, 0x3d, 0x18, 0x08, 0x94, 0x3e,
        0xb0, 0x63, 0x90, 0x3d, 0x0b, 0xce, 0x01, 0xbe, 0xb0, 0xa1, 0x80, 0x3c,
        0xaf, 0x78, 0x36, 0xbe, 0x67, 0x49, 0x37, 0xbe, 0xd8, 0xa0, 0xa6, 0xbd,
        0xdc, 0x4a, 0xd5, 0x3d, 0x00, 0x33, 0x77, 0x3c, 0xa1, 0x9d, 0x01, 0xbe,
        0x22, 0x40, 0x93, 0xbe, 0x60, 0xe2, 0x42, 0x3e, 0x3b, 0x57, 0xb7, 0xbf,
        0xac, 0xe5, 0x1f, 0x3f, 0xcb, 0xee, 0x0b, 0xbf, 0x20, 0xa4, 0x32, 0xbf,
        0xb6, 0x11, 0xe5, 0x3e, 0x61, 0x4b, 0xc9, 0x3e, 0x7d, 0x1d, 0x8e, 0x3f,
        0x3c, 0x74, 0xc2, 0x3e, 0xeb, 0x71, 0x0c, 0xbd, 0xbf, 0x93, 0x46, 0xbe,
        0xdf, 0x0e, 0xb9, 0x3d, 0x2b, 0x23, 0xa4, 0xbf, 0x06, 0x94, 0x24, 0x3f,
        0x19, 0xbc, 0x9d, 0x3e, 0x55, 0x5b, 0x45, 0xbf, 0x74, 0x2b, 0x71, 0xbe,
        0xea, 0x24, 0x7c, 0xbd, 0xcf, 0x8e, 0x9b, 0x3e, 0x20, 0xa5, 0xbc, 0xbe,
        0xa9, 0xbe, 0x0e, 0x3f, 0x58, 0xae, 0x0c, 0x3f, 0xa5, 0xff, 0x22, 0x3e,
        0x3d, 0xbe, 0x9f, 0xbf, 0x2d, 0xd3, 0x83, 0xbf, 0xdf, 0x65, 0x82, 0x3f,
        0x22, 0xfe, 0x4f, 0xbe, 0x20, 0x6f, 0xa2, 0xbe, 0x89, 0x8a, 0x8c, 0x3e,
        0x00, 0x73, 0xcd, 0xbe, 0x97, 0xac, 0x0c, 0x3e, 0x55, 0x11, 0x6d, 0x3e,
        0xbc, 0x59, 0x93, 0xbd, 0xf2, 0x62, 0x05, 0x3e, 0x77, 0x32, 0xa8, 0x3f,
        0xbf, 0x6e, 0x58, 0xbb, 0x92, 0x41, 0xe9, 0xbd, 0xc7, 0x93, 0xc4, 0xbe,
        0x48, 0x53, 0xd7, 0xbd, 0x1e, 0x1a, 0x8e, 0x3e, 0x6d, 0x72, 0xd0, 0xbe,
        0x0e, 0x29, 0xcd, 0xbe, 0xe8, 0x7d, 0x17, 0x3f, 0x40, 0x35, 0x33, 0xbf,
        0x3e, 0x1a, 0xb9, 0x3e, 0x6c, 0x7e, 0x69, 0xbe, 0xb4, 0x56, 0x06, 0x3f,
        0x1c, 0x52, 0x31, 0x3f, 0x1e, 0x46, 0xbf, 0x3e, 0x23, 0xff, 0x9e, 0x3d,
        0x37, 0xb9, 0xb3, 0x3e, 0xb2, 0xba, 0xb2, 0x3d, 0x49, 0xaf, 0xa8, 0x3d,
        0x5c, 0x31, 0x88, 0x3f, 0x48, 0x1f, 0x0b, 0x3e, 0x60, 0x56, 0x92, 0x3d,
        0x60, 0x4c, 0x37, 0xbf, 0xbf, 0xb2, 0x38, 0xbd, 0x6b, 0x60, 0x91, 0x3e,
        0xea, 0xc8, 0x97, 0x3e, 0x22, 0x74, 0xf0, 0xbc, 0x45, 0xbf, 0x0f, 0xbe,
        0x44, 0xff, 0x33, 0x3e, 0xa6, 0x52, 0x0d, 0x3e, 0x51, 0xbd, 0x26, 0x3f,
        0x1c, 0x20, 0x25, 0xbf, 0xfd, 0x3a, 0x23, 0xbf, 0x00, 0xae, 0x67, 0x3e,
        0x36, 0xd2, 0x0b, 0x3e, 0x5f, 0x26, 0x74, 0xbe, 0x76, 0x07, 0x5d, 0x3e,
        0xf3, 0x7d, 0xaa, 0xbe, 0xc3, 0x6c, 0xcd, 0x3e, 0x58, 0x8c, 0x97, 0x3e,
        0xd0, 0x23, 0x4a, 0x3e, 0x1c, 0x06, 0x5f, 0xbf, 0x0a, 0x51, 0x62, 0x3e,
        0xc6, 0x53, 0xf6, 0x3d, 0xef, 0x1a, 0x25, 0xbf, 0xf8, 0x39, 0x47, 0xbe,
        0x83, 0x32, 0x2d, 0x3e, 0x31, 0x7d, 0x94, 0x3c, 0x35, 0x3f, 0xfa, 0x3d,
        0x3d, 0x70, 0xf1, 0x3f, 0xf7, 0xe7, 0x29, 0x3f, 0xff, 0x5e, 0x5b, 0x3d,
        0x38, 0xce, 0xef, 0x3e, 0xe4, 0x91, 0xa8, 0xbf, 0x3b, 0xa7, 0xad, 0xbf,
        0x82, 0xd2, 0xd9, 0xbf, 0x44, 0x6e, 0x21, 0xbd, 0xb5, 0xff, 0x76, 0x3e,
        0x8b, 0x3f, 0x84, 0x3e, 0x18, 0x70, 0x0e, 0xbf, 0x29, 0x8d, 0x5c, 0xbf,
        0x06, 0x8c, 0xbf, 0xbd, 0x27, 0x89, 0xbe, 0xbe, 0x6a, 0x4d, 0xa3, 0x3f,
        0x49, 0x07, 0xbf, 0x3e, 0xdf, 0xa9, 0xc7, 0x3e, 0x78, 0xd7, 0x23, 0xbf,
        0x51, 0x7f, 0x75, 0x3e, 0x32, 0xba, 0xd6, 0xbd, 0x2a, 0xf9, 0x96, 0xbd,
        0x46, 0xbc, 0x85, 0xbd, 0x66, 0x23, 0x8c, 0xbe, 0x5d, 0x30, 0x9a, 0x3f,
        0xb3, 0x93, 0x27, 0xbf, 0x7d, 0x67, 0x85, 0x3e, 0xe6, 0x06, 0xb8, 0xbe,
        0x5e, 0x27, 0xaf, 0x3e, 0xfc, 0x37, 0xf9, 0xbe, 0x5a, 0x7c, 0x06, 0x3f,
        0xb5, 0xc5, 0x1b, 0xbf, 0x03, 0x56, 0xc7, 0xbe, 0xab, 0x45, 0x08, 0xbe,
        0x4f, 0xfe, 0x99, 0xbd, 0x13, 0xc0, 0x4d, 0x3d, 0x95, 0xe0, 0x22, 0x3c,
        0x1f, 0x9a, 0x5b, 0x3f, 0x98, 0x0c, 0x31, 0x3e, 0x87, 0x4b, 0x85, 0xbf,
        0x2f, 0x65, 0xa8, 0x3e, 0x2a, 0x65, 0xce, 0xbd, 0x8a, 0xb1, 0xd2, 0x3e,
        0x5c, 0xca, 0x52, 0x3e, 0x66, 0x44, 0xc4, 0xbb, 0x75, 0x38, 0xd8, 0xbe,
        0xc5, 0x9c, 0x28, 0x3f, 0x12, 0x83, 0x38, 0x3f, 0xc0, 0xf3, 0x00, 0x3f,
        0xd6, 0x03, 0x2d, 0x3d, 0x00, 0xbf, 0xfb, 0xbd, 0x0f, 0x37, 0xa6, 0x3d,
        0xb2, 0xc6, 0xf8, 0x3d, 0x76, 0xe6, 0x87, 0xbf, 0x37, 0x1b, 0x13, 0xbe,
        0x4f, 0x2e, 0x49, 0x3e, 0xc3, 0x9c, 0xc3, 0xbe, 0xf7, 0xb1, 0x94, 0xbd,
        0xde, 0xc0, 0x73, 0x3e, 0x21, 0x44, 0xbd, 0x3e, 0xe1, 0xf3, 0x56, 0x3e,
        0x3b, 0xdf, 0x20, 0x3e, 0x0f, 0x16, 0x0e, 0x3f, 0x66, 0x5b, 0xc8, 0x3e,
        0x83, 0x9b, 0xef, 0xbe, 0x50, 0xa8, 0xde, 0xbe, 0x24, 0x62, 0xea, 0x3e,
        0x71, 0xe6, 0x3b, 0xbe, 0x28, 0x90, 0x17, 0x3e, 0xe4, 0x2e, 0x03, 0xbe,
        0x77, 0x25, 0x81, 0xbc, 0x16, 0x85, 0x5a, 0xbe, 0x25, 0x69, 0x00, 0x3e,
        0x68, 0x44, 0x00, 0xbf, 0x10, 0x85, 0xab, 0x3c, 0x66, 0xb2, 0xc3, 0x3e,
        0x75, 0x93, 0x08, 0xbf, 0xec, 0xef, 0x94, 0xbe, 0x48, 0x5a, 0xf4, 0xbe,
        0x82, 0x30, 0xf4, 0x3e, 0x65, 0x28, 0x2b, 0x3f, 0xc9, 0xb4, 0x0e, 0xbd,
        0x5c, 0x40, 0xb9, 0xbe, 0x83, 0xa0, 0x91, 0xbe, 0x08, 0x63, 0x1f, 0x3e,
        0xcc, 0x52, 0x63, 0x3e, 0x97, 0x20, 0x02, 0xbe, 0x40, 0x0f, 0x33, 0xbe,
        0x68, 0xa2, 0x6c, 0x3e, 0xe2, 0xa8, 0x10, 0xbe, 0x86, 0x06, 0xa4, 0xbe,
        0x3e, 0x26, 0x14, 0xbe, 0x29, 0x14, 0x37, 0xbe, 0x08, 0x05, 0x03, 0x3d,
        0x6e, 0x4e, 0xec, 0xbd, 0x72, 0x0f, 0xb0, 0xbd, 0x2c, 0xd7, 0x8b, 0xbe,
        0x0d, 0x47, 0x96, 0xbe, 0x34, 0x5f, 0x8c, 0xbe, 0x7a, 0xf7, 0x0d, 0x3e,
        0xfb, 0x4d, 0x3f, 0xbe, 0xc4, 0x0c, 0x8f, 0xbe, 0x5a, 0xac, 0x8c, 0xbd,
        0xfc, 0xa0, 0x8a, 0xbd, 0xd2, 0x3e, 0x31, 0xbe, 0x2a, 0xf4, 0xef, 0xbc,
        0x95, 0xe1, 0x53, 0xbc, 0x12, 0xcf, 0x9d, 0xbe, 0x27, 0xfb, 0x52, 0xbe,
        0xa2, 0x82, 0x10, 0x3d, 0x53, 0x40, 0x10, 0x3e, 0x57, 0x41, 0x44, 0xbe,
        0x98, 0x21, 0x92, 0x3e, 0x96, 0x72, 0x11, 0xbe, 0x65, 0xa4, 0x95, 0xbd,
        0x9c, 0x68, 0x89, 0x3d, 0x04, 0xe2, 0x3d, 0x3e, 0xee, 0xfd, 0x99, 0x3d,
        0x72, 0x84, 0x68, 0xbe, 0x96, 0x04, 0xb1, 0x3d, 0x0c, 0xb7, 0x92, 0xbe,
        0xfc, 0xbd, 0x81, 0xbd, 0x8a, 0x8d, 0x84, 0x3c, 0x08, 0xea, 0x77, 0x3e,
        0x1a, 0x6d, 0xa5, 0xbd, 0xc9, 0xee, 0x16, 0xbe, 0x39, 0x51, 0x70, 0xbd,
        0xb6, 0x41, 0x40, 0xbe, 0x4c, 0x08, 0x90, 0xbd, 0xd9, 0xcd, 0xa7, 0xbd,
        0xaf, 0x80, 0x2d, 0xbe, 0x87, 0x62, 0x54, 0x3d, 0x09, 0xbe, 0x36, 0xbe,
        0xec, 0x69, 0xba, 0xbc, 0x11, 0x87, 0x25, 0x3e, 0x49, 0x1f, 0x5f, 0xbe,
        0x3a, 0xbd, 0x26, 0xbe, 0x6e, 0x10, 0x68, 0xbe, 0x5b, 0x45, 0x7a, 0x3e,
        0xe2, 0x09, 0x29, 0x3e, 0xd0, 0xdf, 0x5c, 0x3c, 0x80, 0xa0, 0x79, 0x3e,
        0x0b, 0xa1, 0xb0, 0xbe, 0x5e, 0x59, 0x92, 0x3e, 0xaa, 0x90, 0x6f, 0xbd,
        0x9c, 0x41, 0xb1, 0xbe, 0x50, 0xec, 0x15, 0xbe, 0x00, 0x9f, 0x96, 0xbe,
        0x92, 0x03, 0x87, 0x3e, 0xea, 0xc1, 0xd4, 0xbd, 0xda, 0x47, 0xc9, 0xbc,
        0x45, 0x2a, 0x66, 0xbe, 0x91, 0xc2, 0x43, 0x3d, 0x83, 0xbe, 0xce, 0x3d,
        0xe3, 0x7c, 0x55, 0xbe, 0xee, 0xf5, 0x95, 0xbe, 0xc0, 0xaa, 0x81, 0x3b,
        0xd4, 0x5a, 0xc1, 0xbd, 0x0b, 0x8e, 0xa8, 0xbc, 0x09, 0x07, 0x15, 0x3e,
        0x22, 0x9f, 0xa0, 0x3e, 0x71, 0x3c, 0xed, 0x3d, 0xe0, 0x39, 0x88, 0xbe,
        0x55, 0xd3, 0x73, 0xbe, 0xdb, 0x6a, 0xc6, 0x3d, 0x64, 0xd0, 0x5c, 0xbf,
        0xf0, 0x3d, 0x98, 0x3f, 0x97, 0xfe, 0x59, 0xbf, 0x6a, 0x09, 0x43, 0x3d,
        0x5a, 0x02, 0xbd, 0xbe, 0x2b, 0xe4, 0xe9, 0xbe, 0x60, 0x34, 0x09, 0xbe,
        0xaa, 0x2b, 0xbb, 0xbd, 0x94, 0x1f, 0x31, 0x3e, 0x8e, 0x8c, 0x86, 0x3e,
        0x54, 0x17, 0xa0, 0xbe, 0x27, 0xc0, 0x92, 0xbf, 0x1b, 0x84, 0x44, 0xbc,
        0x1d, 0x04, 0xa8, 0x3e, 0xe4, 0xef, 0x25, 0x3f, 0x72, 0xbd, 0x0e, 0xbe,
        0x25, 0xfd, 0x55, 0x3e, 0xc9, 0x86, 0xa2, 0xbd, 0x4c, 0x38, 0x8f, 0x3d,
        0x8b, 0xe5, 0x6e, 0x3d, 0x27, 0x0c, 0xe5, 0x3c, 0xdd, 0x56, 0x20, 0xbe,
        0x01, 0x43, 0xb2, 0xbf, 0x53, 0xc8, 0xf7, 0x3e, 0x2f, 0x15, 0x7a, 0x3f,
        0x35, 0xfa, 0x7c, 0xbe, 0x9e, 0x1a, 0x4c, 0xbf, 0x07, 0x00, 0x00, 0x3f,
        0x09, 0xe7, 0xfd, 0xbe, 0x35, 0x34, 0x1d, 0x3f, 0x43, 0x66, 0x31, 0xbe,
        0xc6, 0x4f, 0x94, 0x3e, 0xd2, 0x42, 0x5c, 0xbe, 0xa1, 0x7f, 0xa5, 0x3f,
        0xcf, 0xbd, 0x58, 0xbe, 0x0a, 0xa8, 0x07, 0x3e, 0xea, 0xb7, 0x0e, 0x3f,
        0x57, 0x16, 0x2a, 0x3f, 0xd7, 0x49, 0x9e, 0x3e, 0xdf, 0xe2, 0x58, 0x3d,
        0x11, 0x8f, 0x4b, 0x3c, 0x7c, 0x60, 0xa1, 0x3f, 0x5d, 0x3d, 0xba, 0x3e,
        0x99, 0xda, 0x4a, 0x3e, 0x8c, 0xd1, 0x4c, 0x3f, 0x19, 0x4a, 0x20, 0xbf,
        0x86, 0xed, 0x3d, 0xbf, 0x8d, 0x9a, 0xbc, 0xbf, 0xd7, 0x16, 0x71, 0xbe,
        0x2b, 0x96, 0x99, 0x3e, 0xeb, 0xcb, 0x4f, 0xbe, 0x80, 0xf3, 0x36, 0xbf,
        0x9a, 0x3a, 0x55, 0xbf, 0x15, 0x9d, 0xfa, 0x3d, 0x7f, 0x1f, 0x20, 0xbe,
        0x38, 0x64, 0xab, 0x3f, 0xf8, 0x3c, 0x07, 0x3f, 0x9f, 0x2b, 0x84, 0x3e,
        0x65, 0x54, 0xfe, 0xbe, 0x9d, 0x45, 0xb3, 0xbd, 0x08, 0xac, 0x4b, 0xbc,
        0x06, 0x3d, 0x24, 0xbe, 0x5d, 0x13, 0x2d, 0x3e, 0x40, 0x27, 0x8b, 0x3e,
        0x34, 0x6b, 0x88, 0x3f, 0xc1, 0xa2, 0x4c, 0xbf, 0x10, 0xc0, 0xa4, 0x3e,
        0x5d, 0x84, 0x3c, 0x3e, 0x72, 0xa1, 0x1a, 0x3d, 0x55, 0x66, 0x78, 0xbe,
        0x25, 0xe3, 0xaa, 0x3e, 0xc8, 0x4c, 0x89, 0xbf, 0x2e, 0x93, 0x0b, 0xbe,
        0xb0, 0x2a, 0x8d, 0xbe, 0x7f, 0x7e, 0x21, 0x3e, 0x58, 0x28, 0x3e, 0xbe,
        0x81, 0xfd, 0xbd, 0xbe, 0x02, 0xe6, 0x3c, 0x3f, 0xf3, 0xa7, 0x38, 0x3f,
        0xf6, 0x22, 0x77, 0xbf, 0xbf, 0xa0, 0x37, 0x3e, 0x2e, 0x77, 0x90, 0x3b,
        0xe6, 0xf5, 0xff, 0xff, 0x04, 0x00, 0x00, 0x00, 0x54, 0x08, 0x00, 0x00,
        0xcf, 0xa6, 0x8a, 0xbe, 0x13, 0x87, 0x65, 0x3e, 0x3c, 0xfd, 0xfe, 0xbe,
        0x1d, 0x2f, 0xcc, 0xbf, 0x43, 0x22, 0xbd, 0xbf, 0xb2, 0xc6, 0x3c, 0x3f,
        0x3d, 0x8f, 0xa4, 0xbe, 0x34, 0x87, 0x35, 0xbf, 0x12, 0x23, 0x97, 0x3e,
        0xaa, 0xaa, 0x05, 0xbd, 0x0a, 0x0f, 0x11, 0x3f, 0x08, 0xdb, 0xf9, 0xbd,
        0xfc, 0x66, 0xa1, 0xbf, 0x63, 0x67, 0x3f, 0xbe, 0xb8, 0x1f, 0x72, 0xbe,
        0x76, 0xb8, 0x89, 0x3e, 0x72, 0x9c, 0x5b, 0x3a, 0xc4, 0x49, 0x8e, 0xbe,
        0x82, 0xd0, 0xff, 0x3e, 0x26, 0x84, 0x79, 0xbf, 0x34, 0xf9, 0x66, 0x3e,
        0x13, 0x3c, 0x87, 0xbe, 0x5d, 0x6f, 0x92, 0xbe, 0xa5, 0xb5, 0xf9, 0x3e,
        0xf0, 0xc0, 0x05, 0xbf, 0xef, 0x1f, 0x5c, 0x3d, 0xbc, 0xf5, 0xd7, 0x3e,
        0x30, 0xc1, 0x90, 0x3e, 0x98, 0x71, 0x3a, 0xbe, 0xbe, 0xea, 0xcb, 0xbd,
        0x81, 0x69, 0x41, 0xbe, 0x6c, 0xf1, 0xaa, 0xbf, 0x96, 0xf2, 0x5b, 0x3e,
        0x57, 0xc8, 0x13, 0x3f, 0xa4, 0xfb, 0xe7, 0xba, 0xa5, 0x66, 0xb8, 0xbe,
        0x64, 0x4c, 0xc9, 0x3e, 0x0b, 0x72, 0x00, 0xbe, 0x7a, 0x81, 0xe3, 0xbd,
        0x4e, 0xc8, 0x51, 0x3e, 0xcb, 0xa1, 0xbb, 0xbf, 0x1a, 0x09, 0xe1, 0x3e,
        0xb0, 0x6d, 0xab, 0x3e, 0xe8, 0xdf, 0x1a, 0xbe, 0x15, 0xf7, 0x82, 0xbf,
        0x66, 0xa7, 0xae, 0xbe, 0xdd, 0xa7, 0xc2, 0x3e, 0x4d, 0x1f, 0xc2, 0xbd,
        0x02, 0x36, 0xc1, 0x3a, 0xa2, 0xdb, 0xe0, 0xbe, 0xa7, 0x08, 0xfe, 0x3c,
        0xc9, 0x9a, 0xb0, 0x3e, 0x76, 0xcc, 0x34, 0x3e, 0x9e, 0x53, 0xbd, 0x3d,
        0x5a, 0x88, 0x1e, 0x3e, 0x81, 0x32, 0xb9, 0x3e, 0xc6, 0x5c, 0xda, 0x3e,
        0x8f, 0x3b, 0x07, 0x3f, 0xcd, 0xa3, 0x7d, 0x3e, 0x80, 0xcb, 0x0a, 0xbf,
        0xd7, 0x2a, 0x08, 0xbe, 0x47, 0x44, 0x02, 0xbf, 0xd6, 0x48, 0x15, 0x3f,
        0x8f, 0xcb, 0x63, 0xbe, 0xd0, 0x1c, 0xa7, 0x3e, 0x2c, 0xcb, 0x60, 0xbe,
        0xa1, 0x89, 0x8f, 0x3f, 0x8f, 0x5d, 0x79, 0x3e, 0xe0, 0x54, 0x85, 0xbd,
        0x45, 0x62, 0xae, 0xbe, 0x67, 0x13, 0x3f, 0x3f, 0x80, 0x4e, 0xaf, 0xbe,
        0xab, 0x52, 0x51, 0x3d, 0xfa, 0x56, 0x9f, 0x3e, 0xbd, 0xb1, 0x94, 0xbd,
        0x0d, 0xdd, 0xa2, 0x3e, 0x79, 0x84, 0xbd, 0xbf, 0xc8, 0x96, 0x00, 0x3e,
        0xe3, 0xab, 0x27, 0x3f, 0x74, 0x66, 0x8c, 0x3f, 0xff, 0xc3, 0x4e, 0xbe,
        0x47, 0x1c, 0x25, 0x3e, 0x65, 0xde, 0x01, 0x3f, 0x08, 0xce, 0x08, 0x3e,
        0x93, 0x63, 0x07, 0xbf, 0x78, 0x75, 0x63, 0xbe, 0xd7, 0x69, 0xc7, 0x3e,
        0x0e, 0x4c, 0x5c, 0xbd, 0x04, 0x9c, 0xb1, 0xbf, 0x7c, 0x77, 0x30, 0xbe,
        0x13, 0x68, 0x36, 0xbf, 0x43, 0xcd, 0x82, 0x3e, 0x4c, 0xb1, 0x02, 0x3f,
        0xa3, 0xee, 0x3e, 0xbe, 0x36, 0x01, 0x75, 0xbd, 0x9b, 0xdf, 0xf6, 0x3d,
        0x73, 0x9d, 0x8d, 0x3e, 0x85, 0x46, 0x5c, 0x3c, 0x7d, 0x8e, 0x38, 0x3d,
        0xde, 0x63, 0xf3, 0x3e, 0x38, 0x90, 0x5f, 0x3e, 0x89, 0xb8, 0x0e, 0xbf,
        0x8a, 0xd9, 0x20, 0x3e, 0x24, 0x5e, 0xc1, 0x3e, 0xa0, 0xce, 0x68, 0x3e,
        0xc6, 0x6f, 0x4f, 0xbf, 0xe5, 0x53, 0x85, 0x3e, 0xe5, 0xd7, 0xe0, 0xbd,
        0xf4, 0x12, 0x9f, 0x3e, 0x20, 0x24, 0x59, 0xbe, 0xd5, 0xce, 0x23, 0x3e,
        0xcb, 0xa4, 0x85, 0x3e, 0x46, 0x21, 0x2c, 0xbd, 0x22, 0x85, 0xeb, 0x3e,
        0x00, 0x3f, 0xe1, 0x3d, 0xd9, 0x33, 0xfe, 0x3d, 0xb4, 0x56, 0xa5, 0x3e,
        0x95, 0xa3, 0x4b, 0x3d, 0x82, 0xb6, 0x85, 0x3e, 0xa7, 0xcd, 0x40, 0xbe,
        0x9b, 0x30, 0xf1, 0x3e, 0x61, 0x98, 0xc2, 0x3e, 0xae, 0x01, 0x85, 0x3e,
        0xc1, 0x83, 0xca, 0x3e, 0xc1, 0x36, 0x8b, 0xbd, 0x07, 0x78, 0x51, 0x3c,
        0x3c, 0xd5, 0x97, 0x3e, 0xb9, 0xb9, 0x23, 0xbe, 0xa6, 0xa8, 0x30, 0xbf,
        0xf0, 0x00, 0xfc, 0xbd, 0xd0, 0x4e, 0x5c, 0x3e, 0x65, 0x56, 0xbf, 0x3f,
        0x28, 0x5b, 0xdf, 0xbd, 0x78, 0xa1, 0x08, 0x3e, 0xe5, 0x6a, 0x6d, 0x3e,
        0xbc, 0x26, 0x1a, 0x3d, 0x8a, 0x45, 0x33, 0xbc, 0x51, 0x1e, 0x91, 0xbe,
        0xff, 0x37, 0x32, 0x3e, 0x90, 0xf4, 0x34, 0xbd, 0xbe, 0x1a, 0x08, 0x3d,
        0x0f, 0x3f, 0xc9, 0xbd, 0x55, 0xb5, 0x4a, 0xbe, 0x45, 0xb8, 0x2e, 0x3d,
        0xbc, 0xee, 0x3a, 0x3f, 0x2f, 0x3a, 0x94, 0x3b, 0x42, 0x18, 0x55, 0x3d,
        0x56, 0x26, 0x4b, 0xbe, 0xf7, 0xd8, 0xa3, 0xbe, 0x66, 0x02, 0xd0, 0x3e,
        0x2b, 0xba, 0xb5, 0xbb, 0x52, 0xdd, 0x74, 0xbd, 0x7d, 0x14, 0xcc, 0xbf,
        0xab, 0xaa, 0x82, 0xbe, 0xc0, 0x03, 0x59, 0xbc, 0x29, 0x17, 0xe5, 0x3d,
        0xfb, 0x43, 0xd7, 0x3e, 0xab, 0x41, 0x6b, 0x3f, 0x4f, 0xc9, 0x28, 0xbd,
        0x29, 0x41, 0x08, 0x3d, 0x6a, 0x5d, 0x3b, 0x3e, 0x61, 0x3c, 0xcf, 0xbe,
        0xd2, 0xf0, 0xa6, 0xbe, 0xb9, 0xff, 0x59, 0x3e, 0x27, 0x65, 0xbd, 0x3e,
        0xa3, 0x17, 0xb4, 0x3c, 0x4a, 0x7c, 0xa3, 0xbf, 0xe1, 0x9f, 0x27, 0x3e,
        0x9b, 0x82, 0x41, 0xbf, 0xb9, 0x9d, 0xd4, 0x3e, 0x81, 0x0e, 0xd1, 0xbd,
        0xda, 0x3c, 0x85, 0xbe, 0x6d, 0x62, 0x9f, 0x3e, 0xfb, 0x4c, 0x6d, 0xbe,
        0x7d, 0xed, 0xb5, 0xbd, 0xc7, 0x1b, 0x02, 0x3e, 0xea, 0x1f, 0x04, 0xbe,
        0xc8, 0x55, 0x92, 0x3e, 0x26, 0x8e, 0x64, 0xbd, 0x3e, 0xdd, 0xcc, 0x3d,
        0xdb, 0x2f, 0x35, 0x3e, 0x04, 0x33, 0xb1, 0x3e, 0x7d, 0xae, 0xb5, 0xbe,
        0x88, 0x75, 0x8d, 0xbb, 0x50, 0x4d, 0xe9, 0x3e, 0x5d, 0xec, 0x06, 0xc0,
        0x76, 0x7a, 0xe5, 0xbf, 0xbd, 0x65, 0x26, 0x3f, 0xcc, 0xf7, 0x95, 0xbe,
        0xd6, 0x73, 0x09, 0xbe, 0xc1, 0xa3, 0x9c, 0xbc, 0x52, 0xe5, 0x4b, 0xbe,
        0xd7, 0x2f, 0xcb, 0x3e, 0x00, 0xa0, 0x85, 0x3e, 0xa9, 0x4b, 0x33, 0xbc,
        0x47, 0xf2, 0x2b, 0xbd, 0xff, 0x74, 0x1d, 0x3e, 0xf3, 0x38, 0xdf, 0x3e,
        0x71, 0xf9, 0x06, 0x3f, 0x69, 0x95, 0xdf, 0xbd, 0xd4, 0x41, 0xb5, 0xbf,
        0x58, 0xa7, 0xe7, 0xbc, 0x87, 0xfc, 0x21, 0xbe, 0xd4, 0x16, 0xdc, 0xbe,
        0x86, 0xef, 0xf6, 0x3c, 0x76, 0xa7, 0x10, 0xbd, 0x7e, 0x26, 0x93, 0x3e,
        0x99, 0xbe, 0xee, 0x3d, 0x19, 0x0a, 0xaf, 0xbe, 0x32, 0x1d, 0x2c, 0xbe,
        0xcc, 0x3c, 0x9d, 0x3e, 0xb5, 0x06, 0xc0, 0x3e, 0xa1, 0x64, 0xa2, 0x3e,
        0xfb, 0x88, 0x1e, 0x3e, 0xc6, 0x20, 0x77, 0xbe, 0x06, 0xde, 0xf0, 0x3d,
        0x52, 0x73, 0xcc, 0x3e, 0x81, 0x58, 0x3f, 0x3d, 0xaf, 0xb7, 0x7a, 0xbe,
        0x0f, 0x88, 0xf7, 0xbd, 0x89, 0x58, 0x08, 0xbd, 0x67, 0x14, 0xed, 0xbe,
        0xd1, 0x51, 0x79, 0x3f, 0xf0, 0xfd, 0xd2, 0xbd, 0x7d, 0x5b, 0xc2, 0x3c,
        0xbb, 0x09, 0x4f, 0xbd, 0xb2, 0xcb, 0x41, 0x3e, 0xa5, 0x02, 0xb3, 0x3e,
        0xb9, 0x8b, 0xf1, 0xbd, 0x64, 0x5a, 0x6e, 0xbd, 0xb9, 0xec, 0x9b, 0xbd,
        0xee, 0x63, 0xe4, 0x3e, 0xfb, 0xe5, 0x09, 0xbe, 0xc4, 0x9c, 0x93, 0x3d,
        0x38, 0x8a, 0x06, 0xbf, 0x4e, 0xc4, 0x21, 0xbd, 0x4c, 0xe9, 0x8b, 0xbd,
        0xe1, 0x3f, 0x66, 0x3e, 0x39, 0x35, 0x2f, 0x3e, 0xf5, 0x59, 0x01, 0x3f,
        0x63, 0x5f, 0x74, 0xbb, 0xcd, 0x70, 0x41, 0xbc, 0x73, 0x32, 0x8f, 0x3e,
        0xf7, 0x3d, 0x67, 0x3e, 0x19, 0xc2, 0xa5, 0xbd, 0xad, 0xc5, 0x78, 0x3d,
        0x64, 0x60, 0xf8, 0xbe, 0xdb, 0x6a, 0x86, 0xbe, 0x01, 0xf7, 0x25, 0xbe,
        0x93, 0x12, 0x68, 0xbe, 0x53, 0x69, 0xd0, 0xbe, 0xe5, 0x12, 0x59, 0x3d,
        0xc7, 0xdb, 0x5d, 0x3c, 0x7d, 0xcc, 0x16, 0x3f, 0x9f, 0x1a, 0x7b, 0xbe,
        0xdb, 0x03, 0x74, 0x3c, 0x88, 0xe6, 0xa6, 0x3e, 0xf2, 0x0d, 0xf7, 0x3e,
        0x35, 0xe6, 0x93, 0xbe, 0x5f, 0x78, 0x96, 0x3d, 0xf1, 0x36, 0xc5, 0xbe,
        0x37, 0x75, 0x32, 0x3f, 0xd4, 0x79, 0x9e, 0x3e, 0xae, 0xc7, 0x9c, 0xbe,
        0x5c, 0x93, 0xcf, 0xbd, 0xd6, 0x30, 0x12, 0x3f, 0x88, 0x8e, 0x62, 0xbe,
        0x7f, 0xcc, 0x97, 0x3e, 0xd6, 0xd9, 0x31, 0x3d, 0x2a, 0x49, 0xb2, 0xbe,
        0xd5, 0xee, 0xec, 0x3e, 0xde, 0x7f, 0x4d, 0xbf, 0x3f, 0xd5, 0x16, 0xbe,
        0xc5, 0xc2, 0xb3, 0xbe, 0x3b, 0x01, 0x98, 0x3e, 0x92, 0x7e, 0x9c, 0x3d,
        0xd6, 0xe7, 0xc4, 0x3e, 0x16, 0x3c, 0x3f, 0xbe, 0x04, 0xff, 0x0d, 0x3f,
        0x53, 0xfa, 0xb4, 0x3e, 0xc0, 0xf8, 0x0c, 0x3e, 0x4d, 0x1f, 0x34, 0x3f,
        0x8b, 0xb8, 0xdb, 0x3e, 0x9e, 0xcd, 0x16, 0xbe, 0xd5, 0xba, 0x4e, 0xbf,
        0x37, 0xcb, 0x85, 0x3d, 0xb4, 0x27, 0x28, 0xbf, 0x7f, 0x31, 0x9c, 0xbf,
        0x0f, 0xa2, 0x8b, 0x3b, 0xbd, 0xa3, 0x4b, 0x3e, 0xb9, 0xe2, 0x0d, 0x3f,
        0xb0, 0x42, 0x42, 0x3e, 0xdd, 0x18, 0x68, 0xbe, 0x2d, 0xdb, 0xc5, 0xbe,
        0xa7, 0x18, 0xfb, 0x3c, 0x83, 0xee, 0xf7, 0x3c, 0x25, 0x51, 0xf9, 0xbe,
        0x74, 0xcc, 0xa4, 0x3e, 0x2e, 0x13, 0x80, 0xbe, 0x55, 0x52, 0x82, 0xbe,
        0xdf, 0x12, 0xe6, 0xbf, 0xa2, 0x17, 0x9c, 0xbe, 0xaf, 0xc5, 0x27, 0xc0,
        0x6b, 0x91, 0xc9, 0xbf, 0x40, 0x97, 0x0a, 0x3f, 0x79, 0x17, 0x92, 0xbe,
        0x46, 0xb7, 0x6e, 0x3f, 0xf7, 0x2f, 0xd3, 0xbd, 0xb6, 0xd6, 0x46, 0x3e,
        0xca, 0xb5, 0x6d, 0x3e, 0x3b, 0xf3, 0x7f, 0x3e, 0xba, 0x86, 0x55, 0x3e,
        0x7e, 0x36, 0x10, 0xbf, 0xf6, 0x1c, 0x4a, 0x3f, 0x77, 0x36, 0x48, 0x3b,
        0x62, 0x60, 0x5a, 0xbc, 0x6e, 0x3f, 0x0a, 0x3f, 0x58, 0xb0, 0x8d, 0x3e,
        0xb3, 0xb5, 0x23, 0xbf, 0xc5, 0x8b, 0x5d, 0xbe, 0x2f, 0x1b, 0x99, 0x3d,
        0x86, 0xf4, 0xfb, 0xbe, 0x3b, 0xcb, 0xce, 0x3e, 0x13, 0xa7, 0x08, 0x3e,
        0x6d, 0x5f, 0x9b, 0x3e, 0x98, 0x65, 0x5f, 0xbe, 0xfe, 0xa5, 0x08, 0xbf,
        0x28, 0xb1, 0x09, 0x3f, 0x7d, 0xa7, 0x34, 0x3e, 0x91, 0xb6, 0xcf, 0x3e,
        0x46, 0xde, 0x53, 0x3f, 0x60, 0xfe, 0x33, 0xbe, 0x5a, 0xbb, 0x53, 0x3d,
        0xbb, 0xba, 0x51, 0xbf, 0xf8, 0x49, 0xae, 0xbe, 0x9c, 0x83, 0x82, 0xbe,
        0x67, 0x4c, 0x23, 0xbf, 0x50, 0x14, 0x10, 0xbe, 0x0f, 0xc8, 0x2b, 0x3e,
        0xa3, 0xf4, 0x91, 0x3e, 0xa8, 0x61, 0x60, 0x3e, 0x5a, 0x3a, 0xa7, 0xbe,
        0x7c, 0x82, 0xad, 0xbe, 0x64, 0xa5, 0x04, 0xc0, 0x37, 0x02, 0x4d, 0xbe,
        0x66, 0x7c, 0xae, 0x3e, 0xdd, 0xc2, 0x82, 0x3e, 0x62, 0x4f, 0x57, 0xbe,
        0xa5, 0xda, 0x45, 0x3d, 0x0d, 0xd6, 0xc0, 0x3e, 0x46, 0xe8, 0x6d, 0x3e,
        0x31, 0x66, 0xdd, 0x3e, 0x03, 0xaa, 0xe2, 0x3c, 0xfb, 0xcb, 0x2a, 0xbd,
        0x3d, 0x5f, 0x2c, 0x3e, 0x34, 0x96, 0xe1, 0xbd, 0x9d, 0x83, 0x34, 0x3d,
        0x8e, 0xe1, 0x0f, 0x3f, 0x96, 0x14, 0xa3, 0xbe, 0x70, 0x11, 0xe9, 0x3e,
        0x3d, 0xdb, 0xba, 0x3e, 0x53, 0xed, 0x36, 0xbe, 0x95, 0x08, 0x44, 0xbb,
        0xbd, 0x03, 0xb0, 0xbc, 0xbb, 0x72, 0x10, 0xbe, 0x23, 0xcf, 0x6a, 0x3f,
        0xb8, 0x86, 0x55, 0x3e, 0xec, 0x80, 0xfa, 0xbe, 0x15, 0xff, 0xf1, 0xbe,
        0xe0, 0x4a, 0x82, 0xbe, 0xfe, 0xc6, 0xc0, 0xbe, 0x0c, 0x64, 0xc7, 0xbd,
        0xe4, 0xad, 0x03, 0x3e, 0x37, 0x01, 0xf3, 0x3e, 0x4b, 0xcc, 0x02, 0x3e,
        0xfb, 0x86, 0xba, 0x3b, 0x16, 0x36, 0x08, 0xbc, 0x31, 0xf3, 0x92, 0x3c,
        0xcd, 0x4c, 0xac, 0xbf, 0x43, 0xa3, 0x48, 0xbe, 0xc8, 0x0d, 0x25, 0x3e,
        0xa2, 0x53, 0x96, 0xbe, 0x73, 0xde, 0x61, 0xbe, 0xca, 0xf1, 0x54, 0x3f,
        0x22, 0xbf, 0xca, 0x3d, 0x49, 0x9d, 0x59, 0x3e, 0xcb, 0x49, 0xee, 0x3e,
        0xb1, 0x59, 0x89, 0xbd, 0xac, 0x85, 0xc5, 0xbd, 0x01, 0xe1, 0xd3, 0x3d,
        0xc2, 0x48, 0x32, 0xbf, 0x00, 0xd5, 0x83, 0x3e, 0xe5, 0x48, 0xfe, 0x3d,
        0xa2, 0x47, 0xce, 0xbe, 0xb6, 0x97, 0xb0, 0xbe, 0xf9, 0xf9, 0x81, 0xbf,
        0x7c, 0xb5, 0x65, 0x3e, 0x95, 0x62, 0xbd, 0xbe, 0xeb, 0x60, 0x3e, 0xbd,
        0xd8, 0x22, 0x3d, 0x3e, 0x0c, 0x32, 0x1f, 0x3e, 0x19, 0x76, 0x43, 0x3e,
        0x3c, 0x46, 0x8b, 0xbc, 0xbc, 0x3e, 0x56, 0x3e, 0x9e, 0xc0, 0xa4, 0x3e,
        0xeb, 0x02, 0x06, 0xbe, 0x93, 0xd2, 0x40, 0x3e, 0xbc, 0x21, 0xc0, 0x3e,
        0xe8, 0x15, 0x30, 0xbe, 0xc9, 0x63, 0xa0, 0x3e, 0x27, 0x16, 0x17, 0xbe,
        0x26, 0x7e, 0x16, 0x3c, 0x2f, 0xb6, 0xb6, 0xbd, 0x68, 0x6c, 0x85, 0x3d,
        0xca, 0xdb, 0xef, 0x3e, 0x5c, 0x0b, 0x0b, 0xbd, 0x00, 0x74, 0xef, 0x39,
        0xf6, 0xe1, 0x16, 0xbe, 0x36, 0x25, 0x94, 0xbe, 0x88, 0x1f, 0xa6, 0xbe,
        0xee, 0xc5, 0x8a, 0xbe, 0x50, 0xf4, 0x82, 0xbe, 0x00, 0x84, 0x1a, 0x3d,
        0x68, 0x96, 0x4e, 0x3d, 0x40, 0x46, 0x79, 0xbe, 0x8c, 0xd5, 0x9d, 0xbd,
        0x40, 0xbc, 0xbd, 0x3d, 0x30, 0x63, 0xcd, 0xbc, 0x60, 0x14, 0x85, 0x3d, 
        0x25, 0xd6, 0x60, 0xbe, 0x2d, 0xbe, 0x60, 0x3f, 0xf9, 0x9a, 0x47, 0x3e,
        0x3d, 0xc7, 0x00, 0xbd, 0x5a, 0x2e, 0xfd, 0x3e, 0xfb, 0xc4, 0x63, 0x3e,
        0x6f, 0x76, 0xb5, 0xbf, 0x8a, 0x51, 0x1e, 0xbe, 0x4b, 0xd1, 0x9a, 0xbd,
        0x27, 0xba, 0xc4, 0xbe, 0x8c, 0x46, 0xc3, 0xbe, 0x39, 0xac, 0x43, 0x3e,
        0x69, 0x1c, 0x81, 0xbf, 0xc9, 0xd4, 0xb0, 0x3e, 0xbd, 0x45, 0x84, 0x3f,
        0x99, 0x62, 0x1f, 0xbe, 0xd8, 0x3c, 0x3c, 0xbd, 0xd9, 0xf2, 0xcc, 0x3e,
        0xbc, 0x84, 0x7a, 0xbd, 0x98, 0x8a, 0xac, 0x3d, 0xc9, 0x2a, 0xa8, 0xbc,
        0x1c, 0x38, 0x04, 0xbe, 0x46, 0x40, 0x8a, 0xbd, 0x83, 0x60, 0x3c, 0x3e,
        0xfd, 0xae, 0xe8, 0x3e, 0x9f, 0x1f, 0x28, 0xbd, 0xdb, 0x15, 0x88, 0x3e,
        0xa4, 0x9a, 0xa2, 0x3e, 0xb4, 0xb7, 0xf7, 0x3e, 0x88, 0x00, 0xa7, 0x3c,
        0xe6, 0xc4, 0x03, 0x3e, 0x8b, 0x70, 0x1a, 0x3f, 0x75, 0xe3, 0xce, 0xbe,
        0xd2, 0xfa, 0xf4, 0xbd, 0xce, 0xde, 0x83, 0xbe, 0x0f, 0x28, 0x69, 0xbd,
        0x13, 0xdd, 0x81, 0x3d, 0x56, 0xc7, 0x7c, 0xbe, 0xd5, 0xad, 0x4b, 0x3e,
        0x31, 0x47, 0x0e, 0x3f, 0x38, 0xc5, 0xe0, 0xbf, 0xff, 0x21, 0x82, 0x3e,
        0xee, 0x7b, 0xf6, 0xbe, 0x8d, 0x3f, 0x17, 0xbf, 0x6b, 0x3c, 0xc5, 0x3e,
        0x36, 0x76, 0x9f, 0xbd, 0x9a, 0x39, 0xea, 0xbc, 0x74, 0xc8, 0xb3, 0x3e,
        0xe1, 0xec, 0xaf, 0xbe, 0x28, 0xdf, 0xb5, 0x3e, 0x51, 0xed, 0xe7, 0x3d,
        0x9a, 0xa3, 0xce, 0xbc, 0xa7, 0xd4, 0xe3, 0x3d, 0xed, 0xbc, 0x9c, 0xbf,
        0x79, 0xf1, 0xb5, 0xbd, 0x86, 0x28, 0x8f, 0xbd, 0x32, 0x04, 0x1c, 0xbe,
        0xab, 0x0e, 0xa8, 0x3d, 0xd6, 0x68, 0xc3, 0x3e, 0x69, 0x88, 0xd2, 0x3e,
        0xc9, 0x79, 0x28, 0xbe, 0x0d, 0x8a, 0x9e, 0x3e, 0x20, 0x22, 0xa7, 0x3e,
        0x3a, 0x48, 0x68, 0xbe, 0xfb, 0x0e, 0xde, 0x3e, 0x8f, 0xfa, 0xe9, 0xbe,
        0x98, 0xfd, 0xa1, 0x3f, 0x07, 0x5f, 0x35, 0x3e, 0x72, 0xbe, 0xb1, 0xbe,
        0x16, 0x65, 0x09, 0x3e, 0xc9, 0x63, 0x41, 0x3e, 0xdd, 0xf8, 0xed, 0xbd,
        0x1c, 0x48, 0x28, 0xbe, 0x1b, 0xc2, 0x0f, 0x3f, 0xb8, 0xc7, 0x04, 0xbf,
        0x4b, 0xed, 0xdb, 0x3e, 0x61, 0xea, 0xd2, 0xbe, 0x8f, 0xa1, 0xc2, 0xbc,
        0x9c, 0xd6, 0x70, 0xbe, 0x61, 0x79, 0xce, 0xbc, 0xf4, 0x4d, 0xa2, 0x3e,
        0x4b, 0x86, 0x9b, 0x3e, 0x88, 0xbc, 0xc8, 0xbc, 0x90, 0x47, 0x98, 0xbf,
        0xfb, 0x96, 0x9d, 0x3d, 0xf4, 0xac, 0x3a, 0x3e, 0x2e, 0xde, 0x80, 0xbe,
        0xd3, 0x5c, 0x52, 0xbe, 0x42, 0x57, 0xb3, 0x3e, 0x87, 0x2a, 0xdf, 0x3e,
        0x52, 0xec, 0xc7, 0xbd, 0x88, 0x91, 0xc4, 0xbe, 0x8e, 0x4a, 0xac, 0x3d,
        0x83, 0x61, 0x16, 0x3e, 0xae, 0xd7, 0x7c, 0x3e, 0xd5, 0xf4, 0xdb, 0x3e,
        0x73, 0x9a, 0xbc, 0xbe, 0xba, 0xe7, 0x72, 0x3e, 0x62, 0x9b, 0xbd, 0xbe,
        0x14, 0x10, 0x27, 0xbe, 0x57, 0x63, 0x35, 0x3e, 0xf8, 0x63, 0x5e, 0xbd,
        0x74, 0x7d, 0x9b, 0x3d, 0x3b, 0x5f, 0x67, 0xbe, 0x46, 0xfe, 0xff, 0xff,
        0x04, 0x00, 0x00, 0x00, 0xa4, 0x00, 0x00, 0x00, 0x60, 0x20, 0x7c, 0x3d,
        0x7c, 0xa4, 0xdf, 0x3e, 0x16, 0x6d, 0x0e, 0x3e, 0xf2, 0xb8, 0x11, 0x3e,
        0xaf, 0x61, 0xf1, 0x3c, 0x0d, 0x2f, 0x8c, 0x3c, 0xf7, 0x3a, 0x2e, 0xbe,
        0xef, 0x84, 0x49, 0xbd, 0x72, 0x79, 0x8f, 0xbd, 0x71, 0x9c, 0x2d, 0xbd,
        0x38, 0x23, 0x25, 0xbb, 0x3d, 0x13, 0x93, 0x3d, 0x66, 0xa6, 0xd4, 0xbb,
        0xda, 0x68, 0xf1, 0xbc, 0x57, 0x17, 0x2e, 0x3e, 0xfe, 0xd3, 0xc5, 0x3a,
        0x0b, 0xe6, 0x00, 0x3e, 0x24, 0x15, 0x3d, 0x3e, 0x15, 0xef, 0x75, 0x3d,
        0x75, 0xd5, 0x79, 0xbd, 0x69, 0xc7, 0xdc, 0xba, 0xf6, 0x07, 0xf9, 0x3c,
        0xdd, 0xd3, 0x97, 0x3e, 0xcc, 0xcf, 0xbd, 0x3d, 0xaa, 0x0e, 0x17, 0x3e,
        0x0f, 0x20, 0x1e, 0x3e, 0xca, 0xb5, 0xf5, 0x3d, 0xdd, 0x23, 0xca, 0xbd,
        0x7b, 0x0c, 0x3a, 0x3e, 0x51, 0x5a, 0xdb, 0xbd, 0x05, 0x23, 0x38, 0x3e,
        0x8a, 0x4d, 0x76, 0x3d, 0x00, 0x00, 0x00, 0x00, 0xad, 0x49, 0x7e, 0x3e,
        0x67, 0xcf, 0x22, 0x3d, 0xf2, 0x35, 0x3c, 0x3d, 0x2a, 0x7b, 0x35, 0x3e,
        0xc3, 0xad, 0xe4, 0x3c, 0x71, 0x13, 0xcf, 0x3d, 0xf9, 0x9f, 0xa8, 0x3d,
        0xe8, 0x14, 0xc0, 0x3d, 0xf6, 0xfe, 0xff, 0xff, 0x04, 0x00, 0x00, 0x00,
        0x0c, 0x00, 0x00, 0x00, 0x7f, 0xef, 0x43, 0x3c, 0x16, 0xa3, 0xe0, 0x3c,
        0xe2, 0xf5, 0x8f, 0xbc, 0x0e, 0xff, 0xff, 0xff, 0x04, 0x00, 0x00, 0x00,
        0x50, 0x00, 0x00, 0x00, 0x1c, 0xed, 0xe2, 0x3d, 0x86, 0x96, 0xd0, 0x3c,
        0xa2, 0x07, 0xaa, 0x3d, 0x06, 0xbc, 0x11, 0x3e, 0x46, 0xb2, 0xb8, 0x3d,
        0x47, 0x0f, 0x78, 0x3e, 0x18, 0x9d, 0x08, 0x3d, 0x87, 0xc4, 0xf2, 0xbc,
        0x71, 0x4d, 0x63, 0x3d, 0x70, 0x03, 0xb7, 0x3d, 0x4a, 0xb7, 0x40, 0x3e,
        0x00, 0x00, 0x00, 0x00, 0xd8, 0xc7, 0x2c, 0xbc, 0x5e, 0x15, 0x05, 0x3e,
        0x3c, 0xd0, 0x17, 0xbc, 0x80, 0x78, 0x8d, 0xbd, 0x15, 0x0f, 0xfd, 0xbb,
        0x98, 0x59, 0xc0, 0xbc, 0x4c, 0xb0, 0x0c, 0x3e, 0x0f, 0xe9, 0x42, 0x3d,
        0x5c, 0xfa, 0xff, 0xff, 0x60, 0xfa, 0xff, 0xff, 0x0f, 0x00, 0x00, 0x00,
        0x4d, 0x4c, 0x49, 0x52, 0x20, 0x43, 0x6f, 0x6e, 0x76, 0x65, 0x72, 0x74,
        0x65, 0x64, 0x2e, 0x00, 0x01, 0x00, 0x00, 0x00, 0x14, 0x00, 0x00, 0x00,
        0x00, 0x00, 0x0e, 0x00, 0x18, 0x00, 0x14, 0x00, 0x10, 0x00, 0x0c, 0x00,
        0x08, 0x00, 0x04, 0x00, 0x0e, 0x00, 0x00, 0x00, 0x14, 0x00, 0x00, 0x00,
        0x1c, 0x00, 0x00, 0x00, 0x24, 0x01, 0x00, 0x00, 0x28, 0x01, 0x00, 0x00,
        0x2c, 0x01, 0x00, 0x00, 0x04, 0x00, 0x00, 0x00, 0x6d, 0x61, 0x69, 0x6e,
        0x00, 0x00, 0x00, 0x00, 0x04, 0x00, 0x00, 0x00, 0xcc, 0x00, 0x00, 0x00,
        0x84, 0x00, 0x00, 0x00, 0x50, 0x00, 0x00, 0x00, 0x14, 0x00, 0x00, 0x00,
        0x00, 0x00, 0x0e, 0x00, 0x1a, 0x00, 0x14, 0x00, 0x10, 0x00, 0x0c, 0x00,
        0x0b, 0x00, 0x04, 0x00, 0x0e, 0x00, 0x00, 0x00, 0x1c, 0x00, 0x00, 0x00,
        0x00, 0x00, 0x00, 0x09, 0x1c, 0x00, 0x00, 0x00, 0x20, 0x00, 0x00, 0x00,
        0x01, 0x00, 0x00, 0x00, 0x00, 0x00, 0x06, 0x00, 0x08, 0x00, 0x04, 0x00,
        0x06, 0x00, 0x00, 0x00, 0x00, 0x00, 0x80, 0x3f, 0x01, 0x00, 0x00, 0x00,
        0x0a, 0x00, 0x00, 0x00, 0x01, 0x00, 0x00, 0x00, 0x09, 0x00, 0x00, 0x00,
        0x9a, 0xff, 0xff, 0xff, 0x10, 0x00, 0x00, 0x00, 0x00, 0x00, 0x00, 0x08,
        0x0c, 0x00, 0x00, 0x00, 0x10, 0x00, 0x00, 0x00, 0x24, 0xfb, 0xff, 0xff,
        0x01, 0x00, 0x00, 0x00, 0x09, 0x00, 0x00, 0x00, 0x03, 0x00, 0x00, 0x00,
        0x08, 0x00, 0x00, 0x00, 0x06, 0x00, 0x00, 0x00, 0x02, 0x00, 0x00, 0x00,
        0xca, 0xff, 0xff, 0xff, 0x10, 0x00, 0x00, 0x00, 0x00, 0x00, 0x00, 0x08,
        0x10, 0x00, 0x00, 0x00, 0x14, 0x00, 0x00, 0x00, 0xba, 0xff, 0xff, 0xff,
        0x00, 0x00, 0x00, 0x01, 0x01, 0x00, 0x00, 0x00, 0x08, 0x00, 0x00, 0x00,
        0x03, 0x00, 0x00, 0x00, 0x07, 0x00, 0x00, 0x00, 0x05, 0x00, 0x00, 0x00,
        0x01, 0x00, 0x00, 0x00, 0x00, 0x00, 0x0e, 0x00, 0x16, 0x00, 0x00, 0x00,
        0x10, 0x00, 0x0c, 0x00, 0x0b, 0x00, 0x04, 0x00, 0x0e, 0x00, 0x00, 0x00,
        0x18, 0x00, 0x00, 0x00, 0x00, 0x00, 0x00, 0x08, 0x18, 0x00, 0x00, 0x00,
        0x1c, 0x00, 0x00, 0x00, 0x00, 0x00, 0x06, 0x00, 0x08, 0x00, 0x07, 0x00,
        0x06, 0x00, 0x00, 0x00, 0x00, 0x00, 0x00, 0x01, 0x01, 0x00, 0x00, 0x00,
        0x07, 0x00, 0x00, 0x00, 0x03, 0x00, 0x00, 0x00, 0x00, 0x00, 0x00, 0x00,
        0x04, 0x00, 0x00, 0x00, 0x03, 0x00, 0x00, 0x00, 0x01, 0x00, 0x00, 0x00,
        0x0a, 0x00, 0x00, 0x00, 0x01, 0x00, 0x00, 0x00, 0x00, 0x00, 0x00, 0x00,
        0x0b, 0x00, 0x00, 0x00, 0x04, 0x04, 0x00, 0x00, 0x94, 0x03, 0x00, 0x00,
        0x24, 0x03, 0x00, 0x00, 0xd0, 0x02, 0x00, 0x00, 0x88, 0x02, 0x00, 0x00,
        0x3c, 0x02, 0x00, 0x00, 0xf0, 0x01, 0x00, 0x00, 0x68, 0x01, 0x00, 0x00,
        0xd8, 0x00, 0x00, 0x00, 0x60, 0x00, 0x00, 0x00, 0x04, 0x00, 0x00, 0x00,
        0x3e, 0xfc, 0xff, 0xff, 0x00, 0x00, 0x00, 0x01, 0x14, 0x00, 0x00, 0x00,
        0x1c, 0x00, 0x00, 0x00, 0x1c, 0x00, 0x00, 0x00, 0x0b, 0x00, 0x00, 0x00,
        0x34, 0x00, 0x00, 0x00, 0x02, 0x00, 0x00, 0x00, 0xff, 0xff, 0xff, 0xff,
        0x03, 0x00, 0x00, 0x00, 0x28, 0xfc, 0xff, 0xff, 0x19, 0x00, 0x00, 0x00,
        0x53, 0x74, 0x61, 0x74, 0x65, 0x66, 0x75, 0x6c, 0x50, 0x61, 0x72, 0x74,
        0x69, 0x74, 0x69, 0x6f, 0x6e, 0x65, 0x64, 0x43, 0x61, 0x6c, 0x6c, 0x3a,
        0x30, 0x00, 0x00, 0x00, 0x02, 0x00, 0x00, 0x00, 0x01, 0x00, 0x00, 0x00,
        0x03, 0x00, 0x00, 0x00, 0x96, 0xfc, 0xff, 0xff, 0x00, 0x00, 0x00, 0x01,
        0x14, 0x00, 0x00, 0x00, 0x1c, 0x00, 0x00, 0x00, 0x1c, 0x00, 0x00, 0x00,
        0x0a, 0x00, 0x00, 0x00, 0x50, 0x00, 0x00, 0x00, 0x02, 0x00, 0x00, 0x00,
        0xff, 0xff, 0xff, 0xff, 0x03, 0x00, 0x00, 0x00, 0x80, 0xfc, 0xff, 0xff,
        0x34, 0x00, 0x00, 0x00, 0x73, 0x65, 0x71, 0x75, 0x65, 0x6e, 0x74, 0x69,
        0x61, 0x6c, 0x2f, 0x64, 0x65, 0x6e, 0x73, 0x65, 0x5f, 0x32, 0x2f, 0x4d,
        0x61, 0x74, 0x4d, 0x75, 0x6c, 0x3b, 0x73, 0x65, 0x71, 0x75, 0x65, 0x6e,
        0x74, 0x69, 0x61, 0x6c, 0x2f, 0x64, 0x65, 0x6e, 0x73, 0x65, 0x5f, 0x32,
        0x2f, 0x42, 0x69, 0x61, 0x73, 0x41, 0x64, 0x64, 0x00, 0x00, 0x00, 0x00,
        0x02, 0x00, 0x00, 0x00, 0x01, 0x00, 0x00, 0x00, 0x03, 0x00, 0x00, 0x00,
        0x0a, 0xfd, 0xff, 0xff, 0x00, 0x00, 0x00, 0x01, 0x14, 0x00, 0x00, 0x00,
        0x1c, 0x00, 0x00, 0x00, 0x1c, 0x00, 0x00, 0x00, 0x09, 0x00, 0x00, 0x00,
        0x68, 0x00, 0x00, 0x00, 0x02, 0x00, 0x00, 0x00, 0xff, 0xff, 0xff, 0xff,
        0x14, 0x00, 0x00, 0x00, 0xf4, 0xfc, 0xff, 0xff, 0x4c, 0x00, 0x00, 0x00,
        0x73, 0x65, 0x71, 0x75, 0x65, 0x6e, 0x74, 0x69, 0x61, 0x6c, 0x2f, 0x64,
        0x65, 0x6e, 0x73, 0x65, 0x5f, 0x31, 0x2f, 0x4d, 0x61, 0x74, 0x4d, 0x75,
        0x6c, 0x3b, 0x73, 0x65, 0x71, 0x75, 0x65, 0x6e, 0x74, 0x69, 0x61, 0x6c,
        0x2f, 0x64, 0x65, 0x6e, 0x73, 0x65, 0x5f, 0x31, 0x2f, 0x52, 0x65, 0x6c,
        0x75, 0x3b, 0x73, 0x65, 0x71, 0x75, 0x65, 0x6e, 0x74, 0x69, 0x61, 0x6c,
        0x2f, 0x64, 0x65, 0x6e, 0x73, 0x65, 0x5f, 0x31, 0x2f, 0x42, 0x69, 0x61,
        0x73, 0x41, 0x64, 0x64, 0x00, 0x00, 0x00, 0x00, 0x02, 0x00, 0x00, 0x00,
        0x01, 0x00, 0x00, 0x00, 0x14, 0x00, 0x00, 0x00, 0x96, 0xfd, 0xff, 0xff,
        0x00, 0x00, 0x00, 0x01, 0x14, 0x00, 0x00, 0x00, 0x1c, 0x00, 0x00, 0x00,
        0x1c, 0x00, 0x00, 0x00, 0x08, 0x00, 0x00, 0x00, 0x60, 0x00, 0x00, 0x00,
        0x02, 0x00, 0x00, 0x00, 0xff, 0xff, 0xff, 0xff, 0x29, 0x00, 0x00, 0x00,
        0x80, 0xfd, 0xff, 0xff, 0x46, 0x00, 0x00, 0x00, 0x73, 0x65, 0x71, 0x75,
        0x65, 0x6e, 0x74, 0x69, 0x61, 0x6c, 0x2f, 0x64, 0x65, 0x6e, 0x73, 0x65,
        0x2f, 0x4d, 0x61, 0x74, 0x4d, 0x75, 0x6c, 0x3b, 0x73, 0x65, 0x71, 0x75,
        0x65, 0x6e, 0x74, 0x69, 0x61, 0x6c, 0x2f, 0x64, 0x65, 0x6e, 0x73, 0x65,
        0x2f, 0x52, 0x65, 0x6c, 0x75, 0x3b, 0x73, 0x65, 0x71, 0x75, 0x65, 0x6e,
        0x74, 0x69, 0x61, 0x6c, 0x2f, 0x64, 0x65, 0x6e, 0x73, 0x65, 0x2f, 0x42,
        0x69, 0x61, 0x73, 0x41, 0x64, 0x64, 0x00, 0x00, 0x02, 0x00, 0x00, 0x00,
        0x01, 0x00, 0x00, 0x00, 0x29, 0x00, 0x00, 0x00, 0x86, 0xfe, 0xff, 0xff,
        0x00, 0x00, 0x00, 0x01, 0x10, 0x00, 0x00, 0x00, 0x10, 0x00, 0x00, 0x00,
        0x07, 0x00, 0x00, 0x00, 0x28, 0x00, 0x00, 0x00, 0xf4, 0xfd, 0xff, 0xff,
        0x19, 0x00, 0x00, 0x00, 0x73, 0x65, 0x71, 0x75, 0x65, 0x6e, 0x74, 0x69,
        0x61, 0x6c, 0x2f, 0x64, 0x65, 0x6e, 0x73, 0x65, 0x5f, 0x32, 0x2f, 0x4d,
        0x61, 0x74, 0x4d, 0x75, 0x6c, 0x00, 0x00, 0x00, 0x02, 0x00, 0x00, 0x00,
        0x03, 0x00, 0x00, 0x00, 0x14, 0x00, 0x00, 0x00, 0xce, 0xfe, 0xff, 0xff,
        0x00, 0x00, 0x00, 0x01, 0x10, 0x00, 0x00, 0x00, 0x10, 0x00, 0x00, 0x00,
        0x06, 0x00, 0x00, 0x00, 0x28, 0x00, 0x00, 0x00, 0x3c, 0xfe, 0xff, 0xff,
        0x19, 0x00, 0x00, 0x00, 0x73, 0x65, 0x71, 0x75, 0x65, 0x6e, 0x74, 0x69,
        0x61, 0x6c, 0x2f, 0x64, 0x65, 0x6e, 0x73, 0x65, 0x5f, 0x31, 0x2f, 0x4d,
        0x61, 0x74, 0x4d, 0x75, 0x6c, 0x00, 0x00, 0x00, 0x02, 0x00, 0x00, 0x00,
        0x14, 0x00, 0x00, 0x00, 0x29, 0x00, 0x00, 0x00, 0x16, 0xff, 0xff, 0xff,
        0x00, 0x00, 0x00, 0x01, 0x10, 0x00, 0x00, 0x00, 0x10, 0x00, 0x00, 0x00,
        0x05, 0x00, 0x00, 0x00, 0x24, 0x00, 0x00, 0x00, 0x84, 0xfe, 0xff, 0xff,
        0x17, 0x00, 0x00, 0x00, 0x73, 0x65, 0x71, 0x75, 0x65, 0x6e, 0x74, 0x69,
        0x61, 0x6c, 0x2f, 0x64, 0x65, 0x6e, 0x73, 0x65, 0x2f, 0x4d, 0x61, 0x74,
        0x4d, 0x75, 0x6c, 0x00, 0x02, 0x00, 0x00, 0x00, 0x29, 0x00, 0x00, 0x00,
        0x0d, 0x00, 0x00, 0x00, 0x5a, 0xff, 0xff, 0xff, 0x00, 0x00, 0x00, 0x01,
        0x10, 0x00, 0x00, 0x00, 0x10, 0x00, 0x00, 0x00, 0x04, 0x00, 0x00, 0x00,
        0x34, 0x00, 0x00, 0x00, 0xc8, 0xfe, 0xff, 0xff, 0x27, 0x00, 0x00, 0x00,
        0x73, 0x65, 0x71, 0x75, 0x65, 0x6e, 0x74, 0x69, 0x61, 0x6c, 0x2f, 0x64,
        0x65, 0x6e, 0x73, 0x65, 0x2f, 0x42, 0x69, 0x61, 0x73, 0x41, 0x64, 0x64,
        0x2f, 0x52, 0x65, 0x61, 0x64, 0x56, 0x61, 0x72, 0x69, 0x61, 0x62, 0x6c,
        0x65, 0x4f, 0x70, 0x00, 0x01, 0x00, 0x00, 0x00, 0x29, 0x00, 0x00, 0x00,
        0xaa, 0xff, 0xff, 0xff, 0x00, 0x00, 0x00, 0x01, 0x10, 0x00, 0x00, 0x00,
        0x10, 0x00, 0x00, 0x00, 0x03, 0x00, 0x00, 0x00, 0x38, 0x00, 0x00, 0x00,
        0x18, 0xff, 0xff, 0xff, 0x29, 0x00, 0x00, 0x00, 0x73, 0x65, 0x71, 0x75,
        0x65, 0x6e, 0x74, 0x69, 0x61, 0x6c, 0x2f, 0x64, 0x65, 0x6e, 0x73, 0x65,
        0x5f, 0x32, 0x2f, 0x42, 0x69, 0x61, 0x73, 0x41, 0x64, 0x64, 0x2f, 0x52,
        0x65, 0x61, 0x64, 0x56, 0x61, 0x72, 0x69, 0x61, 0x62, 0x6c, 0x65, 0x4f,
        0x70, 0x00, 0x00, 0x00, 0x01, 0x00, 0x00, 0x00, 0x03, 0x00, 0x00, 0x00,
        0x00, 0x00, 0x16, 0x00, 0x18, 0x00, 0x14, 0x00, 0x00, 0x00, 0x10, 0x00,
        0x0c, 0x00, 0x08, 0x00, 0x00, 0x00, 0x00, 0x00, 0x00, 0x00, 0x07, 0x00,
        0x16, 0x00, 0x00, 0x00, 0x00, 0x00, 0x00, 0x01, 0x10, 0x00, 0x00, 0x00,
        0x10, 0x00, 0x00, 0x00, 0x02, 0x00, 0x00, 0x00, 0x38, 0x00, 0x00, 0x00,
        0x84, 0xff, 0xff, 0xff, 0x29, 0x00, 0x00, 0x00, 0x73, 0x65, 0x71, 0x75,
        0x65, 0x6e, 0x74, 0x69, 0x61, 0x6c, 0x2f, 0x64, 0x65, 0x6e, 0x73, 0x65,
        0x5f, 0x31, 0x2f, 0x42, 0x69, 0x61, 0x73, 0x41, 0x64, 0x64, 0x2f, 0x52,
        0x65, 0x61, 0x64, 0x56, 0x61, 0x72, 0x69, 0x61, 0x62, 0x6c, 0x65, 0x4f,
        0x70, 0x00, 0x00, 0x00, 0x01, 0x00, 0x00, 0x00, 0x14, 0x00, 0x00, 0x00,
        0x00, 0x00, 0x16, 0x00, 0x1c, 0x00, 0x18, 0x00, 0x00, 0x00, 0x14, 0x00,
        0x10, 0x00, 0x0c, 0x00, 0x00, 0x00, 0x00, 0x00, 0x08, 0x00, 0x07, 0x00,
        0x16, 0x00, 0x00, 0x00, 0x00, 0x00, 0x00, 0x01, 0x14, 0x00, 0x00, 0x00,
        0x20, 0x00, 0x00, 0x00, 0x20, 0x00, 0x00, 0x00, 0x01, 0x00, 0x00, 0x00,
        0x3c, 0x00, 0x00, 0x00, 0x02, 0x00, 0x00, 0x00, 0xff, 0xff, 0xff, 0xff,
        0x0d, 0x00, 0x00, 0x00, 0x04, 0x00, 0x04, 0x00, 0x04, 0x00, 0x00, 0x00,
        0x1d, 0x00, 0x00, 0x00, 0x73, 0x65, 0x72, 0x76, 0x69, 0x6e, 0x67, 0x5f,
        0x64, 0x65, 0x66, 0x61, 0x75, 0x6c, 0x74, 0x5f, 0x64, 0x65, 0x6e, 0x73,
        0x65, 0x5f, 0x69, 0x6e, 0x70, 0x75, 0x74, 0x3a, 0x30, 0x00, 0x00, 0x00,
        0x02, 0x00, 0x00, 0x00, 0x01, 0x00, 0x00, 0x00, 0x0d, 0x00, 0x00, 0x00,
        0x02, 0x00, 0x00, 0x00, 0x20, 0x00, 0x00, 0x00, 0x04, 0x00, 0x00, 0x00,
        0xf4, 0xff, 0xff, 0xff, 0x19, 0x00, 0x00, 0x00, 0x00, 0x00, 0x00, 0x19,
        0x0c, 0x00, 0x0c, 0x00, 0x0b, 0x00, 0x00, 0x00, 0x00, 0x00, 0x04, 0x00,
        0x0c, 0x00, 0x00, 0x00, 0x09, 0x00, 0x00, 0x00, 0x00, 0x00, 0x00, 0x09
};
const int snn_model_len = 8004;