#pragma once

#ifdef __has_attribute
#define HAVE_ATTRIBUTE(x) __has_attribute(x)
#else
#define HAVE_ATTRIBUTE(x) 0
#endif
#if HAVE_ATTRIBUTE(aligned) || (defined(__GNUC__) && !defined(__clang__))
#define DATA_ALIGN_ATTRIBUTE __attribute__((aligned(4)))
#else
#define DATA_ALIGN_ATTRIBUTE
#endif

// automatically configure network
#define TF_NUM_INPUTS 15
#define TF_NUM_OUTPUTS 3
#define TF_NUM_OPS 2
#define TF_OP_SOFTMAX
#define TF_OP_FULLYCONNECTED

int expected_classes[] = {1, 0, 2, 2, 0, 0, 0, 2, 0, 1, 1, 0, 0, 0, 0, 0, 1, 1, 2, 0, 0, 1, 1, 0, 0, 1, 0, 1, 0, 0, 0, 2, 2, 0, 0, 0, 1, 0, 0, 0, 1, 0, 1, 1, 2, 0, 0, 0, 1, 1, 0, 1, 1, 0, 0, 0, 2, 0, 2, 1, 1, 0, 1, 0, 0, 0, 1, 0, 0, 1, 0, 0, 1, 1, 1, 0, 0, 0, 1, 2, 0, 0, 0, 0, 1, 0, 0, 0, 2, 1, 2, 1, 1, 0, 1, 0, 1, 0, 0, 1}

// sample data from test set
float samples[][15] = {
{1.0f, 0.0f, 0.0039215686274509f, 0.1f, 0.0f, 0.0f, 0.01f, 0.0f, 0.0f, 0.5f, 0.0f, 1.0f, 1.0f, 0.0019569471624266f, 0.0f}
{0.0f, 0.5274860540992238f, 0.3372549019607843f, 0.9f, 0.0f, 0.61f, 1.0f, 0.0f, 0.0f, 0.5f, 0.61f, 0.5254901960784314f, 0.0f, 0.0019569471624266f, 0.0f}
{0.0f, 0.1695557923014435f, 0.2235294117647058f, 0.9f, 0.0f, 1.0f, 1.0f, 0.0f, 0.0f, 0.0f, 1.0f, 0.0117647058823529f, 0.0f, 0.1272015655577299f, 0.0f}
{0.83f, 0.0f, 0.3372549019607843f, 0.2f, 0.0f, 0.31f, 1.0f, 0.0f, 0.1964620157074655f, 0.5f, 0.03f, 0.1137254901960784f, 1.0f, 0.0156555772994129f, 0.12f}
{0.0f, 0.3113737036329547f, 1.0f, 0.9f, 1.0f, 1.0f, 1.0f, 0.01f, 0.6790393436802554f, 0.5f, 0.01f, 0.6078431372549019f, 0.0f, 0.0078277886497064f, 0.0f}
{0.72f, 0.3859736806409068f, 0.1098039215686274f, 0.9f, 1.0f, 0.11f, 1.0f, 0.0f, 0.4223890529711506f, 0.5f, 0.0f, 1.0f, 0.0f, 0.0058708414872798f, 0.0f}
{0.0f, 0.3226249870955455f, 1.0f, 0.9f, 1.0f, 1.0f, 1.0f, 0.0f, 0.4356724332174359f, 0.5f, 0.01f, 0.592156862745098f, 0.0f, 0.0919765166340508f, 0.0f}
{0.66f, 0.0f, 0.5019607843137255f, 0.9f, 0.0f, 0.5f, 1.0f, 0.0f, 0.0f, 0.5f, 0.0f, 1.0f, 0.0f, 0.0019569471624266f, 0.0f}
{0.33f, 0.357814330511511f, 0.5058823529411764f, 0.9f, 1.0f, 0.51f, 1.0f, 0.0f, 0.411130530199611f, 0.5f, 0.0f, 1.0f, 0.0f, 0.0039138943248532f, 0.0f}
{1.0f, 0.0f, 0.0078431372549019f, 0.1f, 0.0f, 0.01f, 0.02f, 0.0f, 0.0f, 0.5f, 0.0f, 1.0f, 1.0f, 0.0039138943248532f, 0.0f}
{0.02f, 0.0f, 0.6705882352941176f, 0.5f, 0.0f, 0.73f, 1.0f, 0.69f, 0.0f, 0.5f, 0.0f, 0.9215686274509804f, 0.0f, 0.2348336594911937f, 1.0f}
{0.0f, 0.3704398841349445f, 0.2862745098039215f, 0.9f, 1.0f, 0.16f, 1.0f, 0.0f, 0.9073782554431132f, 0.5f, 0.03f, 0.1490196078431372f, 0.0f, 0.0019569471624266f, 0.0f}
{0.0f, 0.3263993851108594f, 1.0f, 0.9f, 1.0f, 1.0f, 1.0f, 0.0f, 0.5804559990533295f, 0.5f, 0.01f, 0.2784313725490196f, 0.0f, 0.0156555772994129f, 0.0f}
{0.0f, 0.2988423745623338f, 1.0f, 0.9f, 1.0f, 1.0f, 1.0f, 0.0f, 0.4600316354940863f, 0.5f, 0.0f, 1.0f, 0.0f, 0.0469667318982387f, 0.0f}
{0.0f, 0.3068293052922314f, 1.0f, 0.9f, 1.0f, 1.0f, 1.0f, 0.0f, 0.5417428956796678f, 0.5f, 0.03f, 0.1372549019607843f, 0.0f, 0.0313111545988258f, 0.0f}
{0.0f, 0.2132250094058222f, 1.0f, 0.9f, 0.0f, 1.0f, 1.0f, 0.0f, 0.2697351323185535f, 1.0f, 1.0f, 1.0f, 0.0f, 0.9882583170254402f, 0.0f}
{1.0f, 0.0f, 0.0705882352941176f, 0.1f, 0.0f, 0.07f, 0.09f, 0.0f, 0.0f, 0.5f, 0.0f, 1.0f, 1.0f, 0.035225048923679f, 0.0f}
{1.0f, 0.0f, 0.0745098039215686f, 0.1f, 0.0f, 0.07f, 0.16f, 0.0f, 0.0f, 0.5f, 0.0f, 1.0f, 1.0f, 0.0371819960861056f, 0.0f}
{0.0f, 0.0f, 0.3411764705882353f, 0.5f, 0.0f, 0.34f, 1.0f, 1.0f, 0.0f, 0.5f, 0.01f, 1.0f, 0.0f, 0.0019569471624266f, 1.0f}
{0.0f, 0.2942326136331429f, 1.0f, 0.9f, 1.0f, 1.0f, 1.0f, 0.0f, 0.5320628520300201f, 0.5f, 0.0f, 1.0f, 0.0f, 0.0332681017612524f, 0.0f}
{0.0f, 0.3134139347705576f, 1.0f, 0.9f, 1.0f, 1.0f, 1.0f, 0.0f, 0.5317903931073389f, 0.5f, 0.03f, 0.1411764705882353f, 0.0f, 0.035225048923679f, 0.0f}
{1.0f, 0.0f, 0.0313725490196078f, 0.1f, 0.0f, 0.03f, 0.07f, 0.0f, 0.0f, 0.5f, 0.0f, 1.0f, 1.0f, 0.0156555772994129f, 0.0f}
{1.0f, 0.0f, 0.0509803921568627f, 0.2f, 0.0f, 0.05f, 0.05f, 0.0f, 0.0f, 0.5f, 0.0f, 1.0f, 1.0f, 0.0254403131115459f, 0.0f}
{0.0f, 0.3167194961006819f, 1.0f, 0.9f, 1.0f, 1.0f, 1.0f, 0.0f, 0.6214838579798935f, 0.5f, 0.01f, 0.7058823529411764f, 0.0f, 0.0900195694716242f, 0.0f}
{0.0f, 0.3178408510645715f, 1.0f, 0.9f, 1.0f, 1.0f, 1.0f, 0.0f, 0.4314617672530678f, 0.5f, 0.0f, 1.0f, 0.0f, 0.0136986301369863f, 0.0f}
{0.0f, 0.3483957423425758f, 0.2313725490196078f, 0.9f, 0.0f, 1.0f, 1.0f, 0.0f, 0.0f, 0.0f, 1.0f, 0.1803921568627451f, 0.0f, 1.0f, 0.0f}
{0.0f, 0.2231767271014228f, 1.0f, 0.9f, 0.0f, 1.0f, 1.0f, 0.0f, 0.279979969361224f, 1.0f, 0.83f, 1.0f, 0.0f, 1.0f, 0.0f}
{0.07f, 0.6265830433917299f, 0.9333333333333332f, 0.4f, 1.0f, 0.99f, 1.0f, 0.0f, 0.0491155039268663f, 0.5f, 0.0f, 0.9450980392156862f, 1.0f, 0.0234833659491193f, 0.0f}
{0.0f, 0.3664894923903333f, 0.3215686274509803f, 0.9f, 1.0f, 0.52f, 1.0f, 0.01f, 0.3997781664116736f, 0.5f, 0.01f, 0.6196078431372549f, 0.0f, 0.0039138943248532f, 0.0f}
{0.0f, 0.318025567922756f, 1.0f, 0.9f, 1.0f, 1.0f, 1.0f, 0.05f, 0.7010181439421433f, 0.5f, 0.05f, 0.0784313725490196f, 0.0f, 0.0293542074363992f, 0.0f}
{0.01f, 0.0386028094012785f, 0.0117647058823529f, 0.9f, 0.0f, 0.01f, 0.08f, 0.0f, 0.0491155039268663f, 1.0f, 0.99f, 1.0f, 0.0f, 0.0058708414872798f, 0.0f}
{0.96f, 0.0f, 0.0039215686274509f, 0.1f, 0.0f, 0.0f, 0.0f, 0.0f, 0.0f, 0.5f, 0.0f, 1.0f, 0.92f, 0.0019569471624266f, 0.0f}
{0.89f, 0.0f, 0.2313725490196078f, 0.2f, 0.0f, 0.24f, 0.5f, 0.01f, 0.2697351323185535f, 0.5f, 0.01f, 0.7254901960784313f, 1.0f, 0.0039138943248532f, 0.0f}
{0.0f, 0.2977915493931328f, 1.0f, 0.9f, 1.0f, 1.0f, 1.0f, 0.0f, 0.6706488346402784f, 0.5f, 0.0f, 1.0f, 0.0f, 0.0215264187866927f, 0.0f}
{0.0f, 0.2107493982135692f, 0.996078431372549f, 0.9f, 0.0f, 1.0f, 1.0f, 0.0f, 0.303038975636811f, 1.0f, 0.0f, 1.0f, 0.0f, 0.2211350293542074f, 0.0f}
{0.0f, 0.6343013400762022f, 0.4470588235294117f, 0.9f, 0.0f, 0.38f, 1.0f, 0.0f, 0.0f, 0.5f, 0.38f, 0.796078431372549f, 0.0f, 0.0293542074363992f, 0.0f}
{0.0f, 0.0f, 0.0313725490196078f, 0.5f, 0.0f, 0.03f, 0.06f, 1.0f, 0.0f, 0.5f, 0.0f, 1.0f, 0.0f, 0.0156555772994129f, 1.0f}
{0.0f, 0.3134139347705576f, 1.0f, 0.9f, 1.0f, 1.0f, 1.0f, 0.0f, 0.6030764941678928f, 0.5f, 0.08f, 0.0509803921568627f, 0.0f, 0.0254403131115459f, 0.0f}
{0.0f, 0.3215967963837532f, 1.0f, 0.9f, 1.0f, 1.0f, 1.0f, 0.03f, 0.5602737046695786f, 0.5f, 0.03f, 0.1137254901960784f, 0.0f, 0.0724070450097847f, 0.05f}
{0.0f, 0.3239670299065578f, 1.0f, 0.9f, 1.0f, 1.0f, 1.0f, 0.0f, 0.5725331290143713f, 0.5f, 0.0f, 1.0f, 0.0f, 0.0978473581213307f, 0.0f}
{1.0f, 0.0f, 0.0313725490196078f, 0.1f, 0.0f, 0.03f, 0.03f, 0.0f, 0.0f, 0.5f, 0.0f, 1.0f, 1.0f, 0.0156555772994129f, 0.0f}
{0.0f, 0.3040556824341893f, 1.0f, 0.9f, 1.0f, 1.0f, 1.0f, 0.0f, 0.5727084676598451f, 0.5f, 0.0f, 1.0f, 0.0f, 0.0410958904109589f, 0.0f}
{0.0f, 0.0f, 0.0235294117647058f, 0.5f, 0.0f, 0.02f, 0.02f, 1.0f, 0.0f, 0.5f, 0.0f, 1.0f, 0.0f, 0.0117416829745596f, 1.0f}
{0.06f, 0.6074172723998263f, 0.9803921568627452f, 0.9f, 1.0f, 0.98f, 1.0f, 0.0f, 0.639557561307564f, 0.5f, 0.0f, 1.0f, 0.0f, 0.0469667318982387f, 0.0f}
{0.0f, 0.0f, 0.3372549019607843f, 0.5f, 0.0f, 0.34f, 1.0f, 1.0f, 0.0f, 0.5f, 0.01f, 0.3568627450980392f, 0.0f, 0.0234833659491193f, 0.33f}
{0.0f, 0.2144227347437785f, 1.0f, 0.9f, 0.0f, 1.0f, 1.0f, 0.0f, 0.271292528943008f, 1.0f, 0.26f, 1.0f, 0.0f, 0.1330724070450097f, 0.0f}
{0.0f, 0.3210754938409553f, 0.611764705882353f, 0.9f, 1.0f, 1.0f, 1.0f, 0.0f, 0.438782718444716f, 0.5f, 0.33f, 0.0117647058823529f, 0.0f, 0.0313111545988258f, 0.0f}
{0.0f, 0.3090395986107279f, 0.9450980392156862f, 0.9f, 1.0f, 0.95f, 1.0f, 0.0f, 0.6024750222570332f, 0.5f, 0.0f, 1.0f, 0.0f, 0.0802348336594911f, 0.0f}
{1.0f, 0.0f, 0.0274509803921568f, 0.1f, 0.0f, 0.03f, 0.03f, 0.0f, 0.0f, 0.5f, 0.0f, 1.0f, 1.0f, 0.0136986301369863f, 0.0f}
{1.0f, 0.0f, 0.0117647058823529f, 0.1f, 0.0f, 0.01f, 0.01f, 0.0f, 0.0f, 0.5f, 0.0f, 1.0f, 1.0f, 0.0058708414872798f, 0.0f}
{0.0f, 0.302857957096233f, 1.0f, 0.9f, 1.0f, 1.0f, 1.0f, 0.0f, 0.4417622015476655f, 0.5f, 0.05f, 0.0823529411764705f, 0.0f, 0.0019569471624266f, 0.0f}
{1.0f, 0.0f, 0.0313725490196078f, 0.1f, 0.0f, 0.03f, 0.03f, 0.0f, 0.0f, 0.5f, 0.0f, 1.0f, 1.0f, 0.0156555772994129f, 0.0f}
{0.12f, 0.0f, 0.8509803921568627f, 0.9f, 0.0f, 0.85f, 1.0f, 0.33f, 0.2697351323185535f, 0.5f, 0.0f, 1.0f, 0.0f, 0.0019569471624266f, 0.0f}
{0.0f, 0.3144066897865915f, 1.0f, 0.9f, 1.0f, 1.0f, 1.0f, 0.0f, 0.4240139095058937f, 0.5f, 0.0f, 1.0f, 0.0f, 0.0156555772994129f, 0.0f}
{0.0f, 0.3038181891886253f, 0.7725490196078432f, 0.9f, 1.0f, 0.77f, 1.0f, 0.0f, 0.546620343721968f, 0.5f, 0.0f, 1.0f, 0.0f, 0.0058708414872798f, 0.0f}
{0.0f, 0.3092558788114318f, 1.0f, 0.9f, 1.0f, 1.0f, 1.0f, 0.0f, 0.6428705631287633f, 0.5f, 0.0f, 1.0f, 0.0f, 0.0391389432485322f, 0.0f}
{0.89f, 0.0f, 0.0039215686274509f, 0.1f, 0.0f, 0.0f, 0.0f, 0.1f, 0.0f, 0.5f, 0.0f, 1.0f, 0.83f, 0.0019569471624266f, 0.0f}
{0.0f, 0.2991020117770513f, 1.0f, 0.9f, 1.0f, 1.0f, 1.0f, 0.0f, 0.4585124016248001f, 0.5f, 0.0f, 1.0f, 0.0f, 0.0587084148727984f, 0.0f}
{0.91f, 0.0f, 0.3333333333333333f, 0.1f, 0.0f, 0.29f, 0.25f, 0.02f, 0.0f, 0.5f, 0.01f, 0.4156862745098039f, 1.0f, 0.0117416829745596f, 0.0f}
{1.0f, 0.0f, 0.0509803921568627f, 0.1f, 0.0f, 0.05f, 0.12f, 0.0f, 0.0f, 0.5f, 0.0f, 1.0f, 1.0f, 0.0254403131115459f, 0.0f}
{0.0f, 0.0f, 0.0039215686274509f, 0.5f, 0.0f, 0.0f, 0.01f, 1.0f, 0.0f, 0.5f, 0.0f, 1.0f, 0.0f, 0.0019569471624266f, 1.0f}
{0.0f, 0.2961771731216651f, 1.0f, 0.9f, 1.0f, 1.0f, 1.0f, 0.0f, 0.4591674943703429f, 0.5f, 0.0f, 1.0f, 0.0f, 0.0371819960861056f, 0.0f}
{1.0f, 0.0f, 0.0549019607843137f, 0.1f, 0.0f, 0.05f, 0.06f, 0.0f, 0.0f, 0.5f, 0.0f, 1.0f, 1.0f, 0.0273972602739726f, 0.0f}
{0.0f, 0.0f, 0.5725490196078431f, 0.9f, 1.0f, 0.8f, 1.0f, 0.0f, 0.3139618914802666f, 0.5f, 0.02f, 0.2392156862745098f, 0.0f, 0.0039138943248532f, 0.0f}
{0.0f, 0.3191211851915002f, 1.0f, 0.9f, 1.0f, 1.0f, 1.0f, 0.0f, 0.4382007135797595f, 0.5f, 0.1f, 0.0392156862745098f, 0.0f, 0.0039138943248532f, 0.0f}
{0.0f, 0.3214235704845679f, 0.992156862745098f, 0.9f, 1.0f, 1.0f, 1.0f, 0.0f, 0.5257276179943207f, 0.5f, 0.01f, 0.3333333333333333f, 0.0f, 0.0587084148727984f, 0.0f}
{1.0f, 0.0f, 0.0117647058823529f, 0.1f, 0.0f, 0.01f, 0.01f, 0.0f, 0.0f, 0.5f, 0.0f, 1.0f, 1.0f, 0.0058708414872798f, 0.0f}
{0.0f, 0.2993604441743736f, 1.0f, 0.9f, 1.0f, 1.0f, 1.0f, 0.0f, 0.4298364966003348f, 0.5f, 0.03f, 0.1568627450980392f, 0.0f, 0.0019569471624266f, 0.0f}
{0.0f, 0.327654471054213f, 1.0f, 0.9f, 1.0f, 1.0f, 1.0f, 0.0f, 0.5820278981584915f, 0.5f, 0.01f, 0.3176470588235294f, 0.0f, 0.0215264187866927f, 0.0f}
{0.11f, 0.0f, 0.2627450980392157f, 0.9f, 0.0f, 0.26f, 1.0f, 0.0f, 0.1964620157074655f, 0.5f, 0.0f, 1.0f, 0.0f, 0.0019569471624266f, 0.0f}
{0.0f, 0.3119936589961097f, 1.0f, 0.9f, 1.0f, 1.0f, 1.0f, 0.0f, 0.5098415762050612f, 0.5f, 0.14f, 0.0274509803921568f, 0.0f, 0.0039138943248532f, 0.0f}
{0.0f, 0.3242975476819216f, 1.0f, 0.9f, 1.0f, 1.0f, 1.0f, 0.0f, 0.4002789366510003f, 0.5f, 0.0f, 1.0f, 0.0f, 0.0567514677103718f, 0.0f}
{0.99f, 0.0f, 0.0745098039215686f, 0.1f, 0.0f, 0.07f, 0.07f, 0.01f, 0.0f, 0.5f, 0.0f, 1.0f, 0.99f, 0.0371819960861056f, 0.0f}
{1.0f, 0.0f, 0.0235294117647058f, 0.1f, 0.0f, 0.02f, 0.03f, 0.0f, 0.0f, 0.5f, 0.0f, 1.0f, 1.0f, 0.0117416829745596f, 0.0f}
{0.0f, 0.4065785283303523f, 0.0980392156862745f, 0.9f, 0.0f, 1.0f, 1.0f, 0.0f, 0.0f, 0.0f, 1.0f, 0.0039215686274509f, 0.0f, 0.0019569471624266f, 0.0f}
{0.0f, 0.30038234590398f, 0.984313725490196f, 0.9f, 1.0f, 1.0f, 1.0f, 0.0f, 0.5086623574118299f, 0.5f, 0.25f, 0.0156862745098039f, 0.0f, 0.0078277886497064f, 0.0f}
{0.0f, 0.3094713223361544f, 1.0f, 0.9f, 1.0f, 1.0f, 1.0f, 0.0f, 0.4903897440207246f, 0.5f, 0.0f, 1.0f, 0.0f, 0.0508806262230919f, 0.0f}
{0.0f, 0.3221132645211429f, 1.0f, 0.9f, 1.0f, 1.0f, 1.0f, 0.0f, 0.4958405121162431f, 0.5f, 0.01f, 0.2705882352941176f, 0.0f, 0.0156555772994129f, 0.0f}
{1.0f, 0.0f, 0.2431372549019607f, 0.2f, 0.0f, 0.24f, 0.33f, 0.0f, 0.0f, 0.5f, 0.0f, 1.0f, 1.0f, 0.0371819960861056f, 0.0f}
{0.88f, 0.0f, 0.2352941176470588f, 0.2f, 1.0f, 0.24f, 0.33f, 0.0f, 0.255864927236376f, 0.5f, 0.01f, 0.7411764705882353f, 1.0f, 0.0136986301369863f, 0.0f}
{0.0f, 0.3045276520528425f, 1.0f, 0.9f, 1.0f, 1.0f, 1.0f, 0.0f, 0.656116885515093f, 0.5f, 0.0f, 1.0f, 0.0f, 0.0058708414872798f, 0.0f}
{0.0f, 0.4142590631789739f, 0.0274509803921568f, 0.9f, 0.0f, 0.19f, 1.0f, 0.0f, 0.0f, 0.5f, 0.19f, 0.1411764705882353f, 0.0f, 0.0019569471624266f, 0.0f}
{0.0f, 0.3226249870955455f, 1.0f, 0.9f, 1.0f, 1.0f, 1.0f, 0.0f, 0.4828696095391896f, 0.5f, 0.07f, 0.0549019607843137f, 0.0f, 0.0293542074363992f, 0.0f}
{0.0f, 0.3183931737570241f, 1.0f, 0.9f, 1.0f, 1.0f, 1.0f, 0.0f, 0.5621784845826935f, 0.5f, 0.0f, 1.0f, 0.0f, 0.0156555772994129f, 0.0f}
{1.0f, 0.0f, 0.0156862745098039f, 0.1f, 0.0f, 0.02f, 0.04f, 0.0f, 0.0f, 0.5f, 0.0f, 1.0f, 1.0f, 0.0078277886497064f, 0.0f}
{0.0f, 0.0f, 0.0980392156862745f, 0.9f, 1.0f, 0.23f, 1.0f, 0.0f, 0.3139618914802666f, 0.5f, 0.01f, 0.4313725490196078f, 0.0f, 0.0019569471624266f, 0.0f}
{0.0f, 0.3144066897865915f, 1.0f, 0.9f, 1.0f, 1.0f, 1.0f, 0.0f, 0.5965692114716159f, 0.5f, 0.01f, 0.3764705882352941f, 0.0f, 0.0117416829745596f, 0.0f}
{0.0f, 0.2120009583374359f, 0.992156862745098f, 0.9f, 0.0f, 0.99f, 1.0f, 0.0f, 0.3356008363225545f, 1.0f, 0.0f, 1.0f, 0.0f, 0.009784735812133f, 0.0f}
{0.0f, 0.0f, 0.0039215686274509f, 1.0f, 0.0f, 0.03f, 1.0f, 1.0f, 0.0f, 0.5f, 1.0f, 0.1176470588235294f, 0.0f, 0.0019569471624266f, 1.0f}
{1.0f, 0.0f, 0.0274509803921568f, 0.2f, 0.0f, 0.03f, 0.06f, 0.0f, 0.0f, 0.5f, 0.0f, 1.0f, 1.0f, 0.0136986301369863f, 0.0f}
{0.99f, 0.0f, 0.0039215686274509f, 0.5f, 0.0f, 0.0f, 0.0f, 0.01f, 0.0f, 0.5f, 0.0f, 1.0f, 0.99f, 0.0019569471624266f, 1.0f}
{1.0f, 0.0f, 0.0235294117647058f, 0.1f, 0.0f, 0.02f, 0.03f, 0.0f, 0.0f, 0.5f, 0.0f, 1.0f, 1.0f, 0.0117416829745596f, 0.0f}
{1.0f, 0.0f, 0.0588235294117647f, 0.1f, 0.0f, 0.06f, 0.14f, 0.0f, 0.0f, 0.5f, 0.0f, 1.0f, 1.0f, 0.0293542074363992f, 0.0f}
{0.0f, 0.3844840562199903f, 0.1647058823529411f, 0.9f, 1.0f, 0.66f, 1.0f, 0.0f, 0.411130530199611f, 0.5f, 0.02f, 0.2431372549019607f, 0.0f, 0.0019569471624266f, 0.0f}
{1.0f, 0.0f, 0.0470588235294117f, 0.1f, 0.0f, 0.05f, 0.05f, 0.0f, 0.0f, 0.5f, 0.0f, 1.0f, 1.0f, 0.0234833659491193f, 0.0f}
{0.0f, 0.2945145994593159f, 0.8980392156862745f, 0.9f, 1.0f, 1.0f, 1.0f, 0.0f, 0.532334267331836f, 0.5f, 0.04f, 0.1019607843137254f, 0.0f, 0.0039138943248532f, 0.0f}
{1.0f, 0.0f, 0.0392156862745098f, 0.1f, 0.0f, 0.04f, 0.09f, 0.0f, 0.0f, 0.5f, 0.0f, 1.0f, 1.0f, 0.0195694716242661f, 0.0f}
{0.0f, 0.3030995717124557f, 1.0f, 0.9f, 1.0f, 1.0f, 1.0f, 0.0f, 0.4774566853764055f, 0.5f, 0.04f, 0.0980392156862745f, 0.0f, 0.0489236790606653f, 0.0f}
{0.0f, 0.283338830695329f, 0.592156862745098f, 0.9f, 1.0f, 1.0f, 1.0f, 0.0f, 0.6769136464169742f, 0.5f, 0.01f, 0.592156862745098f, 0.0f, 0.0019569471624266f, 0.0f}
{1.0f, 0.0f, 0.0588235294117647f, 0.1f, 0.0f, 0.06f, 0.07f, 0.0f, 0.0f, 0.5f, 0.0f, 1.0f, 1.0f, 0.0293542074363992f, 0.0f}
}



/** model size = 8328 bytes **/
const unsigned char snn_model[] DATA_ALIGN_ATTRIBUTE = { 0x1c, 0x00, 0x00, 0x00, 0x54, 0x46, 0x4c, 0x33, 0x14, 0x00, 0x20, 0x00, 0x1c, 0x00, 0x18, 0x00, 0x14, 0x00, 0x10, 0x00, 0x0c, 0x00, 0x00, 0x00, 0x08, 0x00, 0x04, 0x00, 0x14, 0x00, 0x00, 0x00, 0x1c, 0x00, 0x00, 0x00, 0x90, 0x00, 0x00, 0x00, 0xe8, 0x00, 0x00, 0x00, 0x58, 0x1a, 0x00, 0x00, 0x68, 0x1a, 0x00, 0x00, 0x24, 0x20, 0x00, 0x00, 0x03, 0x00, 0x00, 0x00, 0x01, 0x00, 0x00, 0x00, 0x10, 0x00, 0x00, 0x00, 0x00, 0x00, 0x0a, 0x00, 0x10, 0x00, 0x0c, 0x00, 0x08, 0x00, 0x04, 0x00, 0x0a, 0x00, 0x00, 0x00, 0x0c, 0x00, 0x00, 0x00, 0x1c, 0x00, 0x00, 0x00, 0x38, 0x00, 0x00, 0x00, 0x0f, 0x00, 0x00, 0x00, 0x73, 0x65, 0x72, 0x76, 0x69, 0x6e, 0x67, 0x5f, 0x64, 0x65, 0x66, 0x61, 0x75, 0x6c, 0x74, 0x00, 0x01, 0x00, 0x00, 0x00, 0x04, 0x00, 0x00, 0x00, 0x98, 0xff, 0xff, 0xff, 0x0a, 0x00, 0x00, 0x00, 0x04, 0x00, 0x00, 0x00, 0x07, 0x00, 0x00, 0x00, 0x64, 0x65, 0x6e, 0x73, 0x65, 0x5f, 0x32, 0x00, 0x01, 0x00, 0x00, 0x00, 0x04, 0x00, 0x00, 0x00, 0x8a, 0xe5, 0xff, 0xff, 0x04, 0x00, 0x00, 0x00, 0x0b, 0x00, 0x00, 0x00, 0x64, 0x65, 0x6e, 0x73, 0x65, 0x5f, 0x69, 0x6e, 0x70, 0x75, 0x74, 0x00, 0x02, 0x00, 0x00, 0x00, 0x34, 0x00, 0x00, 0x00, 0x04, 0x00, 0x00, 0x00, 0xdc, 0xff, 0xff, 0xff, 0x0d, 0x00, 0x00, 0x00, 0x04, 0x00, 0x00, 0x00, 0x13, 0x00, 0x00, 0x00, 0x43, 0x4f, 0x4e, 0x56, 0x45, 0x52, 0x53, 0x49, 0x4f, 0x4e, 0x5f, 0x4d, 0x45, 0x54, 0x41, 0x44, 0x41, 0x54, 0x41, 0x00, 0x08, 0x00, 0x0c, 0x00, 0x08, 0x00, 0x04, 0x00, 0x08, 0x00, 0x00, 0x00, 0x0c, 0x00, 0x00, 0x00, 0x04, 0x00, 0x00, 0x00, 0x13, 0x00, 0x00, 0x00, 0x6d, 0x69, 0x6e, 0x5f, 0x72, 0x75, 0x6e, 0x74, 0x69, 0x6d, 0x65, 0x5f, 0x76, 0x65, 0x72, 0x73, 0x69, 0x6f, 0x6e, 0x00, 0x0e, 0x00, 0x00, 0x00, 0x6c, 0x19, 0x00, 0x00, 0x64, 0x19, 0x00, 0x00, 0x04, 0x19, 0x00, 0x00, 0xe8, 0x18, 0x00, 0x00, 0x34, 0x18, 0x00, 0x00, 0x88, 0x0e, 0x00, 0x00, 0xa8, 0x01, 0x00, 0x00, 0xa8, 0x00, 0x00, 0x00, 0xa0, 0x00, 0x00, 0x00, 0x98, 0x00, 0x00, 0x00, 0x90, 0x00, 0x00, 0x00, 0x88, 0x00, 0x00, 0x00, 0x68, 0x00, 0x00, 0x00, 0x04, 0x00, 0x00, 0x00, 0x3a, 0xe6, 0xff, 0xff, 0x04, 0x00, 0x00, 0x00, 0x54, 0x00, 0x00, 0x00, 0x0c, 0x00, 0x00, 0x00, 0x08, 0x00, 0x0e, 0x00, 0x08, 0x00, 0x04, 0x00, 0x08, 0x00, 0x00, 0x00, 0x10, 0x00, 0x00, 0x00, 0x24, 0x00, 0x00, 0x00, 0x00, 0x00, 0x06, 0x00, 0x08, 0x00, 0x04, 0x00, 0x06, 0x00, 0x00, 0x00, 0x04, 0x00, 0x00, 0x00, 0x00, 0x00, 0x00, 0x00, 0x00, 0x00, 0x0a, 0x00, 0x10, 0x00, 0x0c, 0x00, 0x08, 0x00, 0x04, 0x00, 0x0a, 0x00, 0x00, 0x00, 0x02, 0x00, 0x00, 0x00, 0x02, 0x00, 0x00, 0x00, 0x04, 0x00, 0x00, 0x00, 0x06, 0x00, 0x00, 0x00, 0x32, 0x2e, 0x31, 0x32, 0x2e, 0x31, 0x00, 0x00, 0x9a, 0xe6, 0xff, 0xff, 0x04, 0x00, 0x00, 0x00, 0x10, 0x00, 0x00, 0x00, 0x31, 0x2e, 0x35, 0x2e, 0x30, 0x00, 0x00, 0x00, 0x00, 0x00, 0x00, 0x00, 0x00, 0x00, 0x00, 0x00, 0xa8, 0xe1, 0xff, 0xff, 0xac, 0xe1, 0xff, 0xff, 0xb0, 0xe1, 0xff, 0xff, 0xb4, 0xe1, 0xff, 0xff, 0xc6, 0xe6, 0xff, 0xff, 0x04, 0x00, 0x00, 0x00, 0xf0, 0x00, 0x00, 0x00, 0x61, 0xd7, 0xcf, 0xbe, 0xa0, 0x3c, 0x68, 0x3e, 0x62, 0x76, 0xc1, 0xbd, 0x27, 0xba, 0xb0, 0x3f, 0x19, 0xca, 0x8f, 0x3e, 0xd1, 0x5a, 0x14, 0xbe, 0x46, 0x0e, 0x1f, 0x3f, 0x77, 0x9d, 0x02, 0xbe, 0xca, 0x6e, 0x09, 0x3f, 0x69, 0x80, 0x0a, 0x3f, 0x54, 0x81, 0x2c, 0xbf, 0x28, 0x3e, 0x5b, 0x3f, 0x35, 0xfe, 0xe8, 0x3d, 0x49, 0x8d, 0xdc, 0x3d, 0xb1, 0x5a, 0xd6, 0xbe, 0xa0, 0x9f, 0xa2, 0xbf, 0x78, 0x2f, 0x90, 0xbf, 0xdd, 0xf8, 0xad, 0x3e, 0x01, 0xe8, 0x67, 0x3f, 0x5a, 0x3f, 0x8b, 0xbf, 0x60, 0xd8, 0x4a, 0xbd, 0x1b, 0xd9, 0x3a, 0xbe, 0x83, 0x1f, 0xa9, 0xbd, 0xcb, 0x54, 0xcd, 0xbf, 0xe4, 0xdd, 0x80, 0xbf, 0x26, 0xd5, 0x2a, 0x3f, 0x3c, 0xdb, 0x90, 0x3e, 0x2f, 0x5f, 0x05, 0x40, 0x0c, 0x97, 0x8b, 0xbf, 0xdb, 0x29, 0x00, 0xc0, 0x56, 0x0f, 0x56, 0x3f, 0x2b, 0xf6, 0xa9, 0xbf, 0x7e, 0xe1, 0x1f, 0x3f, 0x89, 0xfb, 0x43, 0x3f, 0x3d, 0xd5, 0x82, 0x3e, 0xef, 0xfb, 0x90, 0xbf, 0x32, 0x75, 0x19, 0x3f, 0x1a, 0xfa, 0xc2, 0xbe, 0xbb, 0x1b, 0x04, 0xc0, 0xd7, 0xe0, 0x0a, 0x3f, 0x5b, 0x1c, 0x53, 0x3c, 0xb0, 0x13, 0x34, 0xbe, 0xdc, 0xfd, 0xb7, 0x3e, 0x46, 0x58, 0x1d, 0xbf, 0x02, 0xaf, 0x06, 0x3f, 0x37, 0x0c, 0xa0, 0xbf, 0x4a, 0xa8, 0xa6, 0xbe, 0xb7, 0x6e, 0x09, 0xc0, 0x6d, 0x93, 0xad, 0xbe, 0x6a, 0x52, 0x39, 0x3f, 0x16, 0x11, 0x36, 0xbe, 0x58, 0x50, 0xce, 0x3e, 0x75, 0xfe, 0x3a, 0xbf, 0xa7, 0x0b, 0xd3, 0xbe, 0x86, 0x30, 0x77, 0xbe, 0xa8, 0x0f, 0xd1, 0x3f, 0x61, 0x1b, 0xa1, 0xbe, 0xd2, 0xc9, 0x06, 0xbf, 0xa3, 0x13, 0x01, 0x3f, 0x70, 0x93, 0x16, 0x3f, 0xc2, 0xe7, 0xff, 0xff, 0x04, 0x00, 0x00, 0x00, 0xd0, 0x0c, 0x00, 0x00, 0xdc, 0xa4, 0x8f, 0xbe, 0x57, 0x7a, 0x9a, 0xbe, 0xaa, 0x6e, 0xe3, 0x3b, 0x36, 0x7b, 0x4e, 0xbe, 0xaa, 0x68, 0x96, 0xbe, 0x96, 0xa2, 0x00, 0x3e, 0x89, 0x02, 0x14, 0xbe, 0xc4, 0x4b, 0x64, 0x3e, 0xe0, 0x02, 0xa8, 0x3d, 0xe3, 0xb0, 0xbd, 0xbe, 0x70, 0x00, 0x61, 0x3e, 0x07, 0x52, 0xa0, 0xbe, 0x69, 0xb9, 0x91, 0xbe, 0x27, 0xf4, 0x1b, 0x3e, 0xc3, 0x8e, 0x55, 0xbd, 0xfa, 0xcb, 0x87, 0x3e, 0x32, 0xee, 0x68, 0x3e, 0xa5, 0xa6, 0x22, 0x3e, 0x66, 0x4e, 0x0b, 0x3e, 0x27, 0x7e, 0x0f, 0x3e, 0x19, 0x6c, 0x8b, 0xbe, 0xfc, 0xa8, 0x9f, 0x3d, 0xee, 0x62, 0x56, 0xbe, 0x61, 0x18, 0x6f, 0xbe, 0x7d, 0x77, 0x30, 0xbe, 0xb7, 0x9a, 0x96, 0xbe, 0x06, 0x70, 0xb5, 0xbd, 0x4c, 0xce, 0xf0, 0xbd, 0xeb, 0x45, 0xb0, 0x3d, 0xf3, 0xb1, 0xee, 0x3b, 0xff, 0x96, 0x92, 0xbe, 0x17, 0xb0, 0xbf, 0xbd, 0x86, 0x94, 0x5d, 0x3e, 0x97, 0xfe, 0x36, 0x3d, 0xd0, 0x31, 0x65, 0x3e, 0x5e, 0x72, 0x2f, 0x3e, 0xfc, 0x66, 0x55, 0x3e, 0xd2, 0x90, 0x9f, 0xbd, 0x12, 0xfd, 0x16, 0xbe, 0x6f, 0x9d, 0x5e, 0xbe, 0x5d, 0xcc, 0x86, 0xbe, 0x54, 0xac, 0xaf, 0xbe, 0x39, 0x5c, 0x24, 0xbd, 0xa8, 0x9b, 0x1a, 0xbe, 0x82, 0xc8, 0x2d, 0x3e, 0x24, 0x1b, 0x5c, 0xbe, 0xa0, 0xb6, 0x70, 0xbd, 0x9e, 0xca, 0x27, 0xbe, 0xed, 0x34, 0x1b, 0xbd, 0xbb, 0x22, 0x1d, 0x3d, 0x45, 0xc9, 0x46, 0xbe, 0x2a, 0x4c, 0x95, 0x3e, 0x60, 0x2a, 0xac, 0xbe, 0x00, 0x32, 0x7e, 0xba, 0x8a, 0x6e, 0x14, 0x3e, 0xff, 0xf8, 0xeb, 0xbd, 0xda, 0x43, 0x38, 0xbe, 0x84, 0xe4, 0xc8, 0xbd, 0x29, 0x69, 0xdd, 0xbd, 0xdc, 0x4c, 0x53, 0xbe, 0xcd, 0x8d, 0x94, 0x3d, 0xb0, 0xa2, 0xd3, 0xbd, 0xc4, 0x38, 0x5a, 0xbe, 0x5f, 0xdb, 0x2d, 0xbe, 0xd5, 0xf0, 0x11, 0x3d, 0x44, 0x99, 0x75, 0x3e, 0x62, 0x8e, 0x05, 0xbe, 0xa4, 0x58, 0x96, 0x3e, 0xfa, 0x37, 0x10, 0x3e, 0xd8, 0x62, 0x23, 0x3d, 0xcb, 0x35, 0xc3, 0x3d, 0x50, 0x56, 0x73, 0xbe, 0x09, 0xa1, 0x6a, 0xbe, 0x76, 0x91, 0x3e, 0xbe, 0x10, 0x79, 0xa4, 0xbd, 0x70, 0xe4, 0x3d, 0x3d, 0x50, 0xc6, 0x98, 0x3c, 0x30, 0x95, 0xd2, 0xbc, 0xc6, 0x80, 0x3a, 0xbe, 0xe8, 0xe5, 0x29, 0x3d, 0x48, 0x6a, 0x1d, 0x3e, 0x55, 0x70, 0xa3, 0xbe, 0x39, 0x6d, 0x2f, 0xbe, 0x1a, 0x57, 0x16, 0x3e, 0x89, 0xc5, 0x84, 0xbe, 0x10, 0xdd, 0x98, 0x3d, 0x3c, 0x58, 0xac, 0x3c, 0x6c, 0xe7, 0xef, 0xbd, 0x8c, 0x72, 0x48, 0xbe, 0x98, 0x9f, 0x85, 0xbe, 0x54, 0xce, 0xd1, 0xbd, 0xf4, 0x00, 0x86, 0x3e, 0xff, 0xc6, 0x56, 0xbe, 0x2a, 0x37, 0x47, 0xbe, 0x4c, 0xb0, 0x77, 0xbe, 0xf4, 0xc4, 0xd0, 0xbd, 0xf0, 0xf1, 0xf2, 0x3d, 0xc0, 0xb1, 0xd3, 0x3c, 0x96, 0x58, 0x1d, 0x3e, 0x48, 0xdb, 0x02, 0x3e, 0xf4, 0x8a, 0x46, 0xbe, 0x3e, 0x8e, 0x11, 0xbe, 0x68, 0x09, 0xa2, 0xbe, 0x9a, 0x12, 0x61, 0x3d, 0x42, 0xa5, 0xcd, 0xbd, 0x8a, 0xb5, 0x3d, 0xbe, 0x7a, 0x1e, 0x13, 0x3e, 0x80, 0x92, 0xda, 0x3b, 0x21, 0xa4, 0x4a, 0xbe, 0xf2, 0x83, 0xeb, 0xbd, 0x4c, 0x82, 0x67, 0x3e, 0xe9, 0x4d, 0x0b, 0xbe, 0xde, 0x21, 0xaf, 0xbd, 0x67, 0x72, 0x5f, 0xbe, 0x18, 0x7d, 0xa0, 0xbe, 0x14, 0x6e, 0x3d, 0xbe, 0x34, 0x1c, 0x11, 0x3e, 0x44, 0x74, 0x22, 0x3e, 0x98, 0xd8, 0x0d, 0xbd, 0x66, 0xe2, 0x4c, 0xbe, 0xb8, 0xa4, 0x55, 0xbe, 0x82, 0xff, 0x93, 0xbe, 0x05, 0x74, 0x94, 0x3e, 0x8b, 0xc0, 0xc7, 0x3e, 0x80, 0x47, 0x6f, 0x3e, 0x4c, 0x34, 0x07, 0xbe, 0x10, 0x60, 0x84, 0x3e, 0xd2, 0xee, 0xb4, 0xbe, 0xbb, 0xfe, 0xa2, 0x3e, 0xc2, 0x86, 0x56, 0xbe, 0xec, 0x20, 0x40, 0xbe, 0xb7, 0x0a, 0x57, 0xbd, 0x55, 0xd6, 0x1b, 0xbf, 0xfe, 0x34, 0x4e, 0xbe, 0x8a, 0xea, 0x04, 0xbe, 0xac, 0x3c, 0x81, 0xbf, 0x3a, 0xb7, 0xd3, 0xbd, 0x8b, 0x5b, 0xae, 0xbc, 0x6b, 0xf6, 0xee, 0x3d, 0xb8, 0x8e, 0x07, 0x3f, 0x6d, 0xf4, 0x71, 0x3e, 0x1f, 0x85, 0x9c, 0x3e, 0x0e, 0xdc, 0xa1, 0x3d, 0x1c, 0xdb, 0xa5, 0x3e, 0x3c, 0x3c, 0x9a, 0x3f, 0x3b, 0x01, 0x81, 0xbd, 0x7b, 0x77, 0x8e, 0x3e, 0x4f, 0x1f, 0xde, 0xbd, 0x07, 0x9d, 0x98, 0x3f, 0xb6, 0x6c, 0x3f, 0x3c, 0x66, 0x05, 0xc9, 0xbd, 0x5f, 0xa9, 0x25, 0xbf, 0x15, 0x32, 0xc3, 0xbb, 0x3e, 0x1c, 0x91, 0xbd, 0xcd, 0x33, 0x00, 0xbf, 0x32, 0x2d, 0x3d, 0xbe, 0x2c, 0x98, 0x2a, 0xbf, 0x80, 0xf0, 0x7a, 0xbc, 0x46, 0x72, 0x05, 0xbe, 0x53, 0x32, 0x08, 0xbf, 0x78, 0x48, 0xc7, 0x3d, 0x1e, 0x5c, 0xee, 0x3f, 0x75, 0xdd, 0xd5, 0xbe, 0xda, 0x7d, 0x83, 0x3e, 0x9a, 0xbe, 0xc6, 0xbc, 0xc1, 0xa0, 0x23, 0x3f, 0x23, 0x2e, 0x12, 0x3f, 0xb1, 0xc2, 0xd4, 0xbd, 0x53, 0x0f, 0x2b, 0xbe, 0x1c, 0xce, 0xb6, 0xbe, 0x08, 0x44, 0x20, 0xbe, 0x8a, 0x58, 0xc7, 0x3d, 0x7b, 0x24, 0xbe, 0x3e, 0x92, 0xb5, 0x83, 0xbe, 0xc6, 0x0a, 0x14, 0xbc, 0xd8, 0xab, 0x66, 0xbe, 0x49, 0xcb, 0x4c, 0xbf, 0x52, 0x03, 0xe7, 0xbe, 0x3b, 0xc5, 0x00, 0xbf, 0x5b, 0xbc, 0xfb, 0x3d, 0xa2, 0xbc, 0x8e, 0x3f, 0xb5, 0x2a, 0x90, 0x3e, 0x06, 0xab, 0x38, 0xbe, 0xad, 0x55, 0xb8, 0x3e, 0x0d, 0x3c, 0x05, 0x3f, 0x4e, 0x77, 0xb4, 0xbe, 0x94, 0xb0, 0xb3, 0x3d, 0x13, 0x4e, 0xc9, 0x3e, 0x1e, 0xb8, 0x00, 0xbf, 0x23, 0x92, 0x93, 0x3f, 0x72, 0x31, 0xa9, 0xbc, 0xfe, 0xb8, 0xc2, 0x3d, 0xa9, 0xed, 0x44, 0xbe, 0x0d, 0xef, 0xa5, 0x3f, 0x73, 0x31, 0x59, 0x3e, 0x0d, 0xfd, 0x55, 0x3e, 0x2a, 0x10, 0x98, 0x3e, 0xce, 0x8f, 0x68, 0xbe, 0x9d, 0xeb, 0x27, 0xbe, 0xf5, 0xe2, 0x27, 0xbf, 0xe6, 0x5c, 0x9d, 0x3f, 0x22, 0x97, 0x82, 0x3e, 0xe7, 0xbc, 0x83, 0x3f, 0x4a, 0x69, 0x41, 0xbf, 0x24, 0x70, 0x40, 0x3d, 0xe8, 0x3f, 0xcd, 0x3e, 0x7d, 0x55, 0x28, 0xbf, 0xf1, 0x9a, 0x95, 0xbe, 0x39, 0x8e, 0x65, 0x3e, 0xad, 0xa8, 0x92, 0xbe, 0xa3, 0xbd, 0xd7, 0xbe, 0xcf, 0x58, 0x96, 0x3e, 0x2a, 0xd5, 0x1c, 0x3e, 0x82, 0x00, 0x1e, 0x3f, 0xba, 0xb7, 0x72, 0x3f, 0x97, 0xe9, 0x44, 0xbe, 0xeb, 0x31, 0x1c, 0x3f, 0xab, 0x1a, 0x96, 0x3f, 0x40, 0xee, 0x4b, 0x3e, 0x8e, 0xa3, 0xf8, 0xbc, 0x0a, 0x04, 0x40, 0x3b, 0xbd, 0x93, 0x2b, 0xbf, 0xb9, 0x0c, 0x9f, 0x3e, 0x24, 0x33, 0x9c, 0x3f, 0xf8, 0x5c, 0x4a, 0xbe, 0x21, 0x14, 0xad, 0x3e, 0x58, 0x43, 0x82, 0x3e, 0x92, 0x75, 0x00, 0xbe, 0x2d, 0x16, 0xdb, 0xbd, 0x0e, 0xf4, 0x9c, 0xbe, 0x5c, 0x7e, 0xf9, 0x3d, 0x3b, 0x6a, 0xd7, 0x3d, 0x0f, 0x5e, 0x1b, 0x3e, 0xd2, 0x6f, 0x35, 0x3e, 0xf7, 0xed, 0x02, 0xbf, 0x60, 0xad, 0x8c, 0xbe, 0x6f, 0xf3, 0xae, 0x3d, 0xf3, 0xc1, 0x0d, 0x3f, 0x02, 0xd7, 0x3b, 0x3e, 0x4c, 0xae, 0x2d, 0x3e, 0xb4, 0xc2, 0x75, 0xbf, 0x7c, 0xf3, 0x11, 0xbf, 0xc7, 0x1f, 0xb9, 0xbe, 0x96, 0x30, 0x0f, 0xbf, 0x43, 0xf5, 0xd0, 0x3e, 0xed, 0xb6, 0xe7, 0x3e, 0xe8, 0x1b, 0x07, 0x3f, 0x5e, 0x63, 0x65, 0xbd, 0x27, 0xa6, 0x01, 0x3f, 0xe3, 0x5a, 0xbd, 0xbe, 0x74, 0x99, 0xb1, 0xbe, 0x03, 0x03, 0x11, 0x3d, 0x63, 0xb1, 0xed, 0x3d, 0x46, 0x9d, 0x8b, 0x3e, 0x56, 0x71, 0x1d, 0x3f, 0x85, 0xcf, 0x02, 0x3d, 0xdd, 0x97, 0x88, 0xbe, 0xe0, 0xdb, 0x5c, 0x3c, 0xbe, 0xec, 0xdb, 0xbe, 0x59, 0xc4, 0x20, 0x3e, 0x35, 0x55, 0x6f, 0xbe, 0x0b, 0xc6, 0x73, 0xbe, 0xfe, 0xd8, 0x05, 0xbe, 0x5d, 0x90, 0x70, 0x3c, 0x65, 0x61, 0x58, 0x3f, 0xa2, 0xb5, 0x28, 0x3e, 0x07, 0xd5, 0xd4, 0xbd, 0x6e, 0xcf, 0x79, 0x3f, 0x78, 0x86, 0x12, 0x3e, 0x0f, 0x62, 0xfb, 0x3e, 0x6a, 0xb6, 0x76, 0xbc, 0x6f, 0x23, 0xf3, 0x3e, 0x62, 0x18, 0x18, 0xbe, 0xcc, 0x19, 0x99, 0x3e, 0x05, 0x2a, 0x23, 0xbd, 0x25, 0xe2, 0xc6, 0xbe, 0xec, 0xd7, 0x14, 0xbc, 0xff, 0x52, 0x6b, 0xbe, 0x10, 0xfd, 0xdc, 0xbd, 0xe9, 0xe7, 0xf2, 0xbd, 0xbe, 0xdc, 0xec, 0xbc, 0x7f, 0x3c, 0x44, 0xbd, 0x17, 0xb5, 0x23, 0xbf, 0xaf, 0x65, 0x0e, 0x3e, 0x07, 0x41, 0xd1, 0x3f, 0x78, 0x87, 0x13, 0x3e, 0xe3, 0x7a, 0x90, 0xbd, 0x80, 0xfb, 0xfc, 0x3d, 0xec, 0xcc, 0x50, 0x3d, 0x74, 0xe7, 0xf5, 0xbf, 0x2b, 0x51, 0xa3, 0xbe, 0x67, 0x5f, 0xa8, 0x3e, 0xbd, 0x99, 0x8a, 0x3f, 0xa6, 0xd6, 0x88, 0xbc, 0xdd, 0x27, 0xed, 0xbf, 0x17, 0xb2, 0x14, 0xc0, 0xdb, 0x65, 0xf0, 0xbd, 0x34, 0x64, 0x0c, 0xbe, 0x3e, 0x0c, 0xdf, 0xbd, 0x73, 0x8e, 0x9b, 0xbe, 0x24, 0x11, 0x33, 0xbe, 0x95, 0x4f, 0x31, 0x3d, 0xf7, 0x43, 0x17, 0xbe, 0x70, 0xdd, 0x99, 0xbf, 0xda, 0xee, 0xdd, 0x3d, 0xcb, 0x93, 0x3c, 0x3e, 0xb0, 0x34, 0x1d, 0x3e, 0x16, 0x96, 0x02, 0xbe, 0x4f, 0x73, 0x83, 0x3e, 0x5f, 0xa5, 0x32, 0x3f, 0xf7, 0x3c, 0x50, 0xbf, 0x59, 0x3a, 0xe4, 0xbd, 0xe1, 0x91, 0x4c, 0xbf, 0x60, 0xc0, 0x86, 0xbe, 0x4b, 0x61, 0x99, 0xbf, 0xfd, 0xcb, 0x0c, 0x3f, 0xc9, 0x90, 0xeb, 0xbf, 0x80, 0x05, 0x52, 0xbd, 0x77, 0xbb, 0xa8, 0x3e, 0x91, 0x7c, 0x18, 0xbe, 0x5f, 0x7b, 0x52, 0xbd, 0x60, 0xc2, 0x16, 0x3c, 0x29, 0x54, 0x7b, 0x3f, 0x17, 0xc4, 0x55, 0xbf, 0xe6, 0x2e, 0x79, 0x3e, 0x85, 0x0f, 0x3d, 0xbe, 0x30, 0xda, 0x84, 0x3d, 0x77, 0xea, 0x11, 0xbf, 0xe2, 0x45, 0xdf, 0x3e, 0x5d, 0x47, 0x0e, 0x3e, 0x20, 0x3c, 0x68, 0xbc, 0xf8, 0xaa, 0xb1, 0x3e, 0x4a, 0xa1, 0x85, 0xbd, 0x53, 0x70, 0xa1, 0xbc, 0x71, 0xaf, 0x18, 0x3e, 0xe6, 0x0b, 0x87, 0xbd, 0xf9, 0x7d, 0xc6, 0x3e, 0x95, 0x05, 0x41, 0xbf, 0x5e, 0x8d, 0x08, 0x3e, 0x55, 0x28, 0x79, 0xbe, 0x65, 0x4c, 0x4a, 0xbf, 0xa9, 0xa9, 0x9c, 0x3e, 0x12, 0x20, 0x79, 0xbe, 0xd0, 0x60, 0x68, 0xbe, 0xbb, 0x88, 0xf0, 0x3e, 0xc0, 0x3d, 0x22, 0xbe, 0x88, 0xa2, 0x8d, 0x3d, 0xbf, 0x1d, 0x88, 0x3e, 0xfa, 0x9a, 0xdd, 0x3d, 0xfb, 0x0b, 0x82, 0x3f, 0x2d, 0x6b, 0xaa, 0xbe, 0x97, 0x1a, 0xaa, 0xbd, 0x7c, 0xf7, 0x89, 0xbe, 0xa3, 0x5d, 0xaa, 0x3f, 0x56, 0x3d, 0x44, 0xbe, 0x90, 0xb3, 0x3b, 0x3c, 0xd7, 0x12, 0x7d, 0xbe, 0xe0, 0xef, 0xa5, 0x3d, 0xbe, 0x66, 0x96, 0x3e, 0xa8, 0x3a, 0x46, 0xbe, 0x17, 0x5e, 0xe1, 0x3d, 0xf3, 0xce, 0xfd, 0xbe, 0xbc, 0x10, 0xe3, 0xbd, 0x84, 0x3f, 0x1b, 0xbe, 0xd1, 0xd1, 0x23, 0x3e, 0xa3, 0x2e, 0xb2, 0xbc, 0xb3, 0x01, 0xfc, 0x3f, 0x75, 0xb7, 0xf2, 0xbe, 0xcf, 0x51, 0x33, 0x3d, 0x20, 0x48, 0x52, 0x3e, 0x29, 0x3e, 0xb2, 0x3e, 0x1a, 0x57, 0x04, 0x3f, 0x8d, 0xc7, 0x85, 0x3d, 0x4b, 0x05, 0xb4, 0xbd, 0xdc, 0xad, 0x4c, 0xbf, 0x23, 0x5c, 0x80, 0x3e, 0x35, 0xbb, 0xa1, 0xbd, 0xdb, 0x81, 0x3a, 0x3f, 0xbc, 0x66, 0x43, 0xbe, 0x13, 0x99, 0x4e, 0x3e, 0x3a, 0x19, 0x3a, 0x3e, 0xab, 0x9f, 0x54, 0xbf, 0x0f, 0xab, 0xda, 0xbe, 0xb7, 0x84, 0x5e, 0xbd, 0x28, 0xb6, 0x33, 0xbe, 0x26, 0xaf, 0xb2, 0x3f, 0x9a, 0x94, 0x28, 0xbe, 0xfa, 0x26, 0xaf, 0xbd, 0xce, 0xe0, 0x23, 0xbd, 0x79, 0x71, 0xec, 0x3e, 0x17, 0x95, 0x78, 0xbf, 0x31, 0x58, 0x88, 0xbe, 0x98, 0x03, 0x9b, 0x3e, 0x16, 0x30, 0x47, 0xbe, 0xbf, 0x64, 0x50, 0x3f, 0xb6, 0xda, 0x0e, 0x3d, 0xe6, 0x4b, 0x64, 0xbe, 0x45, 0xf7, 0xbd, 0xbe, 0x36, 0x6a, 0x90, 0x3f, 0x1a, 0xc0, 0x61, 0x3e, 0xdf, 0x7d, 0x56, 0x3d, 0xba, 0x6b, 0x06, 0xbc, 0x6a, 0x26, 0x5f, 0xbe, 0xf6, 0xd6, 0xb1, 0x3d, 0xdc, 0xfc, 0xc3, 0xbe, 0x5d, 0xe1, 0x9c, 0x3f, 0x6a, 0xb5, 0xe8, 0x3e, 0x0c, 0x2d, 0x10, 0x3f, 0x94, 0x05, 0x77, 0xbf, 0x0a, 0x99, 0xe3, 0x3c, 0x74, 0x29, 0x9a, 0xbc, 0xdc, 0x4d, 0x2c, 0xbf, 0xbc, 0x6f, 0x5d, 0xbd, 0x24, 0x38, 0x82, 0x3e, 0x46, 0x98, 0x0f, 0x3f, 0xe8, 0xee, 0xa8, 0x3d, 0x6d, 0x39, 0x26, 0x3c, 0xae, 0xea, 0x32, 0xbe, 0xcb, 0x59, 0x4d, 0x3e, 0xe4, 0xc2, 0x81, 0x3e, 0x67, 0x47, 0x0a, 0x3d, 0x92, 0x3a, 0x04, 0x3f, 0x12, 0xb4, 0x70, 0x3f, 0x1a, 0xc6, 0xb1, 0x3e, 0x90, 0xe7, 0x61, 0xbe, 0x98, 0xfd, 0xfb, 0xbd, 0x44, 0x8a, 0xb5, 0xbf, 0x23, 0x5a, 0x4f, 0xbd, 0x63, 0xb1, 0xa7, 0x3e, 0x65, 0x65, 0xf0, 0x3e, 0x13, 0x30, 0x59, 0xbd, 0x85, 0xdc, 0x1a, 0x3d, 0xc7, 0x6e, 0xf8, 0x3e, 0xfb, 0xed, 0x1c, 0xbe, 0xc9, 0x76, 0x18, 0x3f, 0x84, 0x0a, 0x81, 0xbf, 0x1e, 0x8f, 0x67, 0xbe, 0x7f, 0x33, 0x6d, 0xbe, 0x16, 0xc5, 0xab, 0x3e, 0xdb, 0xc6, 0xc6, 0xbf, 0x5e, 0x70, 0x5f, 0x3e, 0xcd, 0x81, 0xd9, 0x3d, 0xce, 0xb9, 0x5e, 0xbe, 0xd0, 0x4d, 0xb6, 0x3e, 0x30, 0x29, 0x0e, 0xbc, 0xed, 0xb8, 0xf4, 0x3e, 0x60, 0x91, 0x1e, 0xbf, 0xd9, 0x48, 0x75, 0xbd, 0x41, 0x19, 0xb2, 0xbf, 0x01, 0xf2, 0x24, 0x3f, 0x6f, 0x2a, 0x81, 0x3e, 0x0c, 0x40, 0x97, 0x3e, 0xf7, 0xbd, 0x0a, 0x3f, 0x55, 0xf0, 0x06, 0x3f, 0x5d, 0xaa, 0x4f, 0x3e, 0xbb, 0x35, 0x2c, 0xbe, 0x76, 0x43, 0x39, 0xbf, 0x2e, 0x86, 0x13, 0xbe, 0x6b, 0xe3, 0xe6, 0xbd, 0x2d, 0x14, 0x2b, 0x3e, 0xc0, 0xad, 0x65, 0xbe, 0xcb, 0xdd, 0x6f, 0xbe, 0x8f, 0xba, 0x10, 0xbd, 0x8a, 0xb6, 0x24, 0xbf, 0x7f, 0xd6, 0x03, 0x3e, 0x45, 0x5e, 0xec, 0xbe, 0x92, 0x74, 0x4e, 0xbe, 0x14, 0x32, 0x6f, 0x3f, 0xc3, 0x6d, 0xad, 0x3e, 0xbc, 0x9f, 0x29, 0xbe, 0xac, 0x5b, 0xf9, 0xbd, 0x99, 0xdb, 0xa6, 0x3e, 0xef, 0xfd, 0x63, 0xbe, 0xaa, 0x68, 0xce, 0x3c, 0x43, 0xf1, 0xb1, 0x3e, 0xc6, 0xc4, 0x39, 0xbf, 0x42, 0x39, 0x71, 0x3f, 0x30, 0x65, 0x45, 0x3e, 0x25, 0x3e, 0x51, 0x3e, 0x0f, 0x9e, 0x50, 0x3e, 0x3b, 0x67, 0x89, 0x3f, 0x06, 0x2a, 0x91, 0x3d, 0x22, 0x06, 0x98, 0xbe, 0x4e, 0xc1, 0x57, 0x3e, 0x7a, 0xcc, 0x20, 0xbf, 0x64, 0xf6, 0x36, 0x3e, 0x0c, 0x3e, 0x1a, 0xbe, 0x23, 0xa3, 0x81, 0x3e, 0x0d, 0x95, 0x01, 0x3f, 0xa5, 0x03, 0xbc, 0x3f, 0x09, 0x6c, 0x80, 0xbf, 0xfe, 0x5a, 0x1a, 0x3e, 0x7a, 0x71, 0x99, 0x3e, 0xab, 0xd5, 0xfd, 0xbe, 0xa9, 0xed, 0x26, 0x3e, 0xcf, 0x8b, 0x8c, 0x3d, 0x06, 0x4c, 0x0f, 0x3e, 0x3b, 0x4d, 0xf9, 0x3e, 0x5a, 0x01, 0x8d, 0x3e, 0x65, 0x7e, 0xef, 0x3d, 0x01, 0x95, 0xfd, 0x3d, 0x74, 0x08, 0xd6, 0x3e, 0x9f, 0x56, 0xb4, 0x3d, 0xac, 0xde, 0xcd, 0x3e, 0x9f, 0xf7, 0xc1, 0x3e, 0xb4, 0x41, 0xd8, 0x3d, 0xd1, 0xed, 0x61, 0xbc, 0xde, 0x7c, 0x09, 0xbe, 0x77, 0x63, 0x15, 0xbf, 0xdb, 0x53, 0xcd, 0xbd, 0x39, 0xe3, 0x13, 0x3f, 0x4f, 0xb9, 0x3d, 0x3c, 0x6d, 0xf1, 0xbc, 0xbe, 0x19, 0x85, 0x7c, 0x3f, 0x9e, 0x56, 0xca, 0x3e, 0xca, 0x08, 0x21, 0x3c, 0xab, 0xd4, 0x6b, 0xbd, 0xc2, 0x4f, 0x9d, 0xbd, 0x74, 0x10, 0xce, 0xbd, 0x6e, 0x64, 0x08, 0x3e, 0xf0, 0x1c, 0xc3, 0x3e, 0x17, 0xa6, 0xc5, 0xbe, 0x20, 0x68, 0x03, 0xbc, 0xd4, 0xf1, 0x0f, 0xbe, 0x96, 0x76, 0x49, 0xbc, 0xdb, 0xcb, 0x93, 0x3e, 0x16, 0xaa, 0x28, 0xbe, 0x2b, 0x36, 0x7c, 0x3f, 0xa6, 0xd6, 0x20, 0xbf, 0x34, 0x11, 0x44, 0xbe, 0x69, 0x30, 0x2d, 0x3f, 0x93, 0xdd, 0x02, 0x3f, 0x99, 0x8f, 0xc3, 0x3e, 0xf0, 0xb1, 0x2f, 0x3d, 0x0e, 0xa0, 0x1a, 0xbf, 0xf3, 0x7d, 0x43, 0x3e, 0xe2, 0xa2, 0x48, 0x3e, 0x4c, 0x49, 0xb7, 0xbd, 0x43, 0xed, 0x31, 0x3e, 0x38, 0xa4, 0x59, 0x3e, 0x4d, 0x63, 0x8b, 0x3e, 0x55, 0x02, 0xcf, 0xbd, 0x8b, 0x44, 0x03, 0x3f, 0xe2, 0x66, 0x12, 0x3e, 0xbd, 0x6a, 0x1f, 0x3e, 0xf2, 0xc8, 0x0c, 0x3f, 0xf9, 0x3f, 0x24, 0x3e, 0x93, 0x8c, 0x64, 0x3e, 0x2e, 0x38, 0x6e, 0x3e, 0x80, 0x77, 0x3c, 0xbf, 0x8c, 0x9d, 0x84, 0x3e, 0x73, 0x7a, 0x42, 0x3f, 0xc3, 0x9f, 0x8f, 0x3e, 0x24, 0xbf, 0x3b, 0xbe, 0x28, 0xcc, 0xcd, 0x3e, 0x19, 0x4f, 0xa6, 0x3e, 0xb9, 0xe1, 0x1f, 0xbd, 0x87, 0x52, 0xe1, 0xbd, 0x8c, 0x3c, 0xfd, 0x3d, 0x15, 0x90, 0x74, 0xbe, 0x90, 0xd1, 0x69, 0xbd, 0x21, 0x96, 0xa8, 0xbd, 0xb5, 0x45, 0x08, 0xbf, 0xfd, 0x00, 0x8f, 0x3e, 0xb9, 0x55, 0x27, 0xbe, 0x6a, 0xc3, 0x25, 0x3e, 0xd3, 0x36, 0xbc, 0x3e, 0xfb, 0xa4, 0xbc, 0x3d, 0x3a, 0xb2, 0x69, 0x3f, 0xb5, 0x0a, 0x10, 0xbf, 0xcb, 0x7d, 0x2a, 0xbe, 0xa6, 0xba, 0xbf, 0x3d, 0xf0, 0xe4, 0xf5, 0x3e, 0x30, 0x10, 0xc8, 0x3e, 0x24, 0x9d, 0x01, 0x3c, 0xc5, 0x67, 0x01, 0xbf, 0x7c, 0x59, 0x78, 0x3d, 0xb2, 0x97, 0x65, 0x3e, 0xd6, 0xed, 0x73, 0xbe, 0x41, 0x3e, 0x8d, 0xbe, 0x63, 0x70, 0xb7, 0x3e, 0xcb, 0xe4, 0x9b, 0x3e, 0xab, 0x9a, 0x06, 0x3f, 0xf9, 0x81, 0x12, 0x3f, 0x87, 0x5a, 0x39, 0xbe, 0x9b, 0x48, 0x65, 0x3e, 0xd5, 0xf6, 0x93, 0x3f, 0x11, 0x59, 0xb2, 0x3e, 0x2e, 0x1c, 0x61, 0xbe, 0xeb, 0xb9, 0x37, 0x3e, 0xac, 0xf7, 0x14, 0xbf, 0xfe, 0xf4, 0xe7, 0xbd, 0xc1, 0x09, 0xa1, 0x3e, 0x33, 0xa0, 0x32, 0x3e, 0xc4, 0x91, 0x8c, 0x3d, 0x47, 0x93, 0xbd, 0x3d, 0x80, 0xba, 0x49, 0x3e, 0xe6, 0x63, 0x53, 0x3e, 0xc0, 0x29, 0x9a, 0x3e, 0x01, 0xac, 0xad, 0xbe, 0x4f, 0x45, 0xa6, 0x3d, 0x0c, 0xdd, 0xad, 0x3e, 0xb5, 0xfa, 0xa9, 0xbe, 0xcf, 0xba, 0xd3, 0x3d, 0x62, 0x09, 0x06, 0xbe, 0xb3, 0x4e, 0x59, 0xbd, 0x7a, 0xd0, 0xbb, 0x3d, 0x6e, 0x39, 0x6e, 0x3e, 0xb4, 0x53, 0x87, 0xbe, 0xb8, 0x6e, 0x63, 0xbf, 0x0d, 0x94, 0x14, 0xbf, 0x18, 0xd2, 0x99, 0xbd, 0x7a, 0xd4, 0xad, 0xbf, 0xf2, 0x46, 0x34, 0x3f, 0x58, 0x8b, 0x76, 0x3e, 0xa2, 0xf8, 0x8a, 0xbf, 0xf7, 0x63, 0x52, 0x3f, 0x73, 0x44, 0x87, 0x3e, 0xe3, 0x30, 0xf4, 0x3e, 0xdc, 0xb0, 0x89, 0x3e, 0xd2, 0x08, 0xc5, 0x3d, 0x5d, 0x75, 0x47, 0xbe, 0x65, 0x5e, 0x24, 0x3e, 0x44, 0x54, 0xb3, 0xbf, 0x7f, 0xa7, 0x03, 0xbf, 0x9e, 0x7b, 0xa5, 0xbd, 0xaf, 0x59, 0x1f, 0xbf, 0x43, 0x40, 0xcc, 0xbe, 0xe0, 0x88, 0xd2, 0xbd, 0x92, 0x8a, 0x7b, 0x3e, 0xf7, 0x0b, 0xef, 0xbb, 0xb5, 0x2e, 0x4f, 0x3f, 0x5c, 0x27, 0x8d, 0xbf, 0xc9, 0x1c, 0x87, 0xbf, 0xaa, 0xbc, 0x92, 0xbe, 0x01, 0x76, 0xdf, 0x3e, 0x6b, 0x4b, 0x61, 0xbf, 0x26, 0x85, 0x8f, 0xbe, 0x4e, 0xf6, 0x76, 0x3e, 0x10, 0x22, 0x28, 0x3f, 0x2d, 0x8e, 0x8e, 0xbe, 0x52, 0x0c, 0x16, 0x3e, 0xb6, 0xb8, 0x3c, 0x3e, 0xc5, 0x07, 0xd2, 0xbd, 0xca, 0x26, 0xae, 0x3f, 0x55, 0x82, 0xed, 0x3e, 0xd3, 0xdc, 0x96, 0xbc, 0x31, 0x55, 0xe7, 0x3e, 0x8e, 0xc2, 0x18, 0x3e, 0x34, 0xbb, 0x2e, 0x3e, 0x74, 0xef, 0x31, 0xbf, 0xc6, 0x88, 0x4e, 0x3f, 0xf2, 0x79, 0x45, 0x3e, 0x0a, 0xbf, 0x91, 0xbf, 0x8d, 0x55, 0x8c, 0xbe, 0x5d, 0x17, 0x9d, 0xbe, 0x83, 0x4c, 0x93, 0x3d, 0xf5, 0xae, 0x16, 0xbe, 0xe3, 0x45, 0xff, 0xbe, 0x7d, 0x46, 0x71, 0x3e, 0xb7, 0x2d, 0x16, 0x3c, 0x49, 0xbd, 0x17, 0x3f, 0x19, 0xd6, 0x2a, 0xbd, 0x0e, 0xdb, 0x13, 0xbb, 0x7f, 0x61, 0x82, 0xbf, 0x7e, 0xcb, 0x2b, 0x3f, 0x0f, 0xcc, 0x2d, 0xbe, 0xbd, 0x33, 0x68, 0x3e, 0xb0, 0x55, 0x93, 0x3f, 0x7b, 0xab, 0x5e, 0x3e, 0xa0, 0x84, 0x90, 0x3e, 0xef, 0x89, 0xf1, 0xbd, 0x2e, 0xd1, 0xe7, 0xbe, 0x08, 0x8a, 0x0e, 0xbc, 0xb5, 0x99, 0x51, 0xbe, 0x5d, 0xc7, 0x39, 0xbe, 0x30, 0xa3, 0xfe, 0x3e, 0x01, 0x42, 0x25, 0xbf, 0xbf, 0x76, 0x07, 0xbf, 0xcf, 0xab, 0x48, 0x3e, 0x37, 0xd4, 0x47, 0x3f, 0xca, 0x22, 0xb7, 0xbf, 0xe6, 0x61, 0x9a, 0xbe, 0xa8, 0xaa, 0x82, 0x3d, 0x02, 0x80, 0x86, 0x3d, 0x04, 0x88, 0x0a, 0xbf, 0xf7, 0xf6, 0x81, 0x3e, 0x81, 0x09, 0x86, 0x3e, 0x02, 0xf3, 0x9d, 0x3e, 0x4b, 0xc2, 0x69, 0x3e, 0x0c, 0x0b, 0x44, 0x3e, 0x77, 0x0b, 0x91, 0x3f, 0x31, 0x1c, 0xfb, 0xbe, 0xc0, 0xf3, 0x07, 0xbe, 0xe2, 0x70, 0x6d, 0xbf, 0x16, 0x94, 0x61, 0x3f, 0xae, 0x74, 0x47, 0x3e, 0xcd, 0x39, 0xc2, 0x3e, 0x75, 0x3e, 0x0c, 0xbe, 0x40, 0x2b, 0xc7, 0x3e, 0x1c, 0x0c, 0x7a, 0x3b, 0xd1, 0xe5, 0x2a, 0xbd, 0x95, 0x20, 0x3d, 0xbe, 0x39, 0x78, 0xb0, 0x3e, 0x79, 0x4a, 0x10, 0x3e, 0xac, 0xf5, 0x1a, 0xbe, 0x75, 0x27, 0x1e, 0xbe, 0x54, 0xc4, 0x99, 0x3d, 0x63, 0x24, 0x89, 0x3e, 0x00, 0x63, 0x13, 0xbf, 0xeb, 0xcd, 0x45, 0xbe, 0x3e, 0x41, 0x89, 0xbe, 0x68, 0x0a, 0x13, 0x3e, 0xba, 0x2d, 0x30, 0x3e, 0x2a, 0x0f, 0x8c, 0x3d, 0xb4, 0x78, 0x8f, 0x3e, 0x55, 0xe3, 0x61, 0xbd, 0xe1, 0x90, 0xa4, 0x3e, 0xe1, 0xe1, 0x8b, 0x3f, 0x86, 0xba, 0xac, 0x3d, 0x45, 0x27, 0x9b, 0x3e, 0xf5, 0x9d, 0x22, 0xbe, 0xd9, 0x27, 0x75, 0x3f, 0x3c, 0x3a, 0xce, 0x3c, 0x52, 0xac, 0x08, 0x3d, 0x93, 0xf0, 0x1f, 0xbf, 0x2d, 0x19, 0x78, 0xbe, 0xb0, 0xb1, 0x0e, 0x3d, 0x50, 0x4f, 0x40, 0xbf, 0xb6, 0xc6, 0x85, 0xbe, 0x56, 0xc7, 0x14, 0xbf, 0x50, 0xda, 0xff, 0xbc, 0xb5, 0x64, 0xc0, 0xbe, 0x51, 0x27, 0xdb, 0xbd, 0xbe, 0x46, 0x62, 0xbd, 0xf9, 0x5a, 0xee, 0x3f, 0x6a, 0x1e, 0x80, 0xbe, 0x32, 0xd6, 0x0a, 0x3e, 0x9c, 0x4d, 0x13, 0x3c, 0xfe, 0xb0, 0x09, 0x3f, 0x71, 0x65, 0xc1, 0xbe, 0x1f, 0xc5, 0x0f, 0xbf, 0x9a, 0x8f, 0x20, 0xbd, 0x6b, 0xf1, 0x58, 0x3f, 0x0f, 0x32, 0xe3, 0xbe, 0xcb, 0xcb, 0xac, 0x3e, 0x95, 0xf2, 0xa5, 0xbe, 0xa4, 0x1e, 0xef, 0xbe, 0xc7, 0x16, 0x8f, 0x3d, 0xfc, 0x3b, 0xe1, 0xbc, 0xac, 0x79, 0xd3, 0xbe, 0xa8, 0x08, 0x9a, 0xbe, 0xb8, 0x33, 0x68, 0xbe, 0x3d, 0xe5, 0x6b, 0x3e, 0x75, 0x1b, 0xb4, 0x3f, 0x49, 0xfa, 0x13, 0x3e, 0x17, 0xed, 0x3a, 0xbd, 0xec, 0x7b, 0x07, 0xbd, 0xa4, 0x69, 0xf2, 0x3d, 0x97, 0x71, 0x61, 0x3f, 0xd3, 0xd6, 0xf3, 0xbd, 0x7c, 0xd7, 0x0f, 0xbf, 0x11, 0xe3, 0x56, 0x3e, 0x54, 0x73, 0x81, 0x3f, 0xca, 0xd0, 0x53, 0x3e, 0x51, 0x69, 0x08, 0x3f, 0xe8, 0xd5, 0xae, 0x3e, 0x3d, 0xb3, 0x62, 0x3f, 0x21, 0xfc, 0xb0, 0xbc, 0x1a, 0xe2, 0xff, 0x3d, 0xbc, 0xe0, 0x57, 0xbf, 0x26, 0xd7, 0x61, 0xbe, 0xfe, 0x79, 0x63, 0x3e, 0x8b, 0x2d, 0x48, 0xbf, 0xb9, 0xaa, 0xa4, 0x3f, 0x27, 0x18, 0xa2, 0xbd, 0xa3, 0xa6, 0x12, 0x40, 0xcb, 0x14, 0x16, 0xbf, 0x06, 0x58, 0x73, 0x3d, 0x75, 0xe6, 0xe2, 0xbe, 0xb8, 0xa7, 0xcb, 0x3e, 0xae, 0xa0, 0x96, 0x3b, 0x6e, 0xa0, 0x00, 0x3f, 0xfd, 0xab, 0x8e, 0xbd, 0x4f, 0xbd, 0x5e, 0x3e, 0xc6, 0x32, 0x18, 0xbe, 0x24, 0xf0, 0x7c, 0xbe, 0x29, 0x8a, 0x57, 0xbf, 0x3d, 0x40, 0xef, 0x3e, 0xc7, 0xd2, 0x70, 0xbe, 0x02, 0x6c, 0x9f, 0x3d, 0xe2, 0x47, 0x74, 0x3f, 0xeb, 0x23, 0x83, 0x3e, 0x64, 0x4b, 0x48, 0x3e, 0x4d, 0xfd, 0xb2, 0xbd, 0x9e, 0xbc, 0x2e, 0x3e, 0x43, 0xf0, 0x9b, 0xbe, 0x9f, 0xef, 0x1e, 0xbf, 0x31, 0x0e, 0x98, 0xbe, 0x4d, 0xf7, 0xdd, 0xba, 0x93, 0xa3, 0x54, 0xbf, 0xe6, 0x67, 0x14, 0xbf, 0xbf, 0x4a, 0x5e, 0xbd, 0xe7, 0xdc, 0x12, 0x3f, 0xb3, 0x40, 0x6d, 0xbf, 0x52, 0x32, 0x39, 0x3e, 0x0e, 0xd1, 0x6e, 0x3e, 0xbe, 0x1e, 0x5d, 0x3f, 0x93, 0x9c, 0x89, 0x3e, 0x08, 0x82, 0x85, 0x3e, 0x25, 0x0f, 0x32, 0x3f, 0x83, 0x1e, 0x1c, 0x3f, 0xbb, 0x00, 0x2e, 0x3f, 0x6a, 0x6c, 0x90, 0x3e, 0xf7, 0xf3, 0x45, 0xbd, 0x6d, 0xff, 0x39, 0x3e, 0xce, 0xa8, 0x26, 0x3f, 0x2f, 0xdd, 0x86, 0xbf, 0x57, 0x21, 0xea, 0x3e, 0xd7, 0xbd, 0x90, 0x3d, 0x9e, 0xf4, 0xff, 0xff, 0x04, 0x00, 0x00, 0x00, 0x9c, 0x09, 0x00, 0x00, 0x2c, 0xe5, 0xd2, 0xbe, 0xe3, 0x8b, 0x5e, 0x3f, 0xfa, 0x29, 0x92, 0xbe, 0x06, 0xf0, 0x64, 0x3e, 0x34, 0xc4, 0x71, 0xbd, 0xcf, 0xaa, 0xf8, 0xbe, 0xec, 0x21, 0xbb, 0x3e, 0x7b, 0x10, 0x92, 0xbb, 0x99, 0xc0, 0x48, 0x3e, 0xdf, 0x42, 0x02, 0x3e, 0xb9, 0x08, 0x3b, 0xbe, 0xe3, 0xb9, 0x4f, 0x3e, 0x4f, 0x00, 0xc9, 0xbe, 0x15, 0x1d, 0xa1, 0xbf, 0xa6, 0x58, 0x82, 0x3d, 0x6c, 0xcf, 0x94, 0xbf, 0xd0, 0xbc, 0x69, 0xbe, 0xdb, 0x12, 0x07, 0x3f, 0xaa, 0x33, 0xdc, 0x3e, 0xab, 0xbe, 0x25, 0xbf, 0x17, 0x4b, 0x1b, 0x3f, 0xc1, 0x09, 0x18, 0xbe, 0x22, 0x4a, 0x06, 0xbf, 0xff, 0xe4, 0x21, 0xbf, 0x63, 0xd7, 0xd1, 0x3c, 0x31, 0xb0, 0xb1, 0xbd, 0xd5, 0x5c, 0xae, 0xbe, 0x2f, 0x6e, 0xec, 0x3d, 0xd5, 0x30, 0x21, 0xbe, 0xbf, 0x00, 0x8e, 0xbe, 0x70, 0x84, 0xd5, 0xbe, 0x2c, 0xe1, 0xa4, 0xbd, 0xe9, 0x5b, 0x49, 0xbe, 0xa1, 0xcb, 0x8c, 0xbe, 0xd1, 0x58, 0x85, 0x3e, 0x04, 0x6b, 0x36, 0xbe, 0x43, 0xdb, 0xfb, 0x3d, 0xa6, 0xd8, 0x11, 0x3f, 0x09, 0x2d, 0x74, 0x3e, 0x4a, 0x71, 0xda, 0x3e, 0xce, 0xd2, 0xc0, 0x3e, 0x28, 0x61, 0xc5, 0xbd, 0xc4, 0x8a, 0x0d, 0x3e, 0x0b, 0x7f, 0xfc, 0xbf, 0x3d, 0xc9, 0x0f, 0xbf, 0x80, 0x27, 0xa5, 0xbe, 0xeb, 0x6b, 0x37, 0x3c, 0x7b, 0x17, 0x38, 0x3e, 0x56, 0x40, 0x13, 0xbe, 0xc5, 0x1a, 0xd5, 0xbc, 0xe5, 0x71, 0x85, 0xbe, 0x1d, 0x1c, 0x6c, 0xbe, 0x07, 0x6f, 0x03, 0x3f, 0x82, 0x7d, 0x78, 0xbf, 0x83, 0xfb, 0xfe, 0x3e, 0x8d, 0xad, 0x4a, 0x3e, 0x92, 0xb2, 0x02, 0x3f, 0x78, 0xf0, 0x8e, 0x3d, 0xbb, 0x6f, 0xf5, 0xbe, 0x40, 0xef, 0x02, 0x3f, 0x0d, 0xc5, 0x85, 0x3e, 0xe2, 0xd9, 0x8f, 0xbd, 0x54, 0x81, 0x79, 0x3e, 0x14, 0x6e, 0x59, 0xbd, 0xd4, 0x88, 0x67, 0x3d, 0xa5, 0xb1, 0x7e, 0x3e, 0x99, 0x73, 0xcd, 0x3d, 0x2e, 0x4a, 0x22, 0xbf, 0xe6, 0x8b, 0xe0, 0x3d, 0xa4, 0x78, 0xa1, 0x3e, 0x23, 0x3b, 0x4a, 0x3e, 0x8e, 0xa4, 0x2d, 0xbe, 0xf5, 0x1e, 0xe3, 0x3e, 0x7a, 0xcd, 0x8e, 0xbd, 0xc0, 0x6e, 0x69, 0x3e, 0xc9, 0xd2, 0xb3, 0x3e, 0xec, 0x1a, 0x4f, 0xbf, 0x19, 0x94, 0x0b, 0x3e, 0x5c, 0x7f, 0x17, 0x3f, 0xc7, 0xcf, 0x3f, 0xbe, 0x4a, 0xae, 0x3d, 0x3f, 0xbf, 0xcb, 0x18, 0x3e, 0x04, 0x55, 0x4e, 0xc0, 0xbf, 0x6e, 0xd0, 0xbe, 0x89, 0x02, 0x09, 0x3d, 0x2a, 0x13, 0xa5, 0xbd, 0x01, 0x19, 0x83, 0xbe, 0x2a, 0x04, 0x8e, 0x3e, 0x2c, 0x1a, 0x00, 0x40, 0x3f, 0x81, 0x73, 0xbe, 0x6a, 0x3f, 0x2d, 0xbc, 0xf7, 0x15, 0x48, 0x3f, 0xc3, 0x1c, 0xfa, 0xbd, 0xf2, 0x0b, 0x54, 0xbe, 0x8d, 0x54, 0x82, 0x3e, 0x2a, 0xc8, 0x8d, 0x3e, 0xd8, 0x44, 0x27, 0x3e, 0xab, 0x18, 0xcb, 0xbe, 0x1c, 0x33, 0xb6, 0xbd, 0xd0, 0x8b, 0x80, 0x3e, 0x56, 0xbe, 0x78, 0x3e, 0x7d, 0xa4, 0xc9, 0xbd, 0xe1, 0xda, 0x40, 0x3e, 0x8b, 0x68, 0xe5, 0xbe, 0x0d, 0xb5, 0xac, 0x3c, 0x9b, 0x66, 0x9b, 0xbd, 0x9f, 0x6f, 0xb4, 0xbe, 0xdb, 0x5a, 0xdd, 0x3d, 0xc8, 0xe0, 0x05, 0xbd, 0x20, 0x29, 0x06, 0x3f, 0x93, 0xd9, 0x1f, 0x3e, 0x7c, 0x4d, 0x1a, 0x3e, 0x10, 0x31, 0x99, 0x3f, 0x76, 0x9d, 0x59, 0x3e, 0x0f, 0x3a, 0xd9, 0x3e, 0x25, 0x4d, 0xf4, 0xbd, 0x62, 0x2e, 0x51, 0xbc, 0x58, 0x4d, 0xa4, 0xbe, 0x21, 0xe5, 0x0f, 0xbe, 0xd4, 0x8f, 0x2d, 0xbf, 0x7b, 0xdc, 0xcf, 0x3d, 0x86, 0x87, 0xa6, 0x3f, 0xff, 0x27, 0x81, 0xbd, 0x93, 0x46, 0x17, 0xbd, 0x1e, 0xfd, 0x4b, 0x3d, 0x5d, 0xde, 0x7f, 0xbe, 0x24, 0xad, 0x41, 0xbe, 0xe8, 0x63, 0x2b, 0x3f, 0xce, 0x25, 0x9d, 0x3e, 0x32, 0x2a, 0x03, 0xbf, 0x42, 0xbe, 0x6a, 0x3e, 0x97, 0xb2, 0xb0, 0x3e, 0xf0, 0xa0, 0xab, 0xbe, 0xe8, 0x5f, 0x2e, 0xc0, 0x10, 0x13, 0xf7, 0x3d, 0x69, 0x93, 0x3a, 0xbd, 0xd0, 0x95, 0x84, 0xbf, 0x14, 0x56, 0x21, 0xbd, 0x80, 0x00, 0x47, 0xbe, 0xdf, 0x90, 0xc6, 0xbd, 0x08, 0x88, 0x81, 0xbe, 0x9b, 0x59, 0x5d, 0xbe, 0xd3, 0x22, 0x29, 0x3f, 0xb1, 0xa0, 0x3b, 0xbe, 0x14, 0xfa, 0x41, 0xbe, 0xe7, 0xf4, 0x43, 0xbf, 0x18, 0x2c, 0x03, 0x3e, 0x71, 0x44, 0x58, 0xbe, 0x88, 0x2e, 0xb0, 0x3f, 0xf6, 0x1e, 0x56, 0x3e, 0x66, 0x49, 0xa1, 0xbe, 0xa6, 0x8e, 0x73, 0xbe, 0x4e, 0xa0, 0xa0, 0xbe, 0x73, 0x8e, 0x9a, 0xbe, 0x2c, 0x90, 0xd1, 0xbd, 0x39, 0xd1, 0x81, 0xbe, 0xf0, 0xbc, 0x04, 0xbe, 0x2c, 0xb2, 0x5b, 0xbe, 0x11, 0xb4, 0x8d, 0xbe, 0xd4, 0x15, 0x8d, 0xbd, 0x54, 0xb9, 0x4c, 0xbe, 0x03, 0x93, 0xf4, 0x3d, 0x9c, 0x7b, 0x0f, 0x3c, 0xc1, 0x17, 0x08, 0xbc, 0x66, 0x41, 0x82, 0xbe, 0x19, 0x75, 0x88, 0xbe, 0x18, 0xf6, 0x11, 0x3f, 0x06, 0x99, 0x3e, 0xbe, 0x9c, 0xb3, 0xb3, 0xbd, 0x81, 0x57, 0xd4, 0x3e, 0x50, 0xfb, 0x02, 0x3e, 0x5f, 0x6f, 0xaf, 0x3e, 0x24, 0x45, 0x16, 0x3f, 0x6a, 0x46, 0x7d, 0x3d, 0x5c, 0x89, 0x9e, 0x3d, 0xa6, 0x20, 0x8c, 0xbe, 0x87, 0xe9, 0x65, 0x3e, 0x69, 0x07, 0x5d, 0xbe, 0xbe, 0xca, 0x44, 0x3d, 0x0c, 0x6c, 0x88, 0x3d, 0x14, 0xce, 0xc2, 0xbe, 0x06, 0x70, 0x13, 0x3f, 0xe7, 0xdd, 0xa7, 0x3d, 0xc8, 0x51, 0x99, 0xbd, 0xe9, 0x00, 0x04, 0xbf, 0xff, 0xae, 0xc6, 0x3d, 0x42, 0x27, 0x42, 0x3e, 0x37, 0x5a, 0x3d, 0x3f, 0xc9, 0x13, 0x50, 0xbf, 0x5a, 0xab, 0xc1, 0xbf, 0x61, 0x00, 0x11, 0x3d, 0xed, 0x2f, 0x2d, 0xbd, 0x4e, 0xf0, 0xab, 0xbe, 0x5e, 0x4f, 0xe0, 0x3e, 0x86, 0xba, 0xb6, 0x3e, 0x79, 0x35, 0xae, 0xbc, 0xa0, 0xe4, 0x4a, 0x3e, 0x9c, 0x25, 0x9d, 0x3b, 0x07, 0xfa, 0x1a, 0xbe, 0xec, 0x44, 0x0d, 0xbc, 0xa7, 0x62, 0x03, 0x3f, 0x9d, 0xf2, 0xf0, 0xbb, 0xa7, 0x03, 0x48, 0x3e, 0x83, 0x82, 0xd8, 0xbd, 0xc9, 0xd3, 0xa7, 0x3e, 0x75, 0xd2, 0x52, 0xbe, 0x83, 0xa2, 0x6b, 0x3e, 0xa3, 0xff, 0xe3, 0xbd, 0xc6, 0xe4, 0x4b, 0x3f, 0x91, 0x1f, 0x04, 0x3e, 0x3c, 0xf5, 0x50, 0x3e, 0xf6, 0xd8, 0xe2, 0xbe, 0x20, 0x98, 0xcc, 0x3e, 0x18, 0xaf, 0x56, 0x3e, 0x45, 0x1b, 0xe0, 0xbe, 0x73, 0xe4, 0xf8, 0xbd, 0x32, 0x57, 0x89, 0x3d, 0xf2, 0x35, 0x99, 0x3d, 0x72, 0x76, 0x82, 0xbf, 0xa7, 0x44, 0x9e, 0xbd, 0x51, 0xa2, 0x83, 0x3e, 0xd7, 0xe4, 0xb3, 0xbd, 0xc3, 0xdb, 0x48, 0x3e, 0xa6, 0xf1, 0x30, 0x3f, 0xe6, 0xd7, 0xbe, 0x3e, 0x07, 0xe8, 0x0c, 0xbe, 0x3f, 0x74, 0x73, 0xbe, 0x67, 0x77, 0x82, 0xbe, 0x21, 0xed, 0x9e, 0xbe, 0x0d, 0x70, 0xa2, 0xbe, 0x4e, 0x24, 0xb3, 0x3d, 0xb2, 0xc0, 0x37, 0xbe, 0x31, 0x26, 0x36, 0x3c, 0xd2, 0x89, 0x87, 0xbe, 0x2c, 0x05, 0xba, 0xbd, 0xc8, 0x5b, 0x92, 0xbe, 0x9d, 0xb0, 0x62, 0x3e, 0x5b, 0x61, 0x6c, 0xbd, 0x08, 0xf7, 0x03, 0xbd, 0xcb, 0x26, 0x22, 0xbe, 0x86, 0x0b, 0x54, 0xbe, 0xc9, 0xc9, 0xad, 0xbf, 0x5c, 0xb1, 0xea, 0xbd, 0x11, 0x71, 0xa6, 0x3e, 0xfa, 0x7f, 0x29, 0x3f, 0x50, 0x7b, 0x81, 0xbd, 0xf1, 0xee, 0x56, 0xbe, 0x1b, 0x65, 0x46, 0x3e, 0x09, 0x72, 0x0b, 0xbf, 0x9d, 0x9f, 0x26, 0xbe, 0x51, 0xa0, 0x8e, 0x3e, 0x8a, 0x91, 0x64, 0x3e, 0x79, 0x17, 0xa3, 0xbc, 0xcf, 0xcc, 0x01, 0xc0, 0xa3, 0x1b, 0x0b, 0xbd, 0xa5, 0x81, 0x51, 0xbd, 0x59, 0xce, 0x4f, 0x3f, 0x34, 0xe3, 0xae, 0x39, 0x8e, 0xeb, 0x78, 0x3e, 0x30, 0x3f, 0xe6, 0xbd, 0x50, 0xed, 0x17, 0xbe, 0x4c, 0x66, 0x2c, 0xbd, 0x5c, 0xc7, 0x27, 0x3f, 0x00, 0xde, 0x8c, 0xbe, 0x12, 0xa8, 0x86, 0xbe, 0x8c, 0x8e, 0x5f, 0xbe, 0x36, 0x4b, 0xce, 0x3d, 0x83, 0x87, 0xb6, 0xbe, 0x65, 0x42, 0x4b, 0xbf, 0xfa, 0x74, 0xf1, 0xbd, 0xdc, 0x88, 0x66, 0x3e, 0x30, 0x52, 0x79, 0x3e, 0xd1, 0x3d, 0xb6, 0x3e, 0x02, 0x1e, 0xa2, 0xbe, 0x3d, 0xb3, 0x86, 0x3e, 0xb6, 0x34, 0x80, 0x3e, 0x1e, 0x40, 0x4d, 0x3e, 0xea, 0x9a, 0x8a, 0x3e, 0xa0, 0x62, 0x43, 0xbe, 0x06, 0x1c, 0x35, 0xbf, 0xd6, 0x2d, 0xe0, 0x3c, 0x74, 0x88, 0xee, 0x3e, 0x9f, 0xfa, 0x8c, 0x3d, 0x17, 0x71, 0xa8, 0xbf, 0x63, 0x8b, 0xb0, 0xbe, 0xba, 0x7f, 0xa6, 0xbd, 0xb3, 0xb6, 0x16, 0x3f, 0x27, 0xd7, 0xcd, 0xbc, 0x82, 0xce, 0x86, 0x3d, 0xc7, 0x64, 0x20, 0x3d, 0x3c, 0xc5, 0x62, 0x3e, 0x69, 0x01, 0x4b, 0x3d, 0x56, 0x8f, 0x9e, 0x3c, 0xe1, 0x1c, 0xd7, 0xbe, 0xe5, 0x83, 0xfc, 0x3d, 0xc0, 0x9a, 0x60, 0xbe, 0x56, 0xe1, 0x93, 0xbd, 0xdc, 0x51, 0x05, 0x3e, 0x7a, 0x03, 0x1c, 0xbf, 0xbf, 0xc0, 0xd3, 0x3a, 0xf7, 0x11, 0xf6, 0x3c, 0x28, 0x1f, 0x44, 0xbf, 0xd2, 0x7b, 0x96, 0x3e, 0x28, 0x03, 0xb8, 0x3e, 0xa3, 0x8c, 0x84, 0x3e, 0x2c, 0x3a, 0xd6, 0xbe, 0x7c, 0x54, 0xcc, 0x3e, 0x89, 0x76, 0x14, 0x3f, 0x44, 0xc5, 0x1c, 0xbf, 0xcc, 0x1f, 0x5f, 0xbe, 0xa1, 0x79, 0xc8, 0x3e, 0xff, 0xc9, 0x53, 0xbd, 0xd8, 0xfd, 0x4f, 0x3e, 0x9d, 0x75, 0xf7, 0xbf, 0x31, 0x43, 0x49, 0x3e, 0xd1, 0x57, 0x8c, 0x3e, 0x0a, 0x41, 0x3a, 0xbf, 0x5d, 0xf0, 0x7e, 0x3e, 0x82, 0xf1, 0xdd, 0xbe, 0xa1, 0x34, 0xe5, 0xbe, 0x42, 0x9a, 0x10, 0x3f, 0x3d, 0xe9, 0xae, 0x3e, 0x45, 0xcb, 0x8b, 0x3d, 0x72, 0xad, 0x3d, 0x3f, 0x84, 0x4a, 0xd6, 0x3e, 0x5d, 0xdc, 0x0e, 0xbf, 0xfd, 0xa2, 0xa7, 0xbe, 0x93, 0x2c, 0x11, 0x3e, 0xbb, 0x72, 0xb3, 0x3f, 0x3b, 0x31, 0x15, 0x3f, 0x26, 0xcb, 0xa0, 0x3d, 0x06, 0xbb, 0x62, 0x3f, 0x83, 0x94, 0x7b, 0x3e, 0x2a, 0x09, 0x66, 0x3a, 0x38, 0x72, 0x16, 0x3e, 0x32, 0x27, 0x7b, 0x3e, 0x18, 0x1a, 0xd9, 0xbd, 0xda, 0xec, 0x17, 0xc0, 0x47, 0xfb, 0xab, 0x3e, 0x54, 0x5d, 0xc1, 0x3c, 0x7e, 0x5f, 0x2a, 0x3e, 0x55, 0xff, 0xa8, 0x3d, 0x5b, 0x53, 0xc2, 0x3d, 0x7b, 0xfe, 0x74, 0xbe, 0x7d, 0xd3, 0xa3, 0xbe, 0x6a, 0x57, 0xd2, 0xbd, 0x4e, 0xa7, 0x57, 0x3e, 0x36, 0x06, 0x33, 0xbe, 0x8c, 0xf0, 0x65, 0xbd, 0x50, 0x5f, 0xc3, 0x3d, 0x28, 0x7c, 0xc7, 0xbe, 0x61, 0x67, 0xc1, 0xbd, 0x2d, 0x82, 0x18, 0x3f, 0xf5, 0xc6, 0x32, 0x3e, 0x5d, 0x99, 0xae, 0x3e, 0xbe, 0xd6, 0x15, 0x3f, 0x71, 0xc8, 0x3c, 0x3e, 0x27, 0x0f, 0x37, 0xbe, 0xf5, 0x88, 0xf7, 0xbf, 0x24, 0x11, 0x75, 0x3e, 0x84, 0xd8, 0xbd, 0x3e, 0x8f, 0xe6, 0x86, 0xbf, 0xe9, 0x47, 0xeb, 0x3e, 0x8d, 0x40, 0x34, 0x3e, 0x41, 0xfd, 0xd7, 0xbe, 0xe1, 0x2c, 0x1c, 0x3e, 0x80, 0x71, 0x7d, 0xbe, 0x64, 0x7a, 0xc6, 0x3e, 0x55, 0xac, 0xc5, 0xbf, 0x5f, 0xfe, 0xbd, 0x3e, 0xa8, 0xe7, 0x05, 0x3e, 0xea, 0x5f, 0x1a, 0xbe, 0x75, 0x73, 0x9c, 0x3e, 0xa5, 0xc6, 0x9f, 0x3f, 0xf0, 0xa4, 0xfa, 0x3e, 0xcd, 0x26, 0xdb, 0xbe, 0x3c, 0x9b, 0x7f, 0xbf, 0x30, 0xa9, 0xd4, 0x3d, 0x30, 0x27, 0x9e, 0xbe, 0x3d, 0x5c, 0xf0, 0xbe, 0xa7, 0xe0, 0x10, 0x3f, 0x0d, 0x8f, 0xb6, 0x3e, 0x4c, 0x2e, 0x86, 0xbd, 0x09, 0x57, 0xad, 0x3e, 0x2c, 0x2c, 0x59, 0xbd, 0x5f, 0x67, 0xb8, 0xbe, 0xa1, 0xa3, 0x2e, 0xbd, 0xa3, 0xef, 0x22, 0x3e, 0x51, 0x93, 0x54, 0xbf, 0xef, 0x8f, 0x09, 0x3c, 0xab, 0xb2, 0xa2, 0xbe, 0xc9, 0x00, 0x90, 0xbe, 0x87, 0xb4, 0x66, 0xbd, 0x99, 0x10, 0x90, 0xbe, 0xeb, 0x46, 0x3e, 0xbe, 0x03, 0x61, 0x75, 0xbe, 0x2a, 0xa4, 0x5f, 0x3e, 0xe4, 0xaf, 0x34, 0xbe, 0x3b, 0x34, 0x32, 0xbb, 0x55, 0xc7, 0x85, 0xbe, 0x38, 0x30, 0x9e, 0xbe, 0x82, 0xa2, 0x9a, 0xbe, 0xbc, 0x56, 0x0c, 0xbd, 0xc4, 0xc0, 0x3c, 0x3e, 0x8a, 0xe5, 0x5c, 0xbe, 0x1f, 0xcd, 0x09, 0x3e, 0xf0, 0xd2, 0x5e, 0xbf, 0x8d, 0x7c, 0xbc, 0x3e, 0x93, 0x04, 0x6f, 0x3d, 0x16, 0x46, 0x76, 0x3e, 0x02, 0x24, 0x28, 0xbe, 0xcf, 0x21, 0xa5, 0x3e, 0x18, 0x54, 0x6e, 0xbe, 0xa8, 0xcf, 0xf2, 0x3e, 0xae, 0xf6, 0x1b, 0x3e, 0x67, 0xcf, 0x90, 0x3e, 0x43, 0xf3, 0xc7, 0xbe, 0x4f, 0xce, 0x6f, 0xbe, 0x2c, 0x14, 0x40, 0xbd, 0x0b, 0x22, 0x10, 0xbe, 0xee, 0x81, 0xe1, 0x3e, 0x0c, 0x9f, 0x27, 0xbf, 0x43, 0x58, 0xa7, 0xbe, 0x91, 0xed, 0xe4, 0x3b, 0xe5, 0x7d, 0x5a, 0xbe, 0x2c, 0x5e, 0xd9, 0xbe, 0xe2, 0xc2, 0x49, 0x3d, 0x7c, 0x41, 0xe8, 0xbf, 0xc9, 0x5e, 0x3b, 0x3e, 0x8d, 0xfa, 0x99, 0x3e, 0x34, 0x3f, 0x3d, 0xbe, 0x20, 0x0a, 0x7e, 0x3e, 0x8f, 0xf6, 0x6f, 0x3e, 0x54, 0x8c, 0x8f, 0x3f, 0x74, 0xbe, 0x42, 0xbf, 0x69, 0xb9, 0x97, 0xbe, 0x2e, 0x59, 0x83, 0xbf, 0xba, 0x32, 0x79, 0xbb, 0xd0, 0x30, 0xb3, 0xbe, 0x6b, 0x77, 0x23, 0x3f, 0xc4, 0x7e, 0xa0, 0x3d, 0x0f, 0xc4, 0x14, 0xbf, 0x45, 0x03, 0xcd, 0x3d, 0xc7, 0x4d, 0xd2, 0x3d, 0x6b, 0x03, 0x70, 0x3e, 0x6c, 0x31, 0x30, 0x3e, 0x23, 0xae, 0xad, 0x3e, 0x58, 0xde, 0x35, 0xbe, 0xa3, 0xab, 0x02, 0x3f, 0x96, 0xf1, 0xea, 0xbe, 0x30, 0x3d, 0x21, 0xbe, 0xa1, 0x63, 0x91, 0xbd, 0x09, 0x88, 0x3f, 0x3e, 0x14, 0x13, 0xf3, 0xbd, 0xae, 0x49, 0x5a, 0xbc, 0xfa, 0x99, 0xbd, 0xbd, 0xc1, 0xfc, 0xbd, 0x3c, 0x71, 0x58, 0x3c, 0xbe, 0xfe, 0xc3, 0x8f, 0x3e, 0xf0, 0xdb, 0xbd, 0x3e, 0xe2, 0xae, 0x05, 0xbe, 0xf6, 0x9e, 0xe2, 0x3e, 0x68, 0x64, 0x5e, 0x3e, 0x4d, 0xf4, 0xd3, 0xbf, 0xe3, 0xda, 0x1a, 0x3e, 0x9d, 0x6e, 0x06, 0x3f, 0x3a, 0x3b, 0x5c, 0xbf, 0x8e, 0xe1, 0x5c, 0xbe, 0x9f, 0x53, 0x91, 0x3e, 0x7b, 0x0d, 0xe3, 0x3c, 0xf4, 0xb8, 0x04, 0xbf, 0x4d, 0xac, 0xd5, 0x3d, 0x55, 0xea, 0x5f, 0x3e, 0x30, 0x57, 0x97, 0x3e, 0xa9, 0x47, 0x0d, 0x3e, 0xbc, 0xae, 0xdf, 0xbe, 0x3b, 0x29, 0x52, 0x3e, 0x06, 0x2d, 0xcd, 0x3e, 0x17, 0xc3, 0x38, 0x3f, 0x3d, 0x95, 0xb1, 0x3e, 0x01, 0xe9, 0x76, 0x3d, 0xa5, 0x77, 0x22, 0xbf, 0x74, 0xbd, 0xc4, 0xbe, 0xca, 0x38, 0x73, 0xbe, 0x10, 0x2a, 0xf1, 0xbe, 0x3f, 0x92, 0x0c, 0xbe, 0x7c, 0x93, 0x27, 0x3e, 0x91, 0x2f, 0x57, 0x3f, 0x5e, 0xc5, 0x23, 0xbf, 0xb3, 0x71, 0x4a, 0x3e, 0x12, 0x64, 0x92, 0x3e, 0x84, 0x44, 0x11, 0x3e, 0x85, 0xaf, 0x73, 0x3e, 0xbf, 0x5a, 0x5a, 0x3e, 0xa9, 0x55, 0x2f, 0x3d, 0x35, 0x57, 0x4a, 0x3e, 0x08, 0x2f, 0x54, 0xbf, 0x5f, 0xe3, 0xc8, 0xbe, 0xfa, 0x76, 0x5b, 0x3d, 0x93, 0x8c, 0x3e, 0xbf, 0x8c, 0xa1, 0x7a, 0xbc, 0xd0, 0x2b, 0x8c, 0x3e, 0xc6, 0x8c, 0x28, 0x3a, 0xe1, 0xa0, 0x05, 0xc0, 0x44, 0x18, 0x18, 0x3e, 0xbe, 0x92, 0x2a, 0x3d, 0xaa, 0xca, 0x4c, 0x3e, 0x14, 0x9f, 0x10, 0xbf, 0x54, 0xd3, 0x1f, 0x3f, 0xa7, 0x5d, 0xee, 0x3d, 0xef, 0xe5, 0x55, 0xbe, 0xe3, 0xb8, 0x8a, 0xbe, 0xd8, 0xc4, 0xc0, 0xba, 0x00, 0x0d, 0x0d, 0xbe, 0xd7, 0x4d, 0x2d, 0xbe, 0x5a, 0x17, 0x91, 0xbe, 0xbb, 0x66, 0xbe, 0xbd, 0xe8, 0x68, 0x0c, 0xbd, 0x1b, 0x61, 0x6a, 0x3e, 0xf4, 0xb3, 0x23, 0x3e, 0x36, 0x56, 0x8f, 0xbe, 0x92, 0x0c, 0x74, 0xbe, 0xcb, 0x3d, 0x3a, 0xbe, 0x6a, 0xaf, 0x9b, 0xbe, 0x60, 0xc8, 0x1d, 0xbc, 0x69, 0x94, 0xd5, 0x3e, 0xf7, 0xf1, 0x19, 0xbf, 0x02, 0x1a, 0x9c, 0x3e, 0x7d, 0xdb, 0x67, 0xbe, 0x01, 0x3a, 0x0d, 0xbe, 0x1e, 0x1b, 0x18, 0x3e, 0xc6, 0xa9, 0xa9, 0xbe, 0x87, 0x9b, 0x97, 0xc0, 0x69, 0x00, 0x05, 0xbf, 0x87, 0x92, 0xa4, 0xbe, 0x4f, 0xa0, 0xbd, 0xbe, 0x9c, 0x24, 0x56, 0x3d, 0xab, 0x3a, 0xd7, 0x3e, 0x4a, 0x66, 0x87, 0x3f, 0xc4, 0x53, 0xfe, 0xbe, 0xec, 0xf7, 0xf0, 0x3e, 0xd9, 0xbe, 0x9c, 0xbf, 0x56, 0xba, 0xbe, 0x3d, 0x5c, 0xd8, 0x07, 0x3c, 0x51, 0x56, 0x0d, 0x3f, 0x77, 0x7a, 0xc2, 0xbe, 0x37, 0x85, 0xde, 0x3e, 0xff, 0x2e, 0xe0, 0x3d, 0xeb, 0x7b, 0x1c, 0x3d, 0x9a, 0x74, 0xb0, 0xbe, 0xd6, 0x40, 0xdb, 0x3d, 0xc8, 0x0d, 0x8a, 0xbd, 0xef, 0x6e, 0xad, 0xbe, 0x30, 0x53, 0x00, 0x3e, 0xf8, 0x90, 0xfe, 0xbb, 0xf1, 0x56, 0xb2, 0x3d, 0x44, 0x17, 0x0a, 0xbf, 0x4e, 0x14, 0x64, 0xbe, 0x5d, 0x1e, 0xc1, 0x3e, 0xc3, 0xc0, 0xa2, 0x3e, 0x1d, 0xe7, 0xba, 0xbe, 0xe0, 0xd0, 0x79, 0xbe, 0x14, 0xfc, 0x8d, 0x3d, 0xb7, 0x8c, 0xa9, 0x3d, 0xba, 0x16, 0x61, 0x3e, 0x2d, 0x12, 0xa9, 0x3e, 0x67, 0x11, 0xc9, 0x3d, 0x58, 0x96, 0xac, 0x3e, 0x8d, 0x66, 0x98, 0xbf, 0xc0, 0x99, 0x70, 0x3d, 0xba, 0x8e, 0x78, 0xbe, 0xf6, 0xf8, 0x04, 0xbf, 0x4b, 0xc6, 0xe0, 0x3e, 0xf8, 0x55, 0x37, 0xbe, 0x92, 0x6c, 0x18, 0x3f, 0x34, 0x7b, 0xa3, 0x3d, 0xc5, 0x04, 0x67, 0xbe, 0x73, 0x1b, 0xe8, 0x3d, 0x39, 0x3b, 0x01, 0xbf, 0x0f, 0x21, 0x05, 0x3f, 0xe3, 0xc0, 0x18, 0x3d, 0xbb, 0xcd, 0xfe, 0xbe, 0x43, 0xd9, 0x1f, 0xbf, 0xc5, 0x16, 0x87, 0x3f, 0xca, 0x13, 0xa4, 0xbb, 0xaa, 0x42, 0x00, 0xbf, 0x0b, 0x7f, 0x82, 0xbf, 0x96, 0x06, 0x18, 0xbe, 0x89, 0xcf, 0x46, 0xbe, 0x8b, 0x82, 0x1b, 0xbd, 0xa4, 0x92, 0x1e, 0x3d, 0x07, 0x4d, 0x00, 0xbf, 0x7e, 0x5d, 0x1c, 0x3f, 0xe2, 0xb6, 0xd8, 0xbe, 0xeb, 0x5d, 0x87, 0x3e, 0x8d, 0x36, 0x07, 0xbf, 0x4b, 0xf6, 0x43, 0x3d, 0xca, 0x4e, 0x11, 0xbf, 0x7d, 0xe1, 0x56, 0x3f, 0x6c, 0xba, 0x04, 0x3f, 0x4f, 0xb8, 0x53, 0xbd, 0x6f, 0xa4, 0x5a, 0x3f, 0x7c, 0x8f, 0x1c, 0x3c, 0xed, 0xb9, 0xa2, 0x3e, 0xc3, 0x89, 0x4a, 0x3e, 0x82, 0x63, 0x9d, 0xbe, 0x0b, 0x95, 0x9a, 0xbe, 0x3b, 0x4b, 0x4f, 0x3f, 0xd3, 0xf6, 0x86, 0xbd, 0x7d, 0x25, 0x5f, 0x3e, 0x8f, 0x5c, 0x70, 0x3e, 0x79, 0xf5, 0xe6, 0x3d, 0x5c, 0xd0, 0x70, 0xbf, 0x9a, 0x74, 0xcf, 0x3e, 0x89, 0x02, 0x1f, 0x3e, 0x46, 0xfe, 0xff, 0xff, 0x04, 0x00, 0x00, 0x00, 0xa4, 0x00, 0x00, 0x00, 0xcf, 0x3d, 0xad, 0x3e, 0xb0, 0x06, 0x05, 0x3e, 0x8d, 0x70, 0x87, 0x3e, 0xeb, 0x13, 0xa2, 0x3d, 0x87, 0x4a, 0x9d, 0xbe, 0x3b, 0x8f, 0x0b, 0xbe, 0xce, 0x53, 0x7a, 0x3c, 0x7b, 0x89, 0x65, 0x3e, 0x88, 0x24, 0x54, 0x3e, 0x00, 0xd1, 0x1f, 0xbd, 0x0d, 0x8d, 0x4a, 0xbd, 0x89, 0xae, 0x2b, 0x3e, 0xd3, 0x78, 0xab, 0x3e, 0x84, 0x24, 0x6b, 0xbd, 0xf1, 0x40, 0xe5, 0xbd, 0xe3, 0x87, 0xd1, 0xbd, 0xf3, 0xc6, 0x83, 0x3e, 0xe1, 0xee, 0x20, 0x3e, 0x26, 0xcd, 0x49, 0xbe, 0x83, 0xea, 0xc5, 0x3c, 0xa8, 0x91, 0x21, 0x3e, 0xe8, 0x82, 0xed, 0xbd, 0xd5, 0xb4, 0x0e, 0x3d, 0x98, 0x30, 0xbe, 0x3d, 0x50, 0x78, 0x53, 0xbd, 0x81, 0x9d, 0xba, 0x3d, 0x6e, 0x01, 0x97, 0xbd, 0x0b, 0xab, 0x35, 0x3d, 0xb1, 0xb7, 0x57, 0x3d, 0xad, 0x95, 0x09, 0x3e, 0xd9, 0xfb, 0x40, 0x3d, 0xee, 0xd2, 0xb6, 0xbd, 0x64, 0x74, 0x16, 0x3e, 0x77, 0x35, 0x92, 0xbd, 0x18, 0xe5, 0x70, 0x3c, 0x97, 0xfc, 0x88, 0xbe, 0x1a, 0xef, 0x18, 0x3e, 0x45, 0xf4, 0x75, 0x3e, 0x2f, 0xa3, 0x68, 0xbd, 0x3d, 0x31, 0x4b, 0x3e, 0x9d, 0xc0, 0xc1, 0x3d, 0xf6, 0xfe, 0xff, 0xff, 0x04, 0x00, 0x00, 0x00, 0x0c, 0x00, 0x00, 0x00, 0x6e, 0x3a, 0xa3, 0xbd, 0x2c, 0xbb, 0x08, 0xbb, 0x80, 0x92, 0xed, 0x3d, 0x0e, 0xff, 0xff, 0xff, 0x04, 0x00, 0x00, 0x00, 0x50, 0x00, 0x00, 0x00, 0xe3, 0x67, 0x6a, 0xbd, 0x42, 0x14, 0x02, 0xbd, 0xd0, 0xb3, 0xee, 0xbb, 0x6c, 0xcd, 0x2e, 0x3d, 0x02, 0x44, 0xc2, 0x3d, 0x2b, 0x8e, 0xa9, 0x3d, 0xcf, 0x64, 0x81, 0x3d, 0x7a, 0x40, 0x49, 0xbe, 0x30, 0xd7, 0x33, 0x3e, 0x2a, 0x61, 0x6c, 0x3e, 0x7f, 0x59, 0x14, 0xbd, 0x46, 0xc1, 0x32, 0x3e, 0x93, 0x80, 0x3f, 0xbd, 0xd6, 0xda, 0x2a, 0xbc, 0x9c, 0x49, 0x2d, 0x3c, 0xf3, 0xcf, 0x8f, 0x3d, 0xa8, 0x69, 0x94, 0x3c, 0xc7, 0xbf, 0x14, 0x3d, 0x4c, 0xab, 0x90, 0x3d, 0xa9, 0x02, 0x4a, 0x3d, 0x5c 0x07, 0x00, 0x00, 0x00, 0x28, 0x00, 0x00, 0x00, 0xf4, 0xfd, 0xff, 0xff, 0x19, 0x00, 0x00, 0x00, 0x73, 0x65, 0x71, 0x75, 0x65, 0x6e, 0x74, 0x69, 0x61, 0x6c, 0x2f, 0x64, 0x65, 0x6e, 0x73, 0x65, 0x5f, 0x32, 0x2f, 0x4d, 0x61, 0x74, 0x4d, 0x75, 0x6c, 0x00, 0x00, 0x00, 0x02, 0x00, 0x00, 0x00, 0x03, 0x00, 0x00, 0x00, 0x14, 0x00, 0x00, 0x00, 0xce, 0xfe, 0xff, 0xff, 0x00, 0x00, 0x00, 0x01, 0x10, 0x00, 0x00, 0x00, 0x10, 0x00, 0x00, 0x00, 0x06, 0x00, 0x00, 0x00, 0x28, 0x00, 0x00, 0x00, 0x3c, 0xfe, 0xff, 0xff, 0x19, 0x00, 0x00, 0x00, 0x73, 0x65, 0x71, 0x75, 0x65, 0x6e, 0x74, 0x69, 0x61, 0x6c, 0x2f, 0x64, 0x65, 0x6e, 0x73, 0x65, 0x5f, 0x31, 0x2f, 0x4d, 0x61, 0x74, 0x4d, 0x75, 0x6c, 0x00, 0x00, 0x00, 0x02, 0x00, 0x00, 0x00, 0x14, 0x00, 0x00, 0x00, 0x29, 0x00, 0x00, 0x00, 0x16, 0xff, 0xff, 0xff, 0x00, 0x00, 0x00, 0x01, 0x10, 0x00, 0x00, 0x00, 0x10, 0x00, 0x00, 0x00, 0x05, 0x00, 0x00, 0x00, 0x24, 0x00, 0x00, 0x00, 0x84, 0xfe, 0xff, 0xff, 0x17, 0x00, 0x00, 0x00, 0x73, 0x65, 0x71, 0x75, 0x65, 0x6e, 0x74, 0x69, 0x61, 0x6c, 0x2f, 0x64, 0x65, 0x6e, 0x73, 0x65, 0x2f, 0x4d, 0x61, 0x74, 0x4d, 0x75, 0x6c, 0x00, 0x02, 0x00, 0x00, 0x00, 0x29, 0x00, 0x00, 0x00, 0x0f, 0x00, 0x00, 0x00, 0x5a, 0xff, 0xff, 0xff, 0x00, 0x00, 0x00, 0x01, 0x10, 0x00, 0x00, 0x00, 0x10, 0x00, 0x00, 0x00, 0x04, 0x00, 0x00, 0x00, 0x34, 0x00, 0x00, 0x00, 0xc8, 0xfe, 0xff, 0xff, 0x27, 0x00, 0x00, 0x00, 0x73, 0x65, 0x71, 0x75, 0x65, 0x6e, 0x74, 0x69, 0x61, 0x6c, 0x2f, 0x64, 0x65, 0x6e, 0x73, 0x65, 0x2f, 0x42, 0x69, 0x61, 0x73, 0x41, 0x64, 0x64, 0x2f, 0x52, 0x65, 0x61, 0x64, 0x56, 0x61, 0x72, 0x69, 0x61, 0x62, 0x6c, 0x65, 0x4f, 0x70, 0x00, 0x01, 0x00, 0x00, 0x00, 0x29, 0x00, 0x00, 0x00, 0xaa, 0xff, 0xff, 0xff, 0x00, 0x00, 0x00, 0x01, 0x10, 0x00, 0x00, 0x00, 0x10, 0x00, 0x00, 0x00, 0x03, 0x00, 0x00, 0x00, 0x38, 0x00, 0x00, 0x00, 0 0x07, 0x00, 0x00, 0x00, 0x28, 0x00, 0x00, 0x00, 0xf4, 0xfd, 0xff, 0xff, 0x19, 0x00, 0x00, 0x00, 0x73, 0x65, 0x71, 0x75, 0x65, 0x6e, 0x74, 0x69, 0x61, 0x6c, 0x2f, 0x64, 0x65, 0x6e, 0x73, 0x65, 0x5f, 0x32, 0x2f, 0x4d, 0x61, 0x74, 0x4d, 0x75, 0x6c, 0x00, 0x00, 0x00, 0x02, 0x00, 0x00, 0x00, 0x03, 0x00, 0x00, 0x00, 0x14, 0x00, 0x00, 0x00, 0xce, 0xfe, 0xff, 0xff, 0x00, 0x00, 0x00, 0x01, 0x10, 0x00, 0x00, 0x00, 0x10, 0x00, 0x00, 0x00, 0x06, 0x00, 0x00, 0x00, 0x28, 0x00, 0x00, 0x00, 0x3c, 0xfe, 0xff, 0xff, 0x19, 0x00, 0x00, 0x00, 0x73, 0x65, 0x71, 0x75, 0x65, 0x6e, 0x74, 0x69, 0x61, 0x6c, 0x2f, 0x64, 0x65, 0x6e, 0x73, 0x65, 0x5f, 0x31, 0x2f, 0x4d, 0x61, 0x74, 0x4d, 0x75, 0x6c, 0x00, 0x00, 0x00, 0x02, 0x00, 0x00, 0x00, 0x14, 0x00, 0x00, 0x00, 0x29, 0x00, 0x00, 0x00, 0x16, 0xff, 0xff, 0xff, 0x00, 0x00, 0x00, 0x01, 0x10, 0x00, 0x00, 0x00, 0x10, 0x00, 0x00, 0x00, 0x05, 0x00, 0x00, 0x00, 0x24, 0x00, 0x00, 0x00, 0x84, 0xfe, 0xff, 0xff, 0x17, 0x00, 0x00, 0x00, 0x73, 0x65, 0x71, 0x75, 0x65, 0x6e, 0x74, 0x69, 0x61, 0x6c, 0x2f, 0x64, 0x65, 0x6e, 0x73, 0x65, 0x2f, 0x4d, 0x61, 0x74, 0x4d, 0x75, 0x6c, 0x00, 0x02, 0x00, 0x00, 0x00, 0x29, 0x00, 0x00, 0x00, 0x0f, 0x00, 0x00, 0x00, 0x5a, 0xff, 0xff, 0xff, 0x00, 0x00, 0x00, 0x01, 0x10, 0x00, 0x00, 0x00, 0x10, 0x00, 0x00, 0x00, 0x04, 0x00, 0x00, 0x00, 0x34, 0x00, 0x00, 0x00, 0xc8, 0xfe, 0xff, 0xff, 0x27, 0x00, 0x00, 0x00, 0x73, 0x65, 0x71, 0x75, 0x65, 0x6e, 0x74, 0x69, 0x61, 0x6c, 0x2f, 0x64, 0x65, 0x6e, 0x73, 0x65, 0x2f, 0x42, 0x69, 0x61, 0x73, 0x41, 0x64, 0x64, 0x2f, 0x52, 0x65, 0x61, 0x64, 0x56, 0x61, 0x72, 0x69, 0x61, 0x62, 0x6c, 0x65, 0x4f, 0x70, 0x00, 0x01, 0x00, 0x00, 0x00, 0x29, 0x00, 0x00, 0x00, 0xaa, 0xff, 0xff, 0xff, 0x00, 0x00, 0x00, 0x01, 0x10, 0x00, 0x00, 0x00, 0x10, 0x00, 0x00, 0x00, 0x03, 0x00, 0x00, 0x00, 0x38, 0x00, 0x00, 0x00, 0x18, 0xff, 0xff, 0xff, 0x29, 0x00, 0x00, 0x00, 0x73, 0x65, 0x71, 0x75, 0x65, 0x6e, 0x74, 0x69, 0x61, 0x6c, 0x2f, 0x64, 0x65, 0x6e, 0x73, 0x65, 0x5f, 0x32, 0x2f, 0x42, 0x69, 0x61, 0x73, 0x41, 0x64, 0x64, 0x2f, 0x52, 0x65, 0x61, 0x64, 0x56, 0x61, 0x72, 0x69, 0x61, 0x62, 0x6c, 0x65, 0x4f, 0x70, 0x00, 0x00, 0x00, 0x01, 0x00, 0x00, 0x00, 0x03, 0x00, 0x00, 0x00, 0x00, 0x00, 0x16, 0x00, 0x18, 0x00, 0x14, 0x00, 0x00, 0x00, 0x10, 0x00, 0x0c, 0x00, 0x08, 0x00, 0x00, 0x00, 0x00, 0x00, 0x00, 0x00, 0x07, 0x00, 0x16, 0x00, 0x00, 0x00, 0x00, 0x00, 0x00, 0x01, 0x10, 0x00, 0x00, 0x00, 0x10, 0x00, 0x00, 0x00, 0x02, 0x00, 0x00, 0x00, 0x38, 0x00, 0x00, 0x00, 0x84, 0xff, 0xff, 0xff, 0x29, 0x00, 0x00, 0x00, 0x73, 0x65, 0x71, 0x75, 0x65, 0x6e, 0x74, 0x69, 0x61, 0x6c, 0x2f, 0x64, 0x65, 0x6e, 0x73, 0x65, 0x5f, 0x31, 0x2f, 0x42, 0x69, 0x61, 0x73, 0x41, 0x64, 0x64, 0x2f, 0x52, 0x65, 0x61, 0x64, 0x56, 0x61, 0x72, 0x69, 0x61, 0x62, 0x6c, 0x65, 0x4f, 0x70, 0x00, 0x00, 0x00, 0x01, 0x00, 0x00, 0x00, 0x14, 0x00, 0x00, 0x00, 0x00, 0x00, 0x16, 0x00, 0x1c, 0x00, 0x18, 0x00, 0x00, 0x00, 0x14, 0x00, 0x10, 0x00, 0x0c, 0x00, 0x00, 0x00, 0x00, 0x00, 0x08, 0x00, 0x07, 0x00, 0x16, 0x00, 0x00, 0x00, 0x00, 0x00, 0x00, 0x01, 0x14, 0x00, 0x00, 0x00, 0x20, 0x00, 0x00, 0x00, 0x20, 0x00, 0x00, 0x00, 0x01, 0x00, 0x00, 0x00, 0x3c, 0x00, 0x00, 0x00, 0x02, 0x00, 0x00, 0x00, 0xff, 0xff, 0xff, 0xff, 0x0f, 0x00, 0x00, 0x00, 0x04, 0x00, 0x04, 0x00, 0x04, 0x00, 0x00, 0x00, 0x1d, 0x00, 0x00, 0x00, 0x73, 0x65, 0x72, 0x76, 0x69, 0x6e, 0x67, 0x5f, 0x64, 0x65, 0x66, 0x61, 0x75, 0x6c, 0x74, 0x5f, 0x64, 0x65, 0x6e, 0x73, 0x65, 0x5f, 0x69, 0x6e, 0x70, 0x75, 0x74, 0x3a, 0x30, 0x00, 0x00, 0x00, 0x02, 0x00, 0x00, 0x00, 0x01, 0x00, 0x00, 0x00, 0x0f, 0x00, 0x00, 0x00, 0x02, 0x00, 0x00, 0x00, 0x20, 0x00, 0x00, 0x00, 0x04, 0x00, 0x00, 0x00, 0xf4, 0xff, 0xff, 0xff, 0x19, 0x00, 0x00, 0x00, 0x00, 0x00, 0x00, 0x19, 0x0c, 0x00, 0x0c, 0x00, 0x0b, 0x00, 0x00, 0x00, 0x00, 0x00, 0x04, 0x00, 0x0c, 0x00, 0x00, 0x00, 0x09, 0x00, 0x00, 0x00, 0x00, 0x00, 0x00, 0x09 };