#pragma once

#ifdef __has_attribute
#define HAVE_ATTRIBUTE(x) __has_attribute(x)
#else
#define HAVE_ATTRIBUTE(x) 0
#endif
#if HAVE_ATTRIBUTE(aligned) || (defined(__GNUC__) && !defined(__clang__))
#define DATA_ALIGN_ATTRIBUTE __attribute__((aligned(4)))
#else
#define DATA_ALIGN_ATTRIBUTE
#endif

// automatically configure network
#define TF_NUM_INPUTS 15
#define TF_NUM_OUTPUTS 2
#define TF_NUM_OPS 2
#define TF_OP_FULLYCONNECTED
#define TF_OP_SOFTMAX

int expected_classes[] = {1, 0, 1, 1, 0, 0, 0, 1, 0, 1, 1, 0, 0, 0, 0, 0, 1, 1, 1, 0, 0, 1, 1, 0, 0, 1, 0, 1, 0, 0, 0, 1, 1, 0, 0, 0, 1, 0, 0, 0, 1, 0, 1, 1, 1, 0, 0, 0, 1, 1, 0, 1, 1, 0, 0, 0, 1, 0, 1, 1, 1, 0, 1, 0, 0, 0, 1, 0, 0, 1, 0, 0, 1, 1, 1, 0, 0, 0, 1, 1, 0, 0, 0, 0, 1, 0, 0, 0, 1, 1, 1, 1, 1, 0, 1, 0, 1, 0, 0, 1}

// sample data from test set
float samples[][15] = {
{1.0f, 0.0f, 0.0039215686274509f, 0.1f, 0.0f, 0.0f, 0.01f, 0.0f, 0.0f, 0.5f, 0.0f, 1.0f, 1.0f, 0.0019569471624266f, 0.0f}
{0.0f, 0.5274860540992238f, 0.3372549019607843f, 0.9f, 0.0f, 0.61f, 1.0f, 0.0f, 0.0f, 0.5f, 0.61f, 0.5254901960784314f, 0.0f, 0.0019569471624266f, 0.0f}
{0.0f, 0.1695557923014435f, 0.2235294117647058f, 0.9f, 0.0f, 1.0f, 1.0f, 0.0f, 0.0f, 0.0f, 1.0f, 0.0117647058823529f, 0.0f, 0.1272015655577299f, 0.0f}
{0.83f, 0.0f, 0.3372549019607843f, 0.2f, 0.0f, 0.31f, 1.0f, 0.0f, 0.1964620157074655f, 0.5f, 0.03f, 0.1137254901960784f, 1.0f, 0.0156555772994129f, 0.12f}
{0.0f, 0.3113737036329547f, 1.0f, 0.9f, 1.0f, 1.0f, 1.0f, 0.01f, 0.6790393436802554f, 0.5f, 0.01f, 0.6078431372549019f, 0.0f, 0.0078277886497064f, 0.0f}
{0.72f, 0.3859736806409068f, 0.1098039215686274f, 0.9f, 1.0f, 0.11f, 1.0f, 0.0f, 0.4223890529711506f, 0.5f, 0.0f, 1.0f, 0.0f, 0.0058708414872798f, 0.0f}
{0.0f, 0.3226249870955455f, 1.0f, 0.9f, 1.0f, 1.0f, 1.0f, 0.0f, 0.4356724332174359f, 0.5f, 0.01f, 0.592156862745098f, 0.0f, 0.0919765166340508f, 0.0f}
{0.66f, 0.0f, 0.5019607843137255f, 0.9f, 0.0f, 0.5f, 1.0f, 0.0f, 0.0f, 0.5f, 0.0f, 1.0f, 0.0f, 0.0019569471624266f, 0.0f}
{0.33f, 0.357814330511511f, 0.5058823529411764f, 0.9f, 1.0f, 0.51f, 1.0f, 0.0f, 0.411130530199611f, 0.5f, 0.0f, 1.0f, 0.0f, 0.0039138943248532f, 0.0f}
{1.0f, 0.0f, 0.0078431372549019f, 0.1f, 0.0f, 0.01f, 0.02f, 0.0f, 0.0f, 0.5f, 0.0f, 1.0f, 1.0f, 0.0039138943248532f, 0.0f}
{0.02f, 0.0f, 0.6705882352941176f, 0.5f, 0.0f, 0.73f, 1.0f, 0.69f, 0.0f, 0.5f, 0.0f, 0.9215686274509804f, 0.0f, 0.2348336594911937f, 1.0f}
{0.0f, 0.3704398841349445f, 0.2862745098039215f, 0.9f, 1.0f, 0.16f, 1.0f, 0.0f, 0.9073782554431132f, 0.5f, 0.03f, 0.1490196078431372f, 0.0f, 0.0019569471624266f, 0.0f}
{0.0f, 0.3263993851108594f, 1.0f, 0.9f, 1.0f, 1.0f, 1.0f, 0.0f, 0.5804559990533295f, 0.5f, 0.01f, 0.2784313725490196f, 0.0f, 0.0156555772994129f, 0.0f}
{0.0f, 0.2988423745623338f, 1.0f, 0.9f, 1.0f, 1.0f, 1.0f, 0.0f, 0.4600316354940863f, 0.5f, 0.0f, 1.0f, 0.0f, 0.0469667318982387f, 0.0f}
{0.0f, 0.3068293052922314f, 1.0f, 0.9f, 1.0f, 1.0f, 1.0f, 0.0f, 0.5417428956796678f, 0.5f, 0.03f, 0.1372549019607843f, 0.0f, 0.0313111545988258f, 0.0f}
{0.0f, 0.2132250094058222f, 1.0f, 0.9f, 0.0f, 1.0f, 1.0f, 0.0f, 0.2697351323185535f, 1.0f, 1.0f, 1.0f, 0.0f, 0.9882583170254402f, 0.0f}
{1.0f, 0.0f, 0.0705882352941176f, 0.1f, 0.0f, 0.07f, 0.09f, 0.0f, 0.0f, 0.5f, 0.0f, 1.0f, 1.0f, 0.035225048923679f, 0.0f}
{1.0f, 0.0f, 0.0745098039215686f, 0.1f, 0.0f, 0.07f, 0.16f, 0.0f, 0.0f, 0.5f, 0.0f, 1.0f, 1.0f, 0.0371819960861056f, 0.0f}
{0.0f, 0.0f, 0.3411764705882353f, 0.5f, 0.0f, 0.34f, 1.0f, 1.0f, 0.0f, 0.5f, 0.01f, 1.0f, 0.0f, 0.0019569471624266f, 1.0f}
{0.0f, 0.2942326136331429f, 1.0f, 0.9f, 1.0f, 1.0f, 1.0f, 0.0f, 0.5320628520300201f, 0.5f, 0.0f, 1.0f, 0.0f, 0.0332681017612524f, 0.0f}
{0.0f, 0.3134139347705576f, 1.0f, 0.9f, 1.0f, 1.0f, 1.0f, 0.0f, 0.5317903931073389f, 0.5f, 0.03f, 0.1411764705882353f, 0.0f, 0.035225048923679f, 0.0f}
{1.0f, 0.0f, 0.0313725490196078f, 0.1f, 0.0f, 0.03f, 0.07f, 0.0f, 0.0f, 0.5f, 0.0f, 1.0f, 1.0f, 0.0156555772994129f, 0.0f}
{1.0f, 0.0f, 0.0509803921568627f, 0.2f, 0.0f, 0.05f, 0.05f, 0.0f, 0.0f, 0.5f, 0.0f, 1.0f, 1.0f, 0.0254403131115459f, 0.0f}
{0.0f, 0.3167194961006819f, 1.0f, 0.9f, 1.0f, 1.0f, 1.0f, 0.0f, 0.6214838579798935f, 0.5f, 0.01f, 0.7058823529411764f, 0.0f, 0.0900195694716242f, 0.0f}
{0.0f, 0.3178408510645715f, 1.0f, 0.9f, 1.0f, 1.0f, 1.0f, 0.0f, 0.4314617672530678f, 0.5f, 0.0f, 1.0f, 0.0f, 0.0136986301369863f, 0.0f}
{0.0f, 0.3483957423425758f, 0.2313725490196078f, 0.9f, 0.0f, 1.0f, 1.0f, 0.0f, 0.0f, 0.0f, 1.0f, 0.1803921568627451f, 0.0f, 1.0f, 0.0f}
{0.0f, 0.2231767271014228f, 1.0f, 0.9f, 0.0f, 1.0f, 1.0f, 0.0f, 0.279979969361224f, 1.0f, 0.83f, 1.0f, 0.0f, 1.0f, 0.0f}
{0.07f, 0.6265830433917299f, 0.9333333333333332f, 0.4f, 1.0f, 0.99f, 1.0f, 0.0f, 0.0491155039268663f, 0.5f, 0.0f, 0.9450980392156862f, 1.0f, 0.0234833659491193f, 0.0f}
{0.0f, 0.3664894923903333f, 0.3215686274509803f, 0.9f, 1.0f, 0.52f, 1.0f, 0.01f, 0.3997781664116736f, 0.5f, 0.01f, 0.6196078431372549f, 0.0f, 0.0039138943248532f, 0.0f}
{0.0f, 0.318025567922756f, 1.0f, 0.9f, 1.0f, 1.0f, 1.0f, 0.05f, 0.7010181439421433f, 0.5f, 0.05f, 0.0784313725490196f, 0.0f, 0.0293542074363992f, 0.0f}
{0.01f, 0.0386028094012785f, 0.0117647058823529f, 0.9f, 0.0f, 0.01f, 0.08f, 0.0f, 0.0491155039268663f, 1.0f, 0.99f, 1.0f, 0.0f, 0.0058708414872798f, 0.0f}
{0.96f, 0.0f, 0.0039215686274509f, 0.1f, 0.0f, 0.0f, 0.0f, 0.0f, 0.0f, 0.5f, 0.0f, 1.0f, 0.92f, 0.0019569471624266f, 0.0f}
{0.89f, 0.0f, 0.2313725490196078f, 0.2f, 0.0f, 0.24f, 0.5f, 0.01f, 0.2697351323185535f, 0.5f, 0.01f, 0.7254901960784313f, 1.0f, 0.0039138943248532f, 0.0f}
{0.0f, 0.2977915493931328f, 1.0f, 0.9f, 1.0f, 1.0f, 1.0f, 0.0f, 0.6706488346402784f, 0.5f, 0.0f, 1.0f, 0.0f, 0.0215264187866927f, 0.0f}
{0.0f, 0.2107493982135692f, 0.996078431372549f, 0.9f, 0.0f, 1.0f, 1.0f, 0.0f, 0.303038975636811f, 1.0f, 0.0f, 1.0f, 0.0f, 0.2211350293542074f, 0.0f}
{0.0f, 0.6343013400762022f, 0.4470588235294117f, 0.9f, 0.0f, 0.38f, 1.0f, 0.0f, 0.0f, 0.5f, 0.38f, 0.796078431372549f, 0.0f, 0.0293542074363992f, 0.0f}
{0.0f, 0.0f, 0.0313725490196078f, 0.5f, 0.0f, 0.03f, 0.06f, 1.0f, 0.0f, 0.5f, 0.0f, 1.0f, 0.0f, 0.0156555772994129f, 1.0f}
{0.0f, 0.3134139347705576f, 1.0f, 0.9f, 1.0f, 1.0f, 1.0f, 0.0f, 0.6030764941678928f, 0.5f, 0.08f, 0.0509803921568627f, 0.0f, 0.0254403131115459f, 0.0f}
{0.0f, 0.3215967963837532f, 1.0f, 0.9f, 1.0f, 1.0f, 1.0f, 0.03f, 0.5602737046695786f, 0.5f, 0.03f, 0.1137254901960784f, 0.0f, 0.0724070450097847f, 0.05f}
{0.0f, 0.3239670299065578f, 1.0f, 0.9f, 1.0f, 1.0f, 1.0f, 0.0f, 0.5725331290143713f, 0.5f, 0.0f, 1.0f, 0.0f, 0.0978473581213307f, 0.0f}
{1.0f, 0.0f, 0.0313725490196078f, 0.1f, 0.0f, 0.03f, 0.03f, 0.0f, 0.0f, 0.5f, 0.0f, 1.0f, 1.0f, 0.0156555772994129f, 0.0f}
{0.0f, 0.3040556824341893f, 1.0f, 0.9f, 1.0f, 1.0f, 1.0f, 0.0f, 0.5727084676598451f, 0.5f, 0.0f, 1.0f, 0.0f, 0.0410958904109589f, 0.0f}
{0.0f, 0.0f, 0.0235294117647058f, 0.5f, 0.0f, 0.02f, 0.02f, 1.0f, 0.0f, 0.5f, 0.0f, 1.0f, 0.0f, 0.0117416829745596f, 1.0f}
{0.06f, 0.6074172723998263f, 0.9803921568627452f, 0.9f, 1.0f, 0.98f, 1.0f, 0.0f, 0.639557561307564f, 0.5f, 0.0f, 1.0f, 0.0f, 0.0469667318982387f, 0.0f}
{0.0f, 0.0f, 0.3372549019607843f, 0.5f, 0.0f, 0.34f, 1.0f, 1.0f, 0.0f, 0.5f, 0.01f, 0.3568627450980392f, 0.0f, 0.0234833659491193f, 0.33f}
{0.0f, 0.2144227347437785f, 1.0f, 0.9f, 0.0f, 1.0f, 1.0f, 0.0f, 0.271292528943008f, 1.0f, 0.26f, 1.0f, 0.0f, 0.1330724070450097f, 0.0f}
{0.0f, 0.3210754938409553f, 0.611764705882353f, 0.9f, 1.0f, 1.0f, 1.0f, 0.0f, 0.438782718444716f, 0.5f, 0.33f, 0.0117647058823529f, 0.0f, 0.0313111545988258f, 0.0f}
{0.0f, 0.3090395986107279f, 0.9450980392156862f, 0.9f, 1.0f, 0.95f, 1.0f, 0.0f, 0.6024750222570332f, 0.5f, 0.0f, 1.0f, 0.0f, 0.0802348336594911f, 0.0f}
{1.0f, 0.0f, 0.0274509803921568f, 0.1f, 0.0f, 0.03f, 0.03f, 0.0f, 0.0f, 0.5f, 0.0f, 1.0f, 1.0f, 0.0136986301369863f, 0.0f}
{1.0f, 0.0f, 0.0117647058823529f, 0.1f, 0.0f, 0.01f, 0.01f, 0.0f, 0.0f, 0.5f, 0.0f, 1.0f, 1.0f, 0.0058708414872798f, 0.0f}
{0.0f, 0.302857957096233f, 1.0f, 0.9f, 1.0f, 1.0f, 1.0f, 0.0f, 0.4417622015476655f, 0.5f, 0.05f, 0.0823529411764705f, 0.0f, 0.0019569471624266f, 0.0f}
{1.0f, 0.0f, 0.0313725490196078f, 0.1f, 0.0f, 0.03f, 0.03f, 0.0f, 0.0f, 0.5f, 0.0f, 1.0f, 1.0f, 0.0156555772994129f, 0.0f}
{0.12f, 0.0f, 0.8509803921568627f, 0.9f, 0.0f, 0.85f, 1.0f, 0.33f, 0.2697351323185535f, 0.5f, 0.0f, 1.0f, 0.0f, 0.0019569471624266f, 0.0f}
{0.0f, 0.3144066897865915f, 1.0f, 0.9f, 1.0f, 1.0f, 1.0f, 0.0f, 0.4240139095058937f, 0.5f, 0.0f, 1.0f, 0.0f, 0.0156555772994129f, 0.0f}
{0.0f, 0.3038181891886253f, 0.7725490196078432f, 0.9f, 1.0f, 0.77f, 1.0f, 0.0f, 0.546620343721968f, 0.5f, 0.0f, 1.0f, 0.0f, 0.0058708414872798f, 0.0f}
{0.0f, 0.3092558788114318f, 1.0f, 0.9f, 1.0f, 1.0f, 1.0f, 0.0f, 0.6428705631287633f, 0.5f, 0.0f, 1.0f, 0.0f, 0.0391389432485322f, 0.0f}
{0.89f, 0.0f, 0.0039215686274509f, 0.1f, 0.0f, 0.0f, 0.0f, 0.1f, 0.0f, 0.5f, 0.0f, 1.0f, 0.83f, 0.0019569471624266f, 0.0f}
{0.0f, 0.2991020117770513f, 1.0f, 0.9f, 1.0f, 1.0f, 1.0f, 0.0f, 0.4585124016248001f, 0.5f, 0.0f, 1.0f, 0.0f, 0.0587084148727984f, 0.0f}
{0.91f, 0.0f, 0.3333333333333333f, 0.1f, 0.0f, 0.29f, 0.25f, 0.02f, 0.0f, 0.5f, 0.01f, 0.4156862745098039f, 1.0f, 0.0117416829745596f, 0.0f}
{1.0f, 0.0f, 0.0509803921568627f, 0.1f, 0.0f, 0.05f, 0.12f, 0.0f, 0.0f, 0.5f, 0.0f, 1.0f, 1.0f, 0.0254403131115459f, 0.0f}
{0.0f, 0.0f, 0.0039215686274509f, 0.5f, 0.0f, 0.0f, 0.01f, 1.0f, 0.0f, 0.5f, 0.0f, 1.0f, 0.0f, 0.0019569471624266f, 1.0f}
{0.0f, 0.2961771731216651f, 1.0f, 0.9f, 1.0f, 1.0f, 1.0f, 0.0f, 0.4591674943703429f, 0.5f, 0.0f, 1.0f, 0.0f, 0.0371819960861056f, 0.0f}
{1.0f, 0.0f, 0.0549019607843137f, 0.1f, 0.0f, 0.05f, 0.06f, 0.0f, 0.0f, 0.5f, 0.0f, 1.0f, 1.0f, 0.0273972602739726f, 0.0f}
{0.0f, 0.0f, 0.5725490196078431f, 0.9f, 1.0f, 0.8f, 1.0f, 0.0f, 0.3139618914802666f, 0.5f, 0.02f, 0.2392156862745098f, 0.0f, 0.0039138943248532f, 0.0f}
{0.0f, 0.3191211851915002f, 1.0f, 0.9f, 1.0f, 1.0f, 1.0f, 0.0f, 0.4382007135797595f, 0.5f, 0.1f, 0.0392156862745098f, 0.0f, 0.0039138943248532f, 0.0f}
{0.0f, 0.3214235704845679f, 0.992156862745098f, 0.9f, 1.0f, 1.0f, 1.0f, 0.0f, 0.5257276179943207f, 0.5f, 0.01f, 0.3333333333333333f, 0.0f, 0.0587084148727984f, 0.0f}
{1.0f, 0.0f, 0.0117647058823529f, 0.1f, 0.0f, 0.01f, 0.01f, 0.0f, 0.0f, 0.5f, 0.0f, 1.0f, 1.0f, 0.0058708414872798f, 0.0f}
{0.0f, 0.2993604441743736f, 1.0f, 0.9f, 1.0f, 1.0f, 1.0f, 0.0f, 0.4298364966003348f, 0.5f, 0.03f, 0.1568627450980392f, 0.0f, 0.0019569471624266f, 0.0f}
{0.0f, 0.327654471054213f, 1.0f, 0.9f, 1.0f, 1.0f, 1.0f, 0.0f, 0.5820278981584915f, 0.5f, 0.01f, 0.3176470588235294f, 0.0f, 0.0215264187866927f, 0.0f}
{0.11f, 0.0f, 0.2627450980392157f, 0.9f, 0.0f, 0.26f, 1.0f, 0.0f, 0.1964620157074655f, 0.5f, 0.0f, 1.0f, 0.0f, 0.0019569471624266f, 0.0f}
{0.0f, 0.3119936589961097f, 1.0f, 0.9f, 1.0f, 1.0f, 1.0f, 0.0f, 0.5098415762050612f, 0.5f, 0.14f, 0.0274509803921568f, 0.0f, 0.0039138943248532f, 0.0f}
{0.0f, 0.3242975476819216f, 1.0f, 0.9f, 1.0f, 1.0f, 1.0f, 0.0f, 0.4002789366510003f, 0.5f, 0.0f, 1.0f, 0.0f, 0.0567514677103718f, 0.0f}
{0.99f, 0.0f, 0.0745098039215686f, 0.1f, 0.0f, 0.07f, 0.07f, 0.01f, 0.0f, 0.5f, 0.0f, 1.0f, 0.99f, 0.0371819960861056f, 0.0f}
{1.0f, 0.0f, 0.0235294117647058f, 0.1f, 0.0f, 0.02f, 0.03f, 0.0f, 0.0f, 0.5f, 0.0f, 1.0f, 1.0f, 0.0117416829745596f, 0.0f}
{0.0f, 0.4065785283303523f, 0.0980392156862745f, 0.9f, 0.0f, 1.0f, 1.0f, 0.0f, 0.0f, 0.0f, 1.0f, 0.0039215686274509f, 0.0f, 0.0019569471624266f, 0.0f}
{0.0f, 0.30038234590398f, 0.984313725490196f, 0.9f, 1.0f, 1.0f, 1.0f, 0.0f, 0.5086623574118299f, 0.5f, 0.25f, 0.0156862745098039f, 0.0f, 0.0078277886497064f, 0.0f}
{0.0f, 0.3094713223361544f, 1.0f, 0.9f, 1.0f, 1.0f, 1.0f, 0.0f, 0.4903897440207246f, 0.5f, 0.0f, 1.0f, 0.0f, 0.0508806262230919f, 0.0f}
{0.0f, 0.3221132645211429f, 1.0f, 0.9f, 1.0f, 1.0f, 1.0f, 0.0f, 0.4958405121162431f, 0.5f, 0.01f, 0.2705882352941176f, 0.0f, 0.0156555772994129f, 0.0f}
{1.0f, 0.0f, 0.2431372549019607f, 0.2f, 0.0f, 0.24f, 0.33f, 0.0f, 0.0f, 0.5f, 0.0f, 1.0f, 1.0f, 0.0371819960861056f, 0.0f}
{0.88f, 0.0f, 0.2352941176470588f, 0.2f, 1.0f, 0.24f, 0.33f, 0.0f, 0.255864927236376f, 0.5f, 0.01f, 0.7411764705882353f, 1.0f, 0.0136986301369863f, 0.0f}
{0.0f, 0.3045276520528425f, 1.0f, 0.9f, 1.0f, 1.0f, 1.0f, 0.0f, 0.656116885515093f, 0.5f, 0.0f, 1.0f, 0.0f, 0.0058708414872798f, 0.0f}
{0.0f, 0.4142590631789739f, 0.0274509803921568f, 0.9f, 0.0f, 0.19f, 1.0f, 0.0f, 0.0f, 0.5f, 0.19f, 0.1411764705882353f, 0.0f, 0.0019569471624266f, 0.0f}
{0.0f, 0.3226249870955455f, 1.0f, 0.9f, 1.0f, 1.0f, 1.0f, 0.0f, 0.4828696095391896f, 0.5f, 0.07f, 0.0549019607843137f, 0.0f, 0.0293542074363992f, 0.0f}
{0.0f, 0.3183931737570241f, 1.0f, 0.9f, 1.0f, 1.0f, 1.0f, 0.0f, 0.5621784845826935f, 0.5f, 0.0f, 1.0f, 0.0f, 0.0156555772994129f, 0.0f}
{1.0f, 0.0f, 0.0156862745098039f, 0.1f, 0.0f, 0.02f, 0.04f, 0.0f, 0.0f, 0.5f, 0.0f, 1.0f, 1.0f, 0.0078277886497064f, 0.0f}
{0.0f, 0.0f, 0.0980392156862745f, 0.9f, 1.0f, 0.23f, 1.0f, 0.0f, 0.3139618914802666f, 0.5f, 0.01f, 0.4313725490196078f, 0.0f, 0.0019569471624266f, 0.0f}
{0.0f, 0.3144066897865915f, 1.0f, 0.9f, 1.0f, 1.0f, 1.0f, 0.0f, 0.5965692114716159f, 0.5f, 0.01f, 0.3764705882352941f, 0.0f, 0.0117416829745596f, 0.0f}
{0.0f, 0.2120009583374359f, 0.992156862745098f, 0.9f, 0.0f, 0.99f, 1.0f, 0.0f, 0.3356008363225545f, 1.0f, 0.0f, 1.0f, 0.0f, 0.009784735812133f, 0.0f}
{0.0f, 0.0f, 0.0039215686274509f, 1.0f, 0.0f, 0.03f, 1.0f, 1.0f, 0.0f, 0.5f, 1.0f, 0.1176470588235294f, 0.0f, 0.0019569471624266f, 1.0f}
{1.0f, 0.0f, 0.0274509803921568f, 0.2f, 0.0f, 0.03f, 0.06f, 0.0f, 0.0f, 0.5f, 0.0f, 1.0f, 1.0f, 0.0136986301369863f, 0.0f}
{0.99f, 0.0f, 0.0039215686274509f, 0.5f, 0.0f, 0.0f, 0.0f, 0.01f, 0.0f, 0.5f, 0.0f, 1.0f, 0.99f, 0.0019569471624266f, 1.0f}
{1.0f, 0.0f, 0.0235294117647058f, 0.1f, 0.0f, 0.02f, 0.03f, 0.0f, 0.0f, 0.5f, 0.0f, 1.0f, 1.0f, 0.0117416829745596f, 0.0f}
{1.0f, 0.0f, 0.0588235294117647f, 0.1f, 0.0f, 0.06f, 0.14f, 0.0f, 0.0f, 0.5f, 0.0f, 1.0f, 1.0f, 0.0293542074363992f, 0.0f}
{0.0f, 0.3844840562199903f, 0.1647058823529411f, 0.9f, 1.0f, 0.66f, 1.0f, 0.0f, 0.411130530199611f, 0.5f, 0.02f, 0.2431372549019607f, 0.0f, 0.0019569471624266f, 0.0f}
{1.0f, 0.0f, 0.0470588235294117f, 0.1f, 0.0f, 0.05f, 0.05f, 0.0f, 0.0f, 0.5f, 0.0f, 1.0f, 1.0f, 0.0234833659491193f, 0.0f}
{0.0f, 0.2945145994593159f, 0.8980392156862745f, 0.9f, 1.0f, 1.0f, 1.0f, 0.0f, 0.532334267331836f, 0.5f, 0.04f, 0.1019607843137254f, 0.0f, 0.0039138943248532f, 0.0f}
{1.0f, 0.0f, 0.0392156862745098f, 0.1f, 0.0f, 0.04f, 0.09f, 0.0f, 0.0f, 0.5f, 0.0f, 1.0f, 1.0f, 0.0195694716242661f, 0.0f}
{0.0f, 0.3030995717124557f, 1.0f, 0.9f, 1.0f, 1.0f, 1.0f, 0.0f, 0.4774566853764055f, 0.5f, 0.04f, 0.0980392156862745f, 0.0f, 0.0489236790606653f, 0.0f}
{0.0f, 0.283338830695329f, 0.592156862745098f, 0.9f, 1.0f, 1.0f, 1.0f, 0.0f, 0.6769136464169742f, 0.5f, 0.01f, 0.592156862745098f, 0.0f, 0.0019569471624266f, 0.0f}
{1.0f, 0.0f, 0.0588235294117647f, 0.1f, 0.0f, 0.06f, 0.07f, 0.0f, 0.0f, 0.5f, 0.0f, 1.0f, 1.0f, 0.0293542074363992f, 0.0f}
}


/** model size = 8128 bytes **/
const unsigned char snn_model_binary[] DATA_ALIGN_ATTRIBUTE = { 0x1c, 0x00, 0x00, 0x00, 0x54, 0x46, 0x4c, 0x33, 0x14, 0x00, 0x20, 0x00, 0x1c, 0x00, 0x18, 0x00, 0x14, 0x00, 0x10, 0x00, 0x0c, 0x00, 0x00, 0x00, 0x08, 0x00, 0x04, 0x00, 0x14, 0x00, 0x00, 0x00, 0x1c, 0x00, 0x00, 0x00, 0x84, 0x00, 0x00, 0x00, 0xdc, 0x00, 0x00, 0x00, 0xac, 0x19, 0x00, 0x00, 0xbc, 0x19, 0x00, 0x00, 0x5c, 0x1f, 0x00, 0x00, 0x03, 0x00, 0x00, 0x00, 0x01, 0x00, 0x00, 0x00, 0x04, 0x00, 0x00, 0x00, 0x06, 0xe6, 0xff, 0xff, 0x0c, 0x00, 0x00, 0x00, 0x1c, 0x00, 0x00, 0x00, 0x38, 0x00, 0x00, 0x00, 0x0f, 0x00, 0x00, 0x00, 0x73, 0x65, 0x72, 0x76, 0x69, 0x6e, 0x67, 0x5f, 0x64, 0x65, 0x66, 0x61, 0x75, 0x6c, 0x74, 0x00, 0x01, 0x00, 0x00, 0x00, 0x04, 0x00, 0x00, 0x00, 0x98, 0xff, 0xff, 0xff, 0x0a, 0x00, 0x00, 0x00, 0x04, 0x00, 0x00, 0x00, 0x07, 0x00, 0x00, 0x00, 0x64, 0x65, 0x6e, 0x73, 0x65, 0x5f, 0x32, 0x00, 0x01, 0x00, 0x00, 0x00, 0x04, 0x00, 0x00, 0x00, 0x22, 0xe7, 0xff, 0xff, 0x04, 0x00, 0x00, 0x00, 0x0b, 0x00, 0x00, 0x00, 0x64, 0x65, 0x6e, 0x73, 0x65, 0x5f, 0x69, 0x6e, 0x70, 0x75, 0x74, 0x00, 0x02, 0x00, 0x00, 0x00, 0x34, 0x00, 0x00, 0x00, 0x04, 0x00, 0x00, 0x00, 0xdc, 0xff, 0xff, 0xff, 0x0d, 0x00, 0x00, 0x00, 0x04, 0x00, 0x00, 0x00, 0x13, 0x00, 0x00, 0x00, 0x43, 0x4f, 0x4e, 0x56, 0x45, 0x52, 0x53, 0x49, 0x4f, 0x4e, 0x5f, 0x4d, 0x45, 0x54, 0x41, 0x44, 0x41, 0x54, 0x41, 0x00, 0x08, 0x00, 0x0c, 0x00, 0x08, 0x00, 0x04, 0x00, 0x08, 0x00, 0x00, 0x00, 0x0c, 0x00, 0x00, 0x00, 0x04, 0x00, 0x00, 0x00, 0x13, 0x00, 0x00, 0x00, 0x6d, 0x69, 0x6e, 0x5f, 0x72, 0x75, 0x6e, 0x74, 0x69, 0x6d, 0x65, 0x5f, 0x76, 0x65, 0x72, 0x73, 0x69, 0x6f, 0x6e, 0x00, 0x0e, 0x00, 0x00, 0x00, 0xcc, 0x18, 0x00, 0x00, 0xc4, 0x18, 0x00, 0x00, 0x64, 0x18, 0x00, 0x00, 0x48, 0x18, 0x00, 0x00, 0x94, 0x17, 0x00, 0x00, 0xe8, 0x0d, 0x00, 0x00, 0x08, 0x01, 0x00, 0x00, 0xa8, 0x00, 0x00, 0x00, 0xa0, 0x00, 0x00, 0x00, 0x98, 0x00, 0x00, 0x00, 0x90, 0x00, 0x00, 0x00, 0x88, 0x00, 0x00, 0x00, 0x68, 0x00, 0x00, 0x00, 0x04, 0x00, 0x00, 0x00, 0xd2, 0xe7, 0xff, 0xff, 0x04, 0x00, 0x00, 0x00, 0x54, 0x00, 0x00, 0x00, 0x0c, 0x00, 0x00, 0x00, 0x08, 0x00, 0x0e, 0x00, 0x08, 0x00, 0x04, 0x00, 0x08, 0x00, 0x00, 0x00, 0x10, 0x00, 0x00, 0x00, 0x24, 0x00, 0x00, 0x00, 0x00, 0x00, 0x06, 0x00, 0x08, 0x00, 0x04, 0x00, 0x06, 0x00, 0x00, 0x00, 0x04, 0x00, 0x00, 0x00, 0x00, 0x00, 0x00, 0x00, 0x00, 0x00, 0x0a, 0x00, 0x10, 0x00, 0x0c, 0x00, 0x08, 0x00, 0x04, 0x00, 0x0a, 0x00, 0x00, 0x00, 0x02, 0x00, 0x00, 0x00, 0x02, 0x00, 0x00, 0x00, 0x04, 0x00, 0x00, 0x00, 0x06, 0x00, 0x00, 0x00, 0x32, 0x2e, 0x31, 0x32, 0x2e, 0x31, 0x00, 0x00, 0x32, 0xe8, 0xff, 0xff, 0x04, 0x00, 0x00, 0x00, 0x10, 0x00, 0x00, 0x00, 0x31, 0x2e, 0x31, 0x34, 0x2e, 0x30, 0x00, 0x00, 0x00, 0x00, 0x00, 0x00, 0x00, 0x00, 0x00, 0x00, 0x64, 0xe2, 0xff, 0xff, 0x68, 0xe2, 0xff, 0xff, 0x6c, 0xe2, 0xff, 0xff, 0x70, 0xe2, 0xff, 0xff, 0x5e, 0xe8, 0xff, 0xff, 0x04, 0x00, 0x00, 0x00, 0x50, 0x00, 0x00, 0x00, 0x1f, 0x1e, 0x14, 0x3f, 0x86, 0x1d, 0x5d, 0xbf, 0x93, 0x90, 0xc3, 0x3f, 0x24, 0x98, 0xb5, 0xbc, 0xdd, 0xad, 0xae, 0xbf, 0x59, 0x0f, 0x63, 0xbf, 0xc9, 0xe9, 0x58, 0x3f, 0xe4, 0xcb, 0x65, 0xbf, 0x67, 0xa0, 0xc6, 0x3f, 0x53, 0x4d, 0xae, 0x3f, 0x44, 0x1c, 0x6e, 0x3f, 0x89, 0x91, 0x8c, 0x3f, 0x2b, 0xd8, 0xb0, 0x3f, 0x9f, 0x11, 0x74, 0x3d, 0x27, 0xa8, 0x0d, 0xbf, 0xb6, 0x92, 0x72, 0xbf, 0xf6, 0x02, 0x58, 0x3f, 0x8d, 0x57, 0x99, 0xbf, 0xed, 0x6c, 0x92, 0xbf, 0x07, 0x25, 0xb6, 0x3e, 0xba, 0xe8, 0xff, 0xff, 0x04, 0x00, 0x00, 0x00, 0xd0, 0x0c, 0x00, 0x00, 0x85, 0xa5, 0x27, 0xbe, 0x32, 0xe6, 0xf7, 0xbe, 0xaf, 0xf1, 0x02, 0xbe, 0x95, 0xa3, 0x2e, 0x3f, 0x25, 0xca, 0x88, 0x3f, 0xd3, 0x77, 0xf5, 0xbe, 0x98, 0x03, 0xac, 0x3b, 0x7d, 0x42, 0xad, 0x3e, 0x79, 0x8b, 0xd2, 0x3e, 0xea, 0x43, 0x40, 0x3f, 0x86, 0xda, 0x50, 0x3e, 0xa9, 0x15, 0xb4, 0x3d, 0x1e, 0xa1, 0x03, 0xbe, 0x5b, 0x49, 0x0c, 0x3f, 0xc3, 0x88, 0xfb, 0x3d, 0xfe, 0x8a, 0xaf, 0x3e, 0xdf, 0x1a, 0x51, 0xbe, 0x48, 0xfa, 0x72, 0x3f, 0x69, 0xcf, 0x6d, 0x3f, 0x65, 0x85, 0x94, 0x3e, 0xca, 0xcf, 0xd5, 0x3e, 0x6e, 0x6c, 0xda, 0x3d, 0x40, 0x29, 0x82, 0xbe, 0x12, 0xab, 0xc5, 0x3e, 0x70, 0xf3, 0x85, 0xbe, 0x56, 0x23, 0x8e, 0x3e, 0x1f, 0xb7, 0x0e, 0xbe, 0x50, 0x22, 0x31, 0xbd, 0xfb, 0x00, 0x0d, 0xbf, 0x00, 0xdf, 0x6a, 0x3f, 0xdd, 0xeb, 0xef, 0xbd, 0x58, 0xdd, 0xe2, 0x3c, 0x80, 0x8f, 0xb5, 0x3e, 0x76, 0x06, 0x4f, 0x3e, 0xe0, 0xcd, 0x96, 0x3e, 0xd0, 0xe5, 0x0c, 0xbd, 0xa6, 0xd9, 0x8c, 0x3e, 0x4f, 0xcc, 0x7a, 0xbf, 0xc9, 0x62, 0x0d, 0x3f, 0x7a, 0x74, 0x01, 0xbe, 0x3a, 0x48, 0x30, 0x3e, 0xb4, 0x25, 0x22, 0x3e, 0xfd, 0x58, 0x44, 0x3f, 0xd7, 0x67, 0x58, 0xbd, 0x59, 0xb9, 0x0b, 0xbf, 0xf6, 0x7d, 0x87, 0xbf, 0xb1, 0xe6, 0x89, 0x3e, 0xb3, 0x4c, 0x21, 0x3e, 0xe7, 0x99, 0x5a, 0x3e, 0xb6, 0x8b, 0x29, 0x3e, 0x99, 0x97, 0x23, 0xbf, 0x20, 0xc5, 0x86, 0x3e, 0x47, 0x74, 0xc9, 0x3e, 0x9d, 0xd2, 0xe1, 0x3e, 0x51, 0x07, 0x69, 0xbd, 0xfe, 0x10, 0x1a, 0xbe, 0x71, 0xea, 0xd7, 0xbe, 0x0b, 0xf4, 0xd7, 0x3e, 0x26, 0x59, 0x0e, 0xbf, 0x98, 0x0c, 0x98, 0xbf, 0x7b, 0x25, 0x0a, 0xbe, 0x16, 0x64, 0xa4, 0x3d, 0xb9, 0x68, 0x35, 0xbe, 0xa4, 0xef, 0x5e, 0x3e, 0x62, 0x2f, 0x1b, 0xbf, 0x02, 0xfb, 0xc5, 0xbd, 0x4b, 0x79, 0xe0, 0xbc, 0x0d, 0x08, 0x29, 0x3e, 0x27, 0xd9, 0xfa, 0x3e, 0x54, 0x6d, 0xda, 0x3e, 0x3c, 0xc2, 0x38, 0xbf, 0x61, 0x4e, 0xea, 0xbd, 0x5c, 0xb8, 0x9c, 0xbe, 0x3a, 0x4c, 0xa5, 0xbe, 0xfa, 0x59, 0x37, 0xbf, 0x65, 0x6b, 0x03, 0x3e, 0xd9, 0xfd, 0xb9, 0x3c, 0x34, 0x32, 0x1d, 0xbf, 0xb5, 0xf5, 0x8a, 0x3f, 0x13, 0xc0, 0x64, 0xbe, 0x5d, 0xb6, 0x89, 0x3e, 0x1d, 0xce, 0x9d, 0xbc, 0x39, 0xd2, 0x25, 0xbf, 0x82, 0xbe, 0x7d, 0xbf, 0x01, 0x82, 0x78, 0x3e, 0x26, 0xdd, 0x33, 0xbe, 0x46, 0x70, 0x99, 0x3f, 0xde, 0xff, 0x5f, 0x3e, 0x63, 0x7b, 0x5b, 0xbe, 0x51, 0x0c, 0xad, 0x3e, 0x9a, 0xd5, 0x46, 0xbd, 0xb1, 0x7a, 0x07, 0x3e, 0x47, 0xd5, 0x83, 0xbd, 0x01, 0xb4, 0x07, 0xbf, 0x1e, 0x9a, 0xb6, 0x3e, 0x52, 0x4a, 0x15, 0x3f, 0x37, 0xfa, 0x23, 0x3e, 0x6d, 0xdd, 0xb9, 0xbd, 0xc4, 0xbc, 0x4a, 0xbc, 0xc6, 0x7b, 0x93, 0x3f, 0x99, 0x01, 0x44, 0x3f, 0xd0, 0x46, 0x2a, 0x3f, 0x95, 0xb6, 0xa5, 0xbe, 0x46, 0x26, 0x46, 0x3e, 0xff, 0xec, 0x91, 0xbd, 0x41, 0x6a, 0x0c, 0x3f, 0x5d, 0x98, 0x17, 0x3f, 0x8f, 0x4b, 0xb9, 0xbe, 0xa5, 0x63, 0x84, 0x3d, 0x73, 0x05, 0x27, 0xbf, 0x75, 0xe1, 0xca, 0xbe, 0x8b, 0x71, 0x46, 0x3f, 0x00, 0x83, 0x8f, 0xbf, 0x8e, 0x4d, 0xf6, 0xbd, 0xac, 0x1c, 0xc3, 0x3e, 0x79, 0x86, 0x22, 0x3f, 0xac, 0xb0, 0x47, 0x3e, 0x56, 0x70, 0x92, 0x3e, 0x9b, 0x09, 0xf2, 0x3e, 0x53, 0x76, 0xb1, 0xbe, 0x8a, 0x3a, 0xc5, 0x3e, 0x7c, 0x9e, 0x03, 0x3e, 0xfc, 0xce, 0x87, 0x3e, 0xf2, 0x8a, 0x70, 0xbd, 0x2a, 0x1f, 0x99, 0x3e, 0xb5, 0xdf, 0x99, 0xbe, 0xf9, 0xfd, 0xc2, 0x3d, 0xca, 0xa0, 0x71, 0x3e, 0x60, 0x60, 0xdc, 0xbd, 0x61, 0x7f, 0x90, 0x3c, 0x1f, 0x53, 0x4d, 0x3e, 0x14, 0x1e, 0xc6, 0xbe, 0x0e, 0xf0, 0xc2, 0xbe, 0x4b, 0x78, 0xd9, 0x3c, 0x05, 0x32, 0xe2, 0xbd, 0x6a, 0x8c, 0x43, 0xbe, 0x5d, 0x84, 0x8b, 0xbe, 0x5b, 0x04, 0x83, 0xbd, 0x34, 0x7b, 0x8e, 0x3d, 0xd0, 0xba, 0x57, 0xbe, 0x62, 0x18, 0x6b, 0xbe, 0x68, 0x6a, 0x41, 0xbd, 0x75, 0xba, 0x6d, 0xbe, 0x26, 0x39, 0x05, 0xbd, 0x19, 0x01, 0x9f, 0xbe, 0xc4, 0x96, 0x9a, 0xbe, 0x16, 0xbd, 0x99, 0x3d, 0x1d, 0x9f, 0x0e, 0xbe, 0xac, 0x98, 0x03, 0x3e, 0xb4, 0xb5, 0x60, 0x3e, 0x19, 0x95, 0x65, 0x3c, 0x5c, 0xf9, 0x34, 0xbe, 0xa3, 0xe7, 0x21, 0xbe, 0x86, 0xca, 0xed, 0x3c, 0x55, 0xf7, 0x22, 0xbe, 0xad, 0xf0, 0x19, 0xbe, 0x9f, 0x09, 0x6a, 0x3e, 0x5c, 0x8c, 0xe1, 0xbd, 0xcd, 0xe7, 0x39, 0x3e, 0xcb, 0xcd, 0x20, 0x3e, 0xe2, 0x4d, 0x3b, 0xbd, 0x64, 0xce, 0x88, 0xbc, 0xca, 0x22, 0x1f, 0x3e, 0x3a, 0x88, 0xa3, 0xbe, 0x37, 0x2d, 0xa0, 0x3e, 0x42, 0x85, 0x08, 0x3f, 0xe2, 0x96, 0x17, 0x3e, 0x30, 0xfb, 0x5f, 0x3d, 0x02, 0x1d, 0xd3, 0xbc, 0xba, 0xd9, 0x2a, 0x3f, 0x39, 0x06, 0x86, 0x3e, 0x85, 0xc8, 0xbb, 0xbe, 0x39, 0xe6, 0xa5, 0xbe, 0x35, 0xbd, 0x16, 0xbf, 0x71, 0xe8, 0x9e, 0xbe, 0x7c, 0x5e, 0xb2, 0x3d, 0x90, 0x3d, 0x58, 0x3e, 0xb7, 0x89, 0x9a, 0xbe, 0x97, 0x93, 0xf3, 0xbd, 0xda, 0xa3, 0x6a, 0xbf, 0x2c, 0x2c, 0x95, 0x3e, 0x5b, 0x79, 0x5d, 0xbf, 0x39, 0x8b, 0x2b, 0xbf, 0x79, 0xb1, 0x0c, 0xbe, 0xe4, 0xbd, 0x51, 0xbe, 0x31, 0xab, 0xc1, 0xbd, 0x33, 0xf3, 0xd1, 0x3d, 0xb4, 0x9d, 0x8e, 0xbd, 0x10, 0x32, 0x84, 0x3e, 0xfe, 0x3e, 0x87, 0xbf, 0x90, 0x02, 0x59, 0xbf, 0xe6, 0x22, 0x82, 0x3a, 0x60, 0x7d, 0x36, 0x3f, 0xc1, 0xfd, 0x18, 0xbe, 0x38, 0x84, 0xa4, 0x3e, 0x38, 0x58, 0xa1, 0xbe, 0x49, 0x80, 0x94, 0x3e, 0xc1, 0xd6, 0x11, 0xbf, 0x34, 0x8d, 0x43, 0x3e, 0xd6, 0x1e, 0x73, 0xbe, 0x6e, 0xa0, 0x4a, 0xbf, 0x91, 0x67, 0x73, 0x3f, 0xc9, 0x1d, 0x16, 0x3f, 0xdb, 0x5f, 0x5c, 0x3e, 0xd2, 0x00, 0x74, 0xbf, 0x98, 0x06, 0x2c, 0x3c, 0xd8, 0x20, 0x52, 0x3f, 0x22, 0xe3, 0x92, 0xbe, 0x17, 0x2f, 0x80, 0xbe, 0x9e, 0x85, 0x9f, 0xbf, 0xdd, 0x97, 0xbe, 0x3d, 0xc9, 0xae, 0xaa, 0x3e, 0x56, 0xa1, 0x84, 0xbe, 0x03, 0xe9, 0x0a, 0xbd, 0x98, 0x86, 0x4c, 0xbf, 0x9c, 0x03, 0x67, 0x3e, 0x33, 0x8c, 0x05, 0x3d, 0x05, 0xc9, 0x08, 0x3e, 0xcb, 0xca, 0x68, 0xbe, 0xfd, 0x8e, 0xa6, 0xbe, 0xe5, 0x45, 0x00, 0xbe, 0x5b, 0x2b, 0x93, 0x3e, 0xed, 0xd4, 0x62, 0xbf, 0x49, 0x7d, 0x78, 0xbf, 0xa9, 0x97, 0x87, 0x3e, 0x11, 0x2d, 0x4c, 0x3d, 0xa7, 0xee, 0x57, 0x3e, 0x47, 0xda, 0xc9, 0x3e, 0x01, 0x1b, 0x16, 0xbf, 0xe5, 0x52, 0xd7, 0x3e, 0x5e, 0x74, 0x61, 0xbe, 0x9c, 0xaf, 0xac, 0x3e, 0x2a, 0xb8, 0x9c, 0x3e, 0x4c, 0x79, 0x2c, 0x3f, 0xec, 0x91, 0x3b, 0xbf, 0x0e, 0x32, 0x04, 0x3e, 0xd2, 0xf7, 0x0a, 0xbf, 0xa0, 0x21, 0xf2, 0xbd, 0x00, 0x0a, 0xcc, 0xbd, 0x2c, 0xbd, 0xc0, 0x3e, 0xae, 0x2b, 0x0c, 0xbf, 0xeb, 0x3c, 0x20, 0xbf, 0x3c, 0x47, 0x33, 0x3f, 0xa0, 0x37, 0xc5, 0xbe, 0x14, 0xf7, 0x2b, 0xbe, 0x87, 0xf9, 0x94, 0xbd, 0xed, 0x54, 0x15, 0x3e, 0xe7, 0xfe, 0x62, 0xbf, 0x6b, 0x90, 0x78, 0xbe, 0xd6, 0xec, 0x17, 0x3d, 0x29, 0x61, 0x5e, 0x3f, 0x52, 0xe5, 0x92, 0xbd, 0x87, 0x20, 0x75, 0xbf, 0x86, 0x9b, 0x95, 0x3e, 0x59, 0x84, 0xac, 0x3e, 0xb0, 0x8a, 0x81, 0x3f, 0x70, 0x05, 0x15, 0x3e, 0x4d, 0x18, 0x12, 0xbd, 0x1c, 0xd6, 0xb1, 0x3a, 0x6a, 0xd3, 0x03, 0xbe, 0xf1, 0x49, 0x23, 0x3e, 0xe5, 0xbc, 0xe4, 0x3e, 0x4f, 0xab, 0x5c, 0xbe, 0x20, 0x6f, 0x41, 0x3f, 0x1c, 0x31, 0x80, 0x3f, 0xd2, 0x0e, 0x1f, 0x3f, 0x15, 0xb2, 0xa4, 0x3e, 0x01, 0xbb, 0x50, 0x3e, 0xad, 0xf2, 0x24, 0xbe, 0xcd, 0x17, 0x05, 0x3d, 0xec, 0xae, 0x2f, 0x3e, 0xa8, 0xde, 0x75, 0x3e, 0x4f, 0x61, 0x5a, 0x3e, 0x6c, 0x3f, 0x88, 0xbe, 0x59, 0xa9, 0x14, 0xbf, 0xe6, 0x2b, 0x4a, 0x3f, 0xfc, 0x1a, 0xeb, 0xbd, 0x13, 0xcd, 0xf7, 0x3e, 0xa4, 0xaa, 0x01, 0x3f, 0x71, 0x5b, 0x0b, 0x3f, 0xcd, 0xcf, 0x8f, 0x3e, 0x14, 0x42, 0xbc, 0x3e, 0x72, 0xa3, 0x63, 0x3e, 0x17, 0xe8, 0x9c, 0xbf, 0x79, 0xb1, 0xfb, 0x3d, 0x71, 0x12, 0xd7, 0x3b, 0x9c, 0x54, 0xe4, 0xbd, 0x56, 0x21, 0x45, 0x3e, 0x8d, 0x94, 0x0f, 0x3f, 0x2c, 0xda, 0x10, 0x3e, 0xa1, 0xd6, 0x24, 0xbf, 0xb8, 0xe1, 0xb1, 0xbf, 0xa3, 0x30, 0xc3, 0x3e, 0x32, 0x80, 0x0c, 0x3e, 0x93, 0x2a, 0x97, 0xbd, 0xd4, 0x48, 0x8d, 0xbe, 0x2e, 0x4a, 0x65, 0xbf, 0x29, 0x07, 0x92, 0x3d, 0x70, 0xc7, 0xd6, 0x3e, 0xa7, 0xc5, 0xd4, 0x3e, 0xde, 0xcc, 0xf3, 0xbe, 0x7f, 0x6b, 0x73, 0xbe, 0xdf, 0xb1, 0xc2, 0xbd, 0x4c, 0xd5, 0xc6, 0xbc, 0x1c, 0x9b, 0x22, 0xbf, 0x2c, 0x0b, 0x80, 0xbf, 0x26, 0x7d, 0x58, 0xbd, 0x3c, 0x2b, 0xaf, 0x3d, 0x63, 0xa7, 0x8c, 0x3d, 0x91, 0x60, 0x34, 0x3d, 0xde, 0x37, 0xd4, 0xbe, 0x98, 0xa0, 0x6c, 0x3e, 0x2b, 0x23, 0xb3, 0xbd, 0xa7, 0x3a, 0xd4, 0x3d, 0x49, 0xf1, 0x6d, 0x3e, 0x93, 0xd8, 0x2b, 0x3f, 0x15, 0x6e, 0x8d, 0xbf, 0x0b, 0xa6, 0x87, 0xbd, 0xaa, 0x3e, 0x38, 0xbe, 0xda, 0x54, 0xb7, 0xbb, 0x1a, 0xa4, 0x1e, 0xbe, 0x6a, 0x17, 0x87, 0x3d, 0x02, 0x93, 0xcb, 0xbe, 0xd8, 0x69, 0x29, 0xbe, 0x8a, 0xcf, 0x96, 0x3f, 0x72, 0x17, 0xae, 0xbe, 0xca, 0xe2, 0x02, 0x3c, 0x8f, 0x0f, 0x0b, 0x3e, 0x79, 0xb6, 0x2a, 0xbf, 0xd9, 0xa9, 0x7d, 0xbf, 0x24, 0x4b, 0xd7, 0xbd, 0x18, 0x5a, 0x5d, 0xbd, 0x63, 0xe6, 0x59, 0x3f, 0x7d, 0xf7, 0x90, 0x3d, 0xd1, 0x4e, 0xb2, 0xbd, 0x45, 0x39, 0x42, 0xbe, 0x68, 0xd1, 0x80, 0x3d, 0xfd, 0xe2, 0xeb, 0x3e, 0x53, 0xa9, 0x27, 0x3e, 0xb7, 0xd4, 0xa3, 0xbe, 0xe3, 0x2f, 0xa9, 0x3e, 0x7c, 0xdd, 0x90, 0x3f, 0xf1, 0xb5, 0x94, 0x3e, 0x35, 0x26, 0x6f, 0xbe, 0x27, 0x18, 0xe9, 0x3c, 0x32, 0x25, 0x8d, 0x3f, 0x95, 0x0d, 0x23, 0x3f, 0xa8, 0x9a, 0x42, 0x3f, 0xfe, 0xb6, 0x3c, 0xbf, 0xb8, 0x99, 0x81, 0x3e, 0x3b, 0x7d, 0x4a, 0xbe, 0x96, 0x13, 0x86, 0x3e, 0x46, 0x17, 0x36, 0x3f, 0xa1, 0xbe, 0xf0, 0xbd, 0xf5, 0xba, 0xc4, 0x3d, 0x37, 0x0a, 0x06, 0xbf, 0xb1, 0xa0, 0x3a, 0x3e, 0xca, 0x67, 0x12, 0x3f, 0x63, 0xfc, 0x91, 0xbf, 0xaf, 0x9c, 0x15, 0xbe, 0xc9, 0x9d, 0x9a, 0xbc, 0xc8, 0xb2, 0xe5, 0x3e, 0xa7, 0x18, 0x9a, 0xbe, 0x4f, 0x61, 0x8a, 0x3d, 0x8d, 0xc2, 0x16, 0x3e, 0x50, 0xfc, 0x30, 0xbf, 0x32, 0x9b, 0xc5, 0x3e, 0x30, 0xed, 0xcd, 0x3e, 0x34, 0x7b, 0x9c, 0x3e, 0xcc, 0x02, 0x49, 0xbf, 0x1b, 0x02, 0x83, 0xbf, 0x33, 0x95, 0x40, 0x3c, 0xd2, 0x63, 0xc1, 0xbe, 0x0b, 0x25, 0xa7, 0x3f, 0xfa, 0xb0, 0x0d, 0xbe, 0xd6, 0x98, 0x55, 0xbd, 0x36, 0xe3, 0xee, 0xbd, 0x80, 0xaf, 0x9e, 0x3c, 0x7b, 0x39, 0x2d, 0x3e, 0x5c, 0xdd, 0xdb, 0x3d, 0x63, 0xfd, 0x00, 0xbf, 0xc2, 0xee, 0x00, 0x3e, 0x6c, 0x62, 0xea, 0xbc, 0x89, 0x83, 0xa0, 0x3d, 0x57, 0x74, 0x2e, 0x3e, 0xf0, 0x5a, 0x8b, 0x3e, 0xad, 0x0f, 0x87, 0x3f, 0x91, 0xeb, 0x50, 0x3f, 0x09, 0x1e, 0xf2, 0x3e, 0x2a, 0x97, 0x20, 0xbf, 0x9d, 0x89, 0xeb, 0x3e, 0x9f, 0x2b, 0x61, 0xbd, 0x50, 0x99, 0x33, 0x3f, 0x44, 0xb5, 0x5b, 0x3f, 0x64, 0x4c, 0x09, 0xbf, 0xe7, 0x31, 0x8c, 0x3d, 0x27, 0xcb, 0xa6, 0xbe, 0x68, 0xf0, 0x75, 0xbd, 0x4a, 0x0e, 0x64, 0x3f, 0xff, 0x89, 0x91, 0xbf, 0x7a, 0xbb, 0x92, 0xbd, 0xdf, 0x4e, 0x09, 0x3e, 0x4f, 0x03, 0xda, 0x3e, 0x43, 0x50, 0xf9, 0xbd, 0x02, 0xa7, 0xf8, 0x3e, 0xc9, 0x86, 0xfc, 0x3e, 0xfd, 0xf2, 0x31, 0xbf, 0x0e, 0xf2, 0xa6, 0x3e, 0xb5, 0x2d, 0xb6, 0x3e, 0x50, 0x6d, 0x59, 0xbe, 0x4d, 0xe0, 0xe6, 0x3d, 0x3b, 0x6d, 0xab, 0xbf, 0x5e, 0x8d, 0x1f, 0xbe, 0x1c, 0xfc, 0xbf, 0x3e, 0xfd, 0xce, 0x88, 0x3f, 0xc8, 0x30, 0xb4, 0xbd, 0xe3, 0x63, 0xf5, 0xbe, 0xcb, 0xe1, 0x3f, 0x3b, 0xd6, 0xc4, 0x80, 0xbd, 0x78, 0x87, 0x42, 0x3f, 0xf4, 0x66, 0x09, 0x3f, 0x31, 0x49, 0x95, 0xbe, 0x45, 0x49, 0xe1, 0xbb, 0xe5, 0x36, 0x32, 0x3f, 0x33, 0x9c, 0x9f, 0x3d, 0xa3, 0x05, 0xa0, 0xbd, 0xd6, 0x66, 0xc1, 0xbe, 0x4d, 0x8f, 0xa8, 0x3f, 0x72, 0x46, 0x96, 0x3f, 0x2a, 0x59, 0x00, 0x3f, 0xf4, 0x3c, 0x8b, 0x3e, 0xe2, 0x83, 0x0a, 0x3e, 0x65, 0x0e, 0x86, 0xbe, 0xd6, 0x0b, 0xe6, 0x3d, 0x42, 0x53, 0x1b, 0xbe, 0x50, 0xb4, 0x78, 0x3e, 0x9f, 0xb9, 0x85, 0x3d, 0x9c, 0x86, 0x98, 0xbe, 0x46, 0x5e, 0x53, 0xbf, 0x1e, 0x7a, 0x69, 0x3f, 0x13, 0xdf, 0xa6, 0x3d, 0x95, 0xf0, 0x1d, 0x3f, 0x29, 0x71, 0x14, 0x3f, 0xf8, 0xf4, 0xe8, 0x3d, 0xcd, 0xdd, 0x07, 0x3d, 0xe5, 0x89, 0x2f, 0x3e, 0x88, 0x0f, 0x3e, 0x3f, 0xca, 0x46, 0x80, 0xbf, 0x6e, 0xec, 0xa0, 0x3e, 0xbc, 0xe2, 0x98, 0x3e, 0x5f, 0x13, 0x3b, 0x3e, 0xf0, 0xad, 0xa9, 0x3e, 0xdf, 0xad, 0xf3, 0x3e, 0x39, 0x1d, 0xb4, 0x3d, 0xfc, 0x8d, 0x3a, 0x3f, 0x29, 0xb0, 0x98, 0x3f, 0xeb, 0xe1, 0xc6, 0xbe, 0xdb, 0x59, 0x88, 0xbe, 0x79, 0x78, 0xe0, 0x3d, 0xdf, 0x65, 0xaf, 0xbd, 0xe9, 0xe4, 0x23, 0x3f, 0x10, 0x90, 0xab, 0xbd, 0xca, 0x10, 0xbb, 0x3e, 0x39, 0x61, 0x1f, 0xbe, 0x90, 0xad, 0xc2, 0x3e, 0x06, 0xa9, 0xd8, 0x3e, 0xea, 0x81, 0x1e, 0x3e, 0xfb, 0x24, 0x70, 0xbe, 0x2a, 0x6d, 0xd5, 0xbe, 0x16, 0xab, 0x22, 0x3f, 0x01, 0x63, 0x56, 0x3f, 0x2f, 0x79, 0xce, 0x3e, 0x8b, 0xa3, 0x1f, 0xbf, 0x7c, 0xfc, 0x01, 0xbe, 0xc4, 0x58, 0xa8, 0xbd, 0xad, 0x90, 0x78, 0xbf, 0xbe, 0xcd, 0xc2, 0x3e, 0x83, 0xeb, 0xff, 0x3d, 0x5e, 0x21, 0x00, 0x3f, 0x0f, 0x51, 0xfe, 0xbe, 0x68, 0x75, 0x7d, 0x3f, 0x02, 0x76, 0x07, 0x3f, 0x3a, 0x46, 0x1c, 0x3f, 0xfd, 0xae, 0x16, 0x3e, 0x9b, 0x18, 0x87, 0x3e, 0x65, 0xb5, 0xda, 0x3d, 0x4f, 0x90, 0x39, 0xbd, 0x28, 0xbe, 0xad, 0xbe, 0x4f, 0x8f, 0x66, 0xbf, 0x81, 0x04, 0x82, 0x3e, 0xf1, 0x9b, 0x70, 0xbf, 0xf0, 0xb2, 0x84, 0x3e, 0xbd, 0xbf, 0x6b, 0x3e, 0xae, 0x59, 0xb1, 0xbe, 0xf9, 0x0b, 0x91, 0x3e, 0x3d, 0xb2, 0x14, 0x3f, 0x77, 0x0f, 0xe2, 0xbe, 0x29, 0x58, 0xff, 0xbe, 0xec, 0xe1, 0x71, 0xbe, 0xc4, 0x0d, 0x9b, 0x3e, 0xba, 0x03, 0x3c, 0xbd, 0x26, 0xae, 0xa0, 0x3f, 0x0c, 0x84, 0x6e, 0xbe, 0x91, 0x4e, 0x18, 0x3e, 0x1b, 0x8f, 0x05, 0x3d, 0xb7, 0x29, 0x23, 0x3e, 0xf5, 0xf1, 0x4b, 0xbe, 0xb6, 0xae, 0x99, 0x3e, 0xc7, 0x81, 0x9c, 0xbe, 0x68, 0xd5, 0x4e, 0xbd, 0x62, 0x47, 0xf5, 0x3e, 0x77, 0xa4, 0x03, 0x3f, 0xcf, 0xc0, 0x08, 0x3f, 0xd9, 0x2e, 0x75, 0xbe, 0xec, 0x92, 0x42, 0x3e, 0x66, 0x4f, 0xd9, 0xbe, 0xd3, 0x18, 0x31, 0xbf, 0xb1, 0xdf, 0xc7, 0x3e, 0xe8, 0xa1, 0xe0, 0x3d, 0xd2, 0x98, 0x21, 0x3e, 0xbb, 0x29, 0x94, 0xbf, 0xac, 0x7c, 0x05, 0x3e, 0x0f, 0xd2, 0xb8, 0x3e, 0x69, 0x86, 0x6e, 0x3e, 0x0c, 0xed, 0xa8, 0x3e, 0x95, 0x64, 0x43, 0x3e, 0x24, 0x10, 0x56, 0x3e, 0xeb, 0x74, 0x00, 0xbe, 0x22, 0x7d, 0x44, 0xbf, 0x93, 0x71, 0xa7, 0xbf, 0x14, 0xe3, 0xd3, 0xbe, 0xb0, 0x23, 0x28, 0xbf, 0x94, 0xa4, 0x74, 0x3e, 0x6a, 0x4d, 0xc3, 0xbe, 0xad, 0x81, 0x85, 0xbe, 0x68, 0x8a, 0x2a, 0x3d, 0xf8, 0x60, 0x8c, 0xbe, 0xc7, 0x03, 0x79, 0xbe, 0xaf, 0xc5, 0x22, 0x3e, 0x50, 0x25, 0xf9, 0x3a, 0x0b, 0x42, 0x1d, 0xbe, 0xec, 0xad, 0x9f, 0x3e, 0x24, 0x5c, 0x81, 0x3e, 0x77, 0xbf, 0x88, 0xbe, 0xb2, 0x52, 0x94, 0xbe, 0xfc, 0x1e, 0xf5, 0xbd, 0xa3, 0x87, 0x6a, 0xbd, 0x73, 0xc4, 0x8c, 0xbe, 0xa2, 0x73, 0xf5, 0xbd, 0x7f, 0xa9, 0x65, 0xbd, 0xd0, 0xe5, 0xad, 0x3e, 0x40, 0xdf, 0xb7, 0x3d, 0x84, 0x46, 0xd3, 0x3d, 0x99, 0xa2, 0x61, 0xbd, 0x5f, 0xa3, 0x74, 0xbe, 0xe0, 0x89, 0x86, 0xbe, 0x10, 0xbb, 0x5b, 0xbe, 0x41, 0xde, 0xb8, 0xbd, 0x2b, 0xee, 0xae, 0x3d, 0x6d, 0x84, 0x1b, 0xbe, 0x25, 0xf1, 0x66, 0x3c, 0x11, 0xff, 0xbd, 0x3e, 0x42, 0x1f, 0xb3, 0x3d, 0xdc, 0x23, 0xe4, 0xbd, 0x5e, 0xc2, 0x0f, 0x3e, 0xa6, 0x7c, 0x11, 0x3e, 0xe8, 0xea, 0xa3, 0x3e, 0x12, 0x60, 0x82, 0xbe, 0xf0, 0x47, 0x88, 0x3d, 0xcf, 0x18, 0x74, 0x3d, 0x50, 0xaf, 0x8d, 0x3e, 0xec, 0x5e, 0x65, 0xbe, 0x12, 0xf2, 0x1d, 0x3d, 0xe3, 0xf8, 0x22, 0x3e, 0x55, 0x6c, 0x92, 0xbc, 0xb6, 0xb0, 0x34, 0x3f, 0x75, 0x90, 0x37, 0xbe, 0x4d, 0x95, 0x0f, 0xbf, 0xbb, 0x71, 0x85, 0xbf, 0xd0, 0xcc, 0x99, 0x3e, 0x0b, 0xc9, 0x1f, 0x3f, 0x30, 0xd7, 0x1e, 0xbe, 0x05, 0x82, 0xbf, 0xbe, 0x8e, 0x86, 0x45, 0xbf, 0xf9, 0x4b, 0x79, 0x3e, 0x36, 0x9c, 0x97, 0x3e, 0x5c, 0x22, 0x92, 0x3e, 0x3b, 0xe5, 0x12, 0xbf, 0xe9, 0xab, 0xaf, 0xbe, 0x88, 0x02, 0x05, 0x3e, 0x16, 0xf6, 0x71, 0x3d, 0x8a, 0xa3, 0x5d, 0xbf, 0x16, 0xe8, 0x70, 0xbf, 0x59, 0xf4, 0x9f, 0xbd, 0xa1, 0xee, 0x12, 0x3e, 0xaa, 0x3b, 0x8e, 0x3e, 0x06, 0x8f, 0x0f, 0x3e, 0xad, 0xfb, 0x36, 0xbe, 0x2f, 0x98, 0xa6, 0x3e, 0xa4, 0xcf, 0x45, 0x3e, 0x4c, 0xdf, 0x35, 0xbe, 0xe5, 0x2e, 0xed, 0x3e, 0xcf, 0x16, 0xc8, 0x3e, 0x65, 0xfb, 0x2d, 0xbf, 0xd8, 0xfd, 0x41, 0x3e, 0xa1, 0x09, 0x1a, 0xbe, 0x95, 0x98, 0xaf, 0xbe, 0xca, 0xd9, 0xe4, 0xbe, 0x82, 0xd6, 0x75, 0x3e, 0x93, 0xcb, 0xf4, 0xbd, 0x38, 0xef, 0xdd, 0xbe, 0x89, 0xa2, 0x82, 0x3f, 0xd1, 0x08, 0xc0, 0xbd, 0x5a, 0xa6, 0x80, 0xbe, 0xab, 0x23, 0x75, 0xbe, 0x32, 0x51, 0xee, 0x3e, 0x38, 0x0c, 0x6b, 0x3e, 0xde, 0x68, 0x0b, 0xbe, 0xe7, 0xbb, 0x23, 0xbf, 0xee, 0x28, 0x5f, 0xbf, 0x9a, 0xf1, 0x95, 0xbd, 0x88, 0x13, 0x08, 0x3e, 0x92, 0xd5, 0xd3, 0xbd, 0x56, 0x5d, 0x85, 0x3e, 0xef, 0xbd, 0x7c, 0xbf, 0x2c, 0x84, 0x51, 0x3e, 0xad, 0x4c, 0xc9, 0x3e, 0xc9, 0x94, 0x44, 0x3e, 0xaf, 0x9c, 0x1c, 0xbf, 0x4e, 0xc9, 0x03, 0x3d, 0xca, 0xf0, 0xf8, 0xbe, 0xe3, 0x0f, 0x90, 0x3c, 0xfc, 0xab, 0x2e, 0xbf, 0x7b, 0x62, 0x46, 0xbf, 0xa9, 0x2f, 0x30, 0xbe, 0x80, 0x2d, 0x8e, 0xbe, 0x04, 0x63, 0xa2, 0x3e, 0x67, 0x8f, 0x82, 0x3e, 0x4a, 0x8b, 0xd7, 0xbe, 0xda, 0x77, 0x5b, 0x3e, 0x41, 0xac, 0x92, 0xbe, 0x19, 0x54, 0x3b, 0xbd, 0x55, 0x39, 0xab, 0x3d, 0xbf, 0x29, 0x0f, 0x3f, 0x7f, 0xe5, 0x82, 0xbf, 0xb7, 0xa4, 0x37, 0x3b, 0x5e, 0xab, 0x5a, 0xbe, 0xd5, 0xeb, 0xa7, 0xbd, 0x93, 0x99, 0x15, 0xbf, 0xb4, 0xc7, 0xa6, 0x3e, 0x49, 0x93, 0x97, 0x3d, 0x82, 0xcb, 0x08, 0xbf, 0x04, 0xce, 0x50, 0x3f, 0xca, 0x79, 0x30, 0xbe, 0xeb, 0x7d, 0xc0, 0x3d, 0xd5, 0x8c, 0x48, 0xbd, 0x76, 0x45, 0x40, 0xbe, 0xb1, 0x7f, 0x66, 0x3e, 0xa5, 0x90, 0x5f, 0x3d, 0x5f, 0x9c, 0xfa, 0x3e, 0x51, 0x01, 0x91, 0x3f, 0x68, 0x49, 0x0b, 0xbf, 0x7e, 0xf8, 0xf7, 0xbe, 0x81, 0x3d, 0x8a, 0x3d, 0x2f, 0x9a, 0x69, 0x3e, 0x1a, 0xef, 0xdb, 0x3e, 0xb9, 0x9c, 0x2f, 0x3e, 0x1c, 0xb6, 0x46, 0x3e, 0xe8, 0xe1, 0x40, 0x3e, 0x8c, 0xdb, 0x04, 0x3b, 0x59, 0x30, 0x83, 0x3d, 0x47, 0x2b, 0x6d, 0x3e, 0xe7, 0x97, 0x22, 0x3e, 0xee, 0x87, 0x82, 0x3f, 0xa1, 0x79, 0x29, 0x3f, 0x67, 0xb8, 0x3f, 0x3f, 0x52, 0x2d, 0xcb, 0x3e, 0xb1, 0x2a, 0xff, 0xbe, 0x47, 0x1e, 0x99, 0xbe, 0x60, 0xf8, 0x0a, 0x3e, 0x00, 0x8a, 0x1c, 0xbc, 0xc3, 0x10, 0xba, 0x3e, 0x49, 0xb4, 0xdf, 0x3d, 0xf2, 0xec, 0x3d, 0xbe, 0x5e, 0x39, 0x5a, 0xbe, 0x10, 0xfb, 0x20, 0x3f, 0x93, 0x78, 0x6e, 0xbd, 0xf9, 0x9e, 0xa7, 0x3d, 0x01, 0xab, 0xc1, 0x3e, 0x6e, 0x64, 0x28, 0x3e, 0x7c, 0x21, 0x3f, 0xbe, 0x2c, 0x55, 0xe9, 0x3e, 0x2d, 0x22, 0xaa, 0x3e, 0xe1, 0x88, 0x1a, 0xbf, 0x63, 0xd9, 0xa7, 0x3e, 0x93, 0x27, 0x97, 0xbe, 0xa4, 0x84, 0x31, 0x3e, 0x08, 0x88, 0xfe, 0x3e, 0x69, 0xbe, 0x1c, 0x3f, 0x6d, 0xc5, 0xf0, 0x3d, 0x2d, 0x63, 0x44, 0xbf, 0x7b, 0x27, 0xa0, 0xbf, 0xa1, 0x73, 0x16, 0x3e, 0xee, 0x8e, 0x03, 0x3f, 0x4c, 0x6d, 0x87, 0xbd, 0x1d, 0x34, 0xac, 0xbe, 0x00, 0xae, 0x61, 0xbf, 0x9a, 0x40, 0x56, 0x3e, 0x29, 0xfa, 0x81, 0x3e, 0x2e, 0x5e, 0xb8, 0x3e, 0x9c, 0x5e, 0x29, 0xbe, 0xde, 0x8c, 0xb0, 0xbd, 0xc8, 0xd1, 0x2d, 0xbc, 0xae, 0x1a, 0xbf, 0x3e, 0xea, 0x1c, 0x3f, 0xbf, 0xba, 0x36, 0x99, 0xbf, 0xde, 0x8a, 0xc1, 0xbe, 0xc4, 0xc6, 0x8a, 0x3d, 0x86, 0xa7, 0x95, 0x3e, 0x83, 0x7c, 0x27, 0x3e, 0x54, 0x5e, 0x48, 0xbf, 0x1c, 0xd0, 0xf4, 0x3d, 0xab, 0x98, 0xa7, 0xbe, 0x77, 0xbf, 0x67, 0xbd, 0x22, 0x44, 0x81, 0x3e, 0xb4, 0xad, 0x31, 0x3f, 0x67, 0x57, 0x3f, 0xbf, 0xd2, 0x82, 0x06, 0x3e, 0x5d, 0xa2, 0xfa, 0xbe, 0x38, 0x5a, 0x92, 0xbd, 0x4d, 0xc0, 0x4b, 0xbf, 0x75, 0x24, 0x10, 0x3e, 0xae, 0xaf, 0x30, 0xbe, 0xfc, 0x4e, 0x0c, 0xbf, 0x1c, 0x63, 0x6f, 0x3f, 0xac, 0x4a, 0x51, 0x3d, 0x4d, 0x14, 0xe9, 0xbc, 0x64, 0x28, 0xa6, 0xbd, 0x04, 0x69, 0xc5, 0x3e, 0x39, 0x79, 0xca, 0x3e, 0x81, 0xb6, 0x4b, 0xbe, 0xfa, 0x5f, 0x1b, 0xbf, 0x9a, 0x85, 0xae, 0xbf, 0x39, 0xff, 0x7c, 0x3e, 0x47, 0x6c, 0x7a, 0x3e, 0xaf, 0x98, 0x04, 0xbe, 0xa6, 0xc2, 0x74, 0xbb, 0x89, 0xa3, 0x50, 0xbf, 0x7e, 0xb6, 0x50, 0x3c, 0x45, 0x59, 0x25, 0x3d, 0xc5, 0xe9, 0xb9, 0x3e, 0xdd, 0x91, 0x42, 0xbd, 0xf0, 0xb0, 0xcb, 0x3d, 0x0c, 0x64, 0xa3, 0xbe, 0xd0, 0x3d, 0x75, 0x3e, 0x13, 0x7d, 0x86, 0xbf, 0x26, 0xb6, 0x5b, 0xbf, 0x53, 0x58, 0xa8, 0xbe, 0x8c, 0xbf, 0x50, 0xbe, 0x57, 0x48, 0x64, 0x3d, 0x2f, 0x2a, 0xc2, 0x3e, 0x18, 0x6a, 0xa2, 0xbe, 0x74, 0xd5, 0xcb, 0x3e, 0xb3, 0xed, 0xf4, 0x3d, 0xfe, 0xe7, 0x44, 0xbb, 0xcd, 0x3b, 0xed, 0x3e, 0x0c, 0x15, 0x5f, 0x3f, 0xf1, 0x7e, 0x90, 0xbf, 0x46, 0x3a, 0xc6, 0x3d, 0x35, 0x51, 0x01, 0xbf, 0x4e, 0x1b, 0x1e, 0xbb, 0xb3, 0xc9, 0x7a, 0xbe, 0xd2, 0x92, 0x9a, 0x3e, 0x5d, 0x77, 0x13, 0x3d, 0x8c, 0xb9, 0x1c, 0xbf, 0xf7, 0xae, 0x87, 0x3f, 0x70, 0x6b, 0x3a, 0xbe, 0x1f, 0x66, 0x52, 0x3d, 0x46, 0xb8, 0xe9, 0xbd, 0x38, 0x3f, 0xdd, 0x3d, 0x58, 0x94, 0x11, 0xbe, 0x00, 0xc7, 0x2b, 0xbe, 0x66, 0x91, 0x98, 0xbe, 0x92, 0x89, 0xd8, 0x3d, 0xc1, 0x6c, 0xca, 0xbd, 0xaf, 0xd3, 0x27, 0xbe, 0x44, 0x64, 0x13, 0x3d, 0x5b, 0xdb, 0x61, 0xbe, 0xfa, 0xb2, 0x9a, 0xbd, 0x0f, 0xa4, 0x97, 0xbe, 0xfe, 0x83, 0x00, 0xbe, 0xa4, 0x54, 0xe4, 0x3d, 0xbb, 0x6a, 0x0a, 0xbe, 0x09, 0x6f, 0xdb, 0x3b, 0xfe, 0x4f, 0x98, 0xbe, 0x28, 0x76, 0x62, 0x3e, 0x3f, 0x37, 0x31, 0xbe, 0xc2, 0x77, 0x4a, 0xbd, 0x1a, 0x0b, 0x0e, 0xbd, 0x9f, 0xd7, 0x93, 0xbe, 0xd0, 0x28, 0x1e, 0xbe, 0xf2, 0x1f, 0xe1, 0xbd, 0xf2, 0x5b, 0x85, 0xbe, 0x44, 0xc5, 0x70, 0x3d, 0x9f, 0xae, 0x6f, 0x3e, 0x19, 0x48, 0xc5, 0xbd, 0xdd, 0x88, 0x08, 0x3e, 0xad, 0x1c, 0x3a, 0x3c, 0xe5, 0x28, 0x3f, 0x3d, 0x5e, 0x16, 0x9d, 0xbc, 0x2f, 0x2c, 0xff, 0x3c, 0xfc, 0xa2, 0x43, 0xbe, 0x94, 0x90, 0xe0, 0xbd, 0x9c, 0x5b, 0x2e, 0xbe, 0x58, 0x4e, 0x56, 0xbd, 0xdc, 0x60, 0x09, 0xbe, 0x6c, 0x0a, 0x6e, 0xbe, 0x12, 0xd5, 0x3e, 0xbe, 0xbb, 0xbd, 0xc3, 0x3d, 0x78, 0x41, 0xd6, 0xbd, 0x96, 0xf5, 0xff, 0xff, 0x04, 0x00, 0x00, 0x00, 0x9c, 0x09, 0x00, 0x00, 0xfb, 0x15, 0x8b, 0x3e, 0x24, 0x9e, 0x27, 0xbf, 0xc3, 0x0a, 0xb9, 0x3e, 0xa8, 0xc8, 0x52, 0x3e, 0xe9, 0x00, 0x0f, 0xbe, 0x14, 0xa8, 0x4b, 0x3e, 0x09, 0x66, 0x4a, 0xbe, 0xd5, 0xa7, 0xeb, 0xbe, 0xff, 0x59, 0x47, 0xbf, 0xc7, 0x64, 0xb8, 0x3e, 0x8e, 0xd1, 0xa7, 0x3e, 0xf4, 0xf3, 0xb8, 0x3d, 0x62, 0x17, 0x74, 0xbf, 0x7c, 0xdf, 0x44, 0x3d, 0x14, 0xef, 0x9b, 0xbd, 0xf6, 0x67, 0x98, 0xbf, 0x27, 0xb8, 0x44, 0xbf, 0x87, 0x01, 0xb1, 0x3e, 0x0a, 0xf3, 0x9c, 0x3d, 0xdf, 0x68, 0x74, 0xbc, 0x7e, 0x85, 0x15, 0xbe, 0xe3, 0xb5, 0x6a, 0x3e, 0xb3, 0x18, 0xfb, 0xbd, 0x13, 0xc2, 0xc0, 0x3c, 0x4e, 0xfa, 0x82, 0x3d, 0x24, 0x8b, 0x20, 0xbf, 0xf1, 0xf6, 0x4a, 0xbe, 0x8b, 0xb1, 0x00, 0x3e, 0x12, 0x15, 0x6a, 0xbf, 0x90, 0xd1, 0xb0, 0xbd, 0x61, 0x3c, 0xa6, 0xbe, 0xf0, 0x65, 0xc8, 0xbd, 0x68, 0x59, 0x58, 0x3e, 0x6d, 0x3e, 0x6e, 0xbe, 0xb0, 0xcd, 0x99, 0x3d, 0x36, 0x31, 0x41, 0x3e, 0xdc, 0x43, 0xa2, 0xbe, 0xb1, 0x4d, 0x1a, 0x3e, 0x26, 0x32, 0x81, 0xbe, 0xe8, 0x48, 0x88, 0xbd, 0x75, 0x67, 0x8b, 0xbe, 0x8d, 0x67, 0x8a, 0xbe, 0xf9, 0xff, 0x02, 0x3c, 0x24, 0x8a, 0xa4, 0xbe, 0xb6, 0xad, 0xa2, 0xbe, 0x67, 0xb5, 0x66, 0x3e, 0x27, 0x2c, 0xc8, 0xbf, 0xcd, 0x34, 0x2f, 0xbd, 0x03, 0x64, 0x91, 0x3e, 0xd0, 0x22, 0xd7, 0x3e, 0x2b, 0x96, 0x06, 0xbf, 0x3e, 0x8e, 0x12, 0xbe, 0x36, 0x2c, 0x8b, 0x3e, 0x15, 0xb2, 0x80, 0xbe, 0x09, 0xba, 0xc3, 0x3e, 0xc3, 0x9b, 0x08, 0xbe, 0xa2, 0x34, 0x17, 0x3e, 0xd4, 0xfc, 0xc0, 0x3d, 0x24, 0x9d, 0x3d, 0x3f, 0x3c, 0xd3, 0x93, 0x3d, 0xb0, 0xe8, 0xd1, 0x3e, 0xc3, 0xa6, 0xd5, 0xbe, 0x11, 0xf1, 0x32, 0x3e, 0x72, 0x32, 0x80, 0x3e, 0x02, 0x0d, 0xc5, 0xbe, 0x20, 0x40, 0x15, 0x3c, 0x9f, 0x02, 0xc3, 0xbd, 0x29, 0xe7, 0x4d, 0x3e, 0xd0, 0x15, 0xa0, 0xbe, 0x90, 0xe5, 0x14, 0xbf, 0xa4, 0xea, 0x5b, 0x3e, 0xc5, 0xb2, 0x0d, 0xc0, 0x35, 0x14, 0xa2, 0xbe, 0x9d, 0xb9, 0xe1, 0x3e, 0x25, 0xb8, 0x36, 0xbf, 0x93, 0xfa, 0x78, 0xbf, 0xa0, 0x4b, 0x2a, 0x3e, 0x0c, 0xf5, 0x64, 0x3e, 0x39, 0x6e, 0x22, 0x3e, 0x31, 0x34, 0x07, 0x3e, 0xb5, 0x66, 0x2c, 0x3e, 0xb0, 0xef, 0x3a, 0xbe, 0x6c, 0xdc, 0x0a, 0x3f, 0x1c, 0x35, 0x85, 0x3e, 0x71, 0xb2, 0xaf, 0xbe, 0xcc, 0xaa, 0xf2, 0x3d, 0x12, 0x4b, 0x81, 0x3d, 0x7a, 0x6b, 0x6f, 0xbf, 0xf4, 0xb0, 0x9e, 0x3f, 0x5d, 0xb5, 0x12, 0xbf, 0x91, 0xb1, 0xed, 0xbf, 0x68, 0xdc, 0x39, 0x3e, 0x82, 0x80, 0x95, 0x3c, 0x91, 0x41, 0x98, 0x3d, 0x72, 0x1d, 0x80, 0xbd, 0x1f, 0x15, 0x35, 0xbd, 0xd4, 0xbd, 0x28, 0x3e, 0x50, 0x81, 0xc4, 0x3d, 0xcf, 0x41, 0x04, 0xbf, 0x5d, 0x9f, 0x4e, 0xbe, 0x9a, 0xcb, 0x25, 0xbe, 0x57, 0xc7, 0x89, 0x3e, 0x70, 0xae, 0x17, 0xbd, 0xed, 0x8b, 0x3d, 0xc0, 0xda, 0x0f, 0xae, 0xbd, 0x50, 0x46, 0x31, 0x3d, 0x3b, 0xe7, 0x62, 0xbf, 0x9c, 0x5e, 0x85, 0x3b, 0x83, 0xb7, 0x88, 0x3e, 0x3f, 0x67, 0x09, 0xbf, 0x9f, 0xad, 0x11, 0xbe, 0x3f, 0x39, 0x9a, 0xbd, 0xe4, 0x32, 0x6a, 0x3e, 0x84, 0x78, 0xed, 0xbf, 0x56, 0x7b, 0x5c, 0x3e, 0xb9, 0x20, 0x6b, 0x3e, 0xfb, 0x8d, 0xa1, 0xbd, 0x19, 0x49, 0x04, 0x3e, 0x7c, 0x24, 0xa6, 0x3e, 0x69, 0xec, 0xb8, 0xbc, 0xe6, 0x55, 0xa0, 0xbd, 0x4b, 0x9e, 0x2f, 0xbe, 0x29, 0x1e, 0x33, 0x3b, 0xbb, 0x67, 0xac, 0x3e, 0xa2, 0x38, 0xe2, 0xbe, 0xa7, 0xea, 0x64, 0xbe, 0x9f, 0xac, 0xa8, 0xbc, 0x4c, 0x82, 0x97, 0xbe, 0xf8, 0xf4, 0x48, 0xbf, 0x58, 0x00, 0x65, 0xbe, 0xc8, 0x04, 0x56, 0x3e, 0x33, 0x14, 0x7e, 0x3e, 0x98, 0xe5, 0x16, 0x3e, 0xeb, 0x44, 0x2a, 0x3c, 0x3c, 0x10, 0x5e, 0x3e, 0xa9, 0x06, 0xaa, 0x3e, 0xf6, 0x37, 0x99, 0xbf, 0xc9, 0x1b, 0x78, 0x3d, 0x2a, 0xe5, 0x80, 0x3e, 0x80, 0x4d, 0x1e, 0x3d, 0x77, 0xa0, 0xf8, 0xbe, 0xab, 0xbd, 0x06, 0xbf, 0x0e, 0x21, 0xae, 0x3e, 0x64, 0x47, 0x59, 0x3e, 0x82, 0xc2, 0xfb, 0x3d, 0x3b, 0x9e, 0xd6, 0x3d, 0xd5, 0xc4, 0xdd, 0xbd, 0x6e, 0x44, 0xc8, 0x3e, 0xdc, 0x4f, 0x36, 0x3f, 0x11, 0xba, 0x9e, 0x3e, 0x38, 0x33, 0x86, 0xbe, 0x4f, 0x4d, 0x8f, 0x3e, 0x61, 0x9b, 0x88, 0x3d, 0xc8, 0xc1, 0x7a, 0xbd, 0xd7, 0x74, 0x2f, 0xbd, 0xba, 0x39, 0xaf, 0x3e, 0x87, 0x00, 0x78, 0x3e, 0x1c, 0x19, 0x40, 0x3e, 0x6e, 0x14, 0xc9, 0xbe, 0x0e, 0x73, 0x61, 0xbe, 0xb2, 0x6a, 0x17, 0x3d, 0xb5, 0x4a, 0x96, 0x3d, 0x8b, 0x5c, 0xb0, 0x3d, 0x62, 0x77, 0xcb, 0xbe, 0x74, 0x7e, 0x28, 0x3e, 0x28, 0xe1, 0xa2, 0xbd, 0x7f, 0x30, 0x46, 0xbf, 0x43, 0xfa, 0xc8, 0x3e, 0x16, 0x94, 0x9d, 0x3c, 0x16, 0x22, 0x0b, 0x3e, 0xbf, 0x04, 0x93, 0xbd, 0x4f, 0xd0, 0xaa, 0x3d, 0xc4, 0x04, 0xd5, 0x3d, 0x17, 0x20, 0xbb, 0xbe, 0xfb, 0xce, 0x4b, 0x3e, 0xca, 0x78, 0x8e, 0x3d, 0x8a, 0xc9, 0x14, 0xbd, 0x9b, 0x3a, 0xd3, 0x3e, 0x04, 0xba, 0x84, 0x3e, 0x60, 0x57, 0xa7, 0x3e, 0x57, 0x04, 0x1a, 0xbc, 0xd1, 0xc5, 0xc3, 0xbd, 0x0f, 0x48, 0xc9, 0x3e, 0x21, 0x83, 0x65, 0xbe, 0xf9, 0x8c, 0x22, 0x3d, 0x01, 0xc5, 0xcb, 0x3e, 0xe3, 0x10, 0xc1, 0x3e, 0xff, 0x9a, 0x16, 0x3f, 0x9d, 0x14, 0x25, 0xbd, 0xbd, 0x7a, 0x4d, 0xbe, 0xd5, 0x47, 0x61, 0xbd, 0x38, 0x97, 0x83, 0xbe, 0x3c, 0x7d, 0x4b, 0xbb, 0xde, 0xe6, 0x0d, 0xbf, 0xc6, 0x9b, 0xd6, 0x3e, 0xb2, 0xf7, 0x9c, 0xbe, 0x78, 0x8e, 0x97, 0x3d, 0xb7, 0xc0, 0x18, 0xbf, 0xb0, 0x20, 0x2f, 0x3d, 0xa5, 0xa0, 0x55, 0xbf, 0xed, 0x63, 0x46, 0x3c, 0x25, 0xbd, 0x2e, 0xbc, 0x18, 0xf5, 0xb8, 0x3e, 0xd7, 0x89, 0x27, 0x3e, 0x4d, 0x5a, 0x94, 0xbe, 0x25, 0xbe, 0xcf, 0xbe, 0x0f, 0x29, 0xb4, 0x3e, 0xda, 0x63, 0xfb, 0xbe, 0x4a, 0x0d, 0x5c, 0x3e, 0x8d, 0x87, 0x9f, 0x3e, 0x33, 0x11, 0x34, 0xbe, 0x88, 0x2a, 0xe0, 0xbd, 0xdd, 0x3b, 0x3d, 0xbf, 0x55, 0x1b, 0x8e, 0x3e, 0x14, 0x84, 0x36, 0xbb, 0x6f, 0xe3, 0xca, 0x3d, 0x48, 0x87, 0x8a, 0x3c, 0xbc, 0xef, 0x08, 0xbe, 0x1c, 0xf8, 0x9d, 0xbb, 0x02, 0x6b, 0x0d, 0xbe, 0x21, 0x06, 0x08, 0xbc, 0x45, 0x87, 0x4f, 0x3c, 0x3e, 0x25, 0xe2, 0x3d, 0xc7, 0x7a, 0x30, 0x3e, 0x66, 0x2f, 0x90, 0x3e, 0xff, 0x7e, 0x53, 0xbc, 0x87, 0x3f, 0xad, 0xbe, 0x58, 0x6e, 0x61, 0x3e, 0x77, 0x70, 0x05, 0xbe, 0x18, 0xb3, 0xc0, 0xbe, 0xb3, 0xe0, 0x8f, 0x3e, 0xd3, 0x6c, 0xab, 0x3d, 0x45, 0x05, 0xc8, 0x3e, 0x63, 0x7a, 0xf0, 0xbf, 0x01, 0x66, 0x6e, 0xbe, 0x1a, 0xfd, 0xae, 0x3e, 0x27, 0xa5, 0x1a, 0x3e, 0xbd, 0x11, 0x04, 0xbf, 0xcc, 0x86, 0xe2, 0x3e, 0x25, 0x53, 0x15, 0xbd, 0x2d, 0x99, 0xc3, 0xbf, 0xd8, 0xab, 0x81, 0x3e, 0xd6, 0xbf, 0x38, 0x3e, 0x8f, 0xff, 0x9b, 0xbc, 0x08, 0xb2, 0xbc, 0xbd, 0xf1, 0xa5, 0x93, 0xbe, 0x65, 0xa3, 0x7e, 0x3e, 0xa1, 0x44, 0x8c, 0x3e, 0x2d, 0x94, 0xaa, 0x3e, 0x41, 0xd8, 0x6d, 0x3e, 0x69, 0x06, 0x58, 0x3d, 0x90, 0x93, 0x4b, 0xbe, 0x39, 0xad, 0x86, 0xbd, 0xa9, 0x0b, 0x1a, 0xbc, 0x66, 0x16, 0x91, 0x3d, 0x91, 0xf3, 0x5a, 0x3d, 0x68, 0x1b, 0x7c, 0x3f, 0xf3, 0xab, 0xe2, 0x3e, 0x7c, 0x6a, 0xca, 0xbd, 0x92, 0x62, 0x12, 0xbe, 0xdf, 0x22, 0x75, 0x3d, 0xc8, 0x24, 0x13, 0x3c, 0x68, 0xb9, 0x35, 0x3d, 0x6e, 0x39, 0x9f, 0x3d, 0xee, 0xf3, 0x65, 0xbf, 0x41, 0xba, 0x1f, 0xbe, 0x5f, 0xa2, 0x0e, 0x3e, 0xa7, 0x87, 0xa7, 0x3d, 0x2a, 0x1a, 0x39, 0x3d, 0x56, 0xfe, 0xda, 0xbd, 0x49, 0x59, 0x76, 0xbd, 0xd9, 0x7e, 0x88, 0x3f, 0x15, 0xd1, 0x4a, 0xbd, 0x0c, 0x6e, 0xbf, 0xbe, 0x1b, 0x3c, 0x39, 0xbd, 0xdb, 0x6e, 0xfa, 0x3e, 0x65, 0xa1, 0x1f, 0xbe, 0xcc, 0xf9, 0xc9, 0xbe, 0xdc, 0x50, 0x75, 0xbd, 0x96, 0xe1, 0x1c, 0x3e, 0xf8, 0xb6, 0x20, 0x3e, 0x18, 0x08, 0x5f, 0x3e, 0x53, 0xaf, 0x3d, 0x3c, 0xef, 0x87, 0x97, 0xbf, 0x5a, 0xad, 0x28, 0x3d, 0xbd, 0x5d, 0xe9, 0xbd, 0x8a, 0xde, 0x9b, 0xbf, 0x61, 0x84, 0xad, 0x3c, 0x46, 0xfe, 0x29, 0xbd, 0x8e, 0x2d, 0x58, 0xbe, 0x4c, 0xa0, 0xc0, 0xbd, 0x50, 0x2b, 0x25, 0x3e, 0xba, 0x09, 0x83, 0x3e, 0x81, 0x0d, 0xb1, 0xbf, 0x4d, 0x46, 0x6f, 0x3e, 0x0d, 0xc2, 0x93, 0x3d, 0x20, 0x2c, 0xe0, 0xbd, 0x57, 0x2b, 0x07, 0xbf, 0xfa, 0xbd, 0x63, 0x3d, 0x84, 0xae, 0x8c, 0x3e, 0x63, 0x86, 0x76, 0x3e, 0xb3, 0xfd, 0x3a, 0xbf, 0x2a, 0x2d, 0x32, 0xbe, 0x30, 0xe6, 0x7b, 0x3e, 0xff, 0xc1, 0x21, 0xbf, 0x52, 0xcc, 0x0c, 0xbf, 0x9c, 0x61, 0x5a, 0xbd, 0x0d, 0xe7, 0xfe, 0xbd, 0x6f, 0x11, 0x39, 0xbf, 0x21, 0x8f, 0x99, 0x3e, 0xfe, 0xb9, 0xfb, 0x3e, 0xde, 0x67, 0x9d, 0x3e, 0x84, 0x06, 0xd0, 0x3c, 0xe6, 0xce, 0xaf, 0x3e, 0x18, 0x12, 0x8a, 0xbe, 0x43, 0xec, 0x08, 0x3f, 0x03, 0x4d, 0x0d, 0x3f, 0x86, 0xa3, 0xaf, 0x3e, 0xab, 0xfc, 0x62, 0x3e, 0x52, 0x92, 0x06, 0xbe, 0xc2, 0xf7, 0xf7, 0x3e, 0xb4, 0x06, 0x2f, 0xbe, 0x5e, 0x08, 0x7a, 0xbd, 0x06, 0x82, 0x07, 0xbe, 0x11, 0xfa, 0xda, 0xbe, 0x26, 0x64, 0x82, 0xbe, 0x6a, 0xa7, 0xc3, 0x3c, 0x5b, 0x7c, 0xd7, 0xbd, 0xf5, 0x6a, 0xc9, 0x3e, 0xcb, 0x41, 0x57, 0x3e, 0x10, 0xcc, 0x57, 0xbe, 0x52, 0x1b, 0xfd, 0xbd, 0xbc, 0x03, 0xe9, 0xbc, 0x85, 0xd9, 0xcb, 0xbc, 0x29, 0xf7, 0x09, 0xbd, 0xeb, 0xf2, 0xc9, 0x3d, 0x53, 0x1e, 0x9f, 0x3e, 0xa1, 0x5f, 0xce, 0x3e, 0x16, 0x5a, 0x93, 0x3e, 0x94, 0x14, 0xf7, 0x3e, 0x4e, 0x3a, 0x4c, 0xbe, 0x43, 0x4e, 0xc0, 0xbe, 0xb4, 0xba, 0x97, 0x3e, 0xa5, 0xfa, 0x43, 0xbe, 0xd2, 0x77, 0xfe, 0xbc, 0x4d, 0x3c, 0x19, 0xbe, 0x17, 0x7b, 0xce, 0x3e, 0x60, 0xbf, 0x8d, 0x3e, 0xed, 0xe7, 0xd3, 0x3e, 0xc7, 0x17, 0x63, 0xbe, 0x43, 0xab, 0xd3, 0xbd, 0xdf, 0x35, 0xd2, 0x3d, 0xd9, 0xb1, 0xb9, 0x3e, 0xa0, 0x41, 0x1e, 0xbf, 0xf7, 0xef, 0xd8, 0xbf, 0x12, 0x1a, 0xb7, 0xbc, 0xd9, 0x06, 0xdf, 0xbe, 0x75, 0xa0, 0x74, 0x3e, 0xd1, 0x32, 0x6f, 0x3f, 0xf9, 0x52, 0x0c, 0xbf, 0x39, 0x35, 0x43, 0x3c, 0x7a, 0x1f, 0x3a, 0x3f, 0x48, 0xfa, 0xf7, 0x3e, 0xba, 0x25, 0x86, 0xbe, 0xf0, 0x3b, 0xc0, 0xbe, 0x00, 0x87, 0xb6, 0x3e, 0x6e, 0x9b, 0xdf, 0xbc, 0x0b, 0x96, 0x62, 0x3f, 0xaf, 0xba, 0x42, 0x3d, 0xd8, 0x3a, 0x6c, 0xbe, 0xa3, 0x9b, 0x09, 0xbf, 0xe8, 0x78, 0xa5, 0x3e, 0x45, 0x45, 0x82, 0x3e, 0xb9, 0x9e, 0x69, 0x3e, 0x94, 0x10, 0x8d, 0xbe, 0x98, 0x34, 0x36, 0x3d, 0x9f, 0xb5, 0x4e, 0xbf, 0x24, 0x92, 0xfb, 0x3c, 0xa0, 0x2e, 0xc8, 0xbd, 0x4e, 0x50, 0x87, 0xbe, 0x77, 0xd2, 0x23, 0x3e, 0x50, 0xaf, 0x9f, 0x3d, 0x65, 0xe5, 0xa7, 0x3e, 0xef, 0x50, 0x18, 0xc0, 0xf0, 0xee, 0x78, 0x3e, 0xb0, 0x2f, 0x9b, 0x3e, 0xff, 0xea, 0xe7, 0x3d, 0x9d, 0x78, 0xd3, 0xbe, 0xf2, 0x63, 0x01, 0x3f, 0x78, 0x00, 0x88, 0xbc, 0x5e, 0x60, 0x34, 0x3e, 0xb6, 0x20, 0xd4, 0xbe, 0xd2, 0xb5, 0xb1, 0x3e, 0xa3, 0xfe, 0x5a, 0xbd, 0x84, 0x7c, 0x8d, 0xbe, 0x7e, 0x2c, 0xa0, 0x3d, 0xbf, 0x9e, 0x48, 0xbd, 0xb8, 0xd8, 0xaa, 0x3e, 0xe0, 0x9e, 0x9b, 0xbf, 0xe5, 0x8e, 0x6b, 0xbd, 0x12, 0x09, 0xd2, 0x3e, 0x4e, 0xd1, 0x8c, 0x3d, 0xeb, 0x7b, 0x3e, 0x3e, 0x98, 0x5c, 0x87, 0x3d, 0xe9, 0x01, 0x4f, 0x3d, 0x9f, 0x35, 0x74, 0x3e, 0xba, 0xce, 0x30, 0xbf, 0xd2, 0x7b, 0xb0, 0x3e, 0x19, 0x73, 0x31, 0x3e, 0x9c, 0x5f, 0x61, 0x3e, 0x4b, 0x05, 0x63, 0x3e, 0x03, 0xd1, 0x58, 0xbe, 0x99, 0x18, 0x82, 0xbf, 0xb6, 0xc0, 0x58, 0xbf, 0xcb, 0xf0, 0x2b, 0x3d, 0x8f, 0x69, 0x8f, 0xbe, 0xf6, 0xcb, 0x32, 0x3e, 0xcc, 0x37, 0x04, 0xbf, 0x17, 0xd4, 0xe1, 0xbd, 0x18, 0x29, 0xba, 0x3e, 0x3c, 0x2d, 0x93, 0x3c, 0x7a, 0x8e, 0x16, 0xbf, 0xa5, 0x25, 0x31, 0x3f, 0x50, 0x68, 0xce, 0x3d, 0xdd, 0xfc, 0x73, 0xbd, 0xf8, 0x57, 0x18, 0x3f, 0x56, 0xc9, 0xe3, 0xbd, 0xd0, 0xc3, 0x77, 0xbe, 0xa8, 0x26, 0xbd, 0xbd, 0x94, 0x43, 0xbc, 0xbe, 0xcb, 0x7e, 0xcd, 0x3d, 0xb5, 0xdb, 0x25, 0xbf, 0x5a, 0xa8, 0x39, 0xbd, 0xd7, 0xce, 0x8f, 0x3f, 0x7a, 0xc4, 0xed, 0x3c, 0x1a, 0x91, 0x69, 0x3e, 0x3a, 0x7a, 0x12, 0xbf, 0x2a, 0x8d, 0x0c, 0x3e, 0xbc, 0xaf, 0x30, 0x3d, 0x45, 0x80, 0x6c, 0xbe, 0x6e, 0x2f, 0x83, 0x3e, 0x3f, 0xac, 0x87, 0xbe, 0xc2, 0x7f, 0xec, 0x3d, 0xd3, 0xa8, 0xe1, 0xbe, 0x80, 0xd2, 0x2f, 0xbf, 0x9a, 0x44, 0x26, 0x3e, 0x90, 0xa6, 0xd2, 0xbf, 0x88, 0x3a, 0xa9, 0xbe, 0x62, 0x48, 0x01, 0x3f, 0x1b, 0x1e, 0x91, 0x3c, 0x82, 0x0d, 0x19, 0x3e, 0x18, 0x95, 0x5e, 0xbf, 0xaa, 0xb9, 0x4f, 0xbd, 0xef, 0x8c, 0x56, 0x3e, 0x2d, 0xe2, 0x74, 0x3e, 0xaf, 0xc7, 0x83, 0xbe, 0xa0, 0x60, 0x18, 0x3d, 0xf6, 0x82, 0x8d, 0xbb, 0x8e, 0xdb, 0x40, 0xbf, 0xcb, 0x5c, 0x60, 0x3f, 0xa7, 0x74, 0x81, 0x3e, 0xd3, 0xd1, 0x0e, 0x3e, 0x5d, 0xf1, 0xa4, 0x3e, 0xfd, 0x13, 0x27, 0xc0, 0x10, 0x60, 0xe6, 0xbe, 0xff, 0x7d, 0x31, 0xbe, 0x50, 0x9e, 0xe6, 0xbe, 0xb5, 0x52, 0xa1, 0xbc, 0x30, 0xb8, 0x2d, 0xbc, 0xa9, 0xce, 0xf7, 0xbe, 0x7e, 0x7e, 0x75, 0xbe, 0xba, 0x5e, 0xeb, 0x3e, 0xe4, 0xcd, 0xdd, 0xbe, 0xf4, 0x73, 0xd5, 0xbf, 0x85, 0xc8, 0xcf, 0x3d, 0xce, 0xcc, 0x49, 0x3e, 0xd2, 0x0f, 0xf0, 0x3d, 0xd2, 0xc2, 0x2c, 0xbe, 0xf5, 0x5e, 0x29, 0x3e, 0x98, 0xc2, 0x3e, 0xbf, 0x88, 0x86, 0x29, 0x3e, 0x0b, 0x46, 0x9a, 0xbf, 0x29, 0x1a, 0x10, 0xbf, 0x0c, 0x84, 0xbe, 0x3d, 0x00, 0x48, 0xf2, 0xbd, 0x27, 0xf2, 0xc5, 0xbe, 0xd2, 0x48, 0x10, 0xbe, 0x2c, 0xe8, 0x65, 0x3e, 0x4f, 0xa7, 0x09, 0xbf, 0xf8, 0xf6, 0x9e, 0x3e, 0x3a, 0xcd, 0x1a, 0xbd, 0xd3, 0x5d, 0x64, 0x3d, 0x83, 0x01, 0xde, 0x3d, 0xbe, 0x4b, 0x33, 0x3f, 0x8e, 0x89, 0xc2, 0x3e, 0x4b, 0xf9, 0x5f, 0x3d, 0x0d, 0xd7, 0x85, 0xbd, 0xad, 0x17, 0xa7, 0x3e, 0xf1, 0xa9, 0x5d, 0x3e, 0x7d, 0x0b, 0x58, 0xbe, 0x61, 0xb0, 0xf7, 0xbe, 0xca, 0x40, 0xf8, 0x3e, 0x71, 0x0c, 0xae, 0x3d, 0x59, 0x5a, 0x91, 0xbe, 0xc3, 0x2d, 0x87, 0xbf, 0x90, 0xea, 0xa3, 0x3d, 0x30, 0xb8, 0x7a, 0xbe, 0x71, 0xe7, 0x93, 0x3e, 0xcb, 0x1b, 0x10, 0x3f, 0xcf, 0xeb, 0xaf, 0x3c, 0x93, 0xb0, 0x16, 0x3e, 0x24, 0xb8, 0x63, 0xbc, 0x65, 0xf5, 0xb4, 0x3e, 0x6a, 0x39, 0x17, 0xbe, 0x1a, 0x6f, 0xeb, 0x3c, 0x99, 0x0a, 0x07, 0xbe, 0xcc, 0x5b, 0x05, 0x3e, 0x92, 0x35, 0x6c, 0x3e, 0x74, 0x9d, 0x89, 0x3c, 0xb3, 0x5f, 0x85, 0x3e, 0x4a, 0xca, 0x23, 0x3e, 0x65, 0xa0, 0x62, 0xbe, 0xb8, 0x49, 0xcb, 0x3d, 0x41, 0xd0, 0x13, 0xbd, 0x16, 0xff, 0xe1, 0x3e, 0x5d, 0xe0, 0xaa, 0xbe, 0xdb, 0xd8, 0x21, 0xbf, 0xe7, 0x60, 0x0c, 0xbf, 0x49, 0x4c, 0x0f, 0x3d, 0xe6, 0x62, 0x17, 0x3c, 0x07, 0x10, 0x94, 0xbe, 0x6a, 0xbc, 0x21, 0x3e, 0xd1, 0x9e, 0x9b, 0x3e, 0xb1, 0x5f, 0x10, 0xbf, 0x4c, 0x41, 0x1d, 0xbc, 0x8e, 0xc7, 0x35, 0xbe, 0x27, 0x0c, 0xd4, 0x3e, 0x2a, 0xc0, 0x03, 0xbc, 0xdf, 0x0b, 0xb1, 0x3e, 0x2d, 0xee, 0x18, 0x3e, 0xe5, 0x5c, 0x20, 0x3e, 0x44, 0x33, 0x48, 0x3f, 0xe1, 0xad, 0x7e, 0xbe, 0x46, 0x6c, 0x85, 0x3d, 0x21, 0x79, 0xda, 0xbb, 0x9d, 0xbb, 0x95, 0x3e, 0xf2, 0xef, 0x66, 0x3e, 0x36, 0x78, 0x51, 0xbd, 0x32, 0xf6, 0x0b, 0x3f, 0x1d, 0xf1, 0x76, 0xbf, 0xea, 0xfe, 0x2c, 0xbe, 0x42, 0x53, 0x22, 0x3d, 0xb9, 0x6d, 0xbb, 0xbd, 0x1c, 0xea, 0x13, 0x3f, 0x9f, 0xfc, 0x58, 0xbe, 0x67, 0xb4, 0xf5, 0xbc, 0xdc, 0x1f, 0x68, 0x3f, 0x1b, 0x73, 0xbb, 0xbe, 0x8d, 0xee, 0x1b, 0x3e, 0x9c, 0x9d, 0x08, 0x3e, 0x22, 0x31, 0x12, 0xbf, 0x03, 0x6d, 0x29, 0xbe, 0x39, 0x6e, 0x26, 0x3e, 0xec, 0x39, 0xc6, 0xbd, 0xd0, 0x7b, 0xdb, 0xbe, 0x23, 0x12, 0xff, 0x3e, 0x72, 0x9d, 0xb4, 0x3e, 0xbc, 0x63, 0x1f, 0xbf, 0x29, 0x52, 0x43, 0xc0, 0x6b, 0x5a, 0x84, 0x3e, 0x56, 0x63, 0xa3, 0x3d, 0xf5, 0xc9, 0x47, 0x3f, 0xe4, 0x91, 0x22, 0xbe, 0x01, 0x7a, 0x07, 0x3d, 0xf6, 0x24, 0x33, 0x3e, 0xd6, 0xad, 0x3e, 0x3d, 0xd0, 0x78, 0x2c, 0xbe, 0xc4, 0xe2, 0xa3, 0x3e, 0xac, 0x72, 0x30, 0x3e, 0x0d, 0xe8, 0x3c, 0x3e, 0xdd, 0xb2, 0x8c, 0xbe, 0x0e, 0x0c, 0x51, 0x3f, 0x9e, 0x85, 0x83, 0x3d, 0xef, 0x76, 0x45, 0xbe, 0x02, 0xea, 0x36, 0x3e, 0x55, 0x3c, 0xfc, 0x3d, 0x9f, 0x22, 0x77, 0x3f, 0x75, 0x7e, 0xcf, 0x3d, 0x73, 0xe1, 0xff, 0x3d, 0x8d, 0x38, 0x15, 0x3e, 0xc2, 0x07, 0x76, 0x3e, 0xaa, 0xfd, 0xd5, 0xbc, 0x81, 0x66, 0xd4, 0xbd, 0xc2, 0x22, 0x02, 0x3e, 0x11, 0xeb, 0xc5, 0xbe, 0xdb, 0xf1, 0xda, 0xbd, 0x27, 0x1a, 0x02, 0x3c, 0xe8, 0xfc, 0x3a, 0x3e, 0x32, 0x7e, 0x1d, 0x3f, 0x0a, 0xca, 0x8f, 0xbe, 0x80, 0xe6, 0x20, 0x3e, 0x3b, 0x59, 0x25, 0xbf, 0x64, 0x3b, 0x3e, 0x3e, 0xdf, 0xe6, 0x4f, 0x3e, 0xf9, 0xf6, 0x4e, 0x3e, 0xf4, 0x76, 0xda, 0x3d, 0x24, 0x1c, 0x2f, 0xbe, 0x49, 0xdf, 0x9e, 0xbd, 0xdc, 0x69, 0xee, 0xbe, 0x85, 0xbe, 0xdc, 0xbd, 0x57, 0x2c, 0xdf, 0x3e, 0x58, 0x86, 0xca, 0xbd, 0x94, 0x22, 0xa3, 0x3e, 0x16, 0xf9, 0xc1, 0x3d, 0x4d, 0x89, 0x44, 0xbf, 0x3e, 0xff, 0xff, 0xff, 0x04, 0x00, 0x00, 0x00, 0xa4, 0x00, 0x00, 0x00, 0xca, 0xab, 0x26, 0x3e, 0x95, 0x74, 0x45, 0x3e, 0x9b, 0xc9, 0xbf, 0xbc, 0x24, 0xde, 0x0f, 0x3e, 0xad, 0xff, 0xd0, 0x3d, 0xf9, 0x5c, 0x72, 0xbd, 0x9a, 0x4d, 0x86, 0x3d, 0x83, 0x4e, 0xba, 0xbd, 0x58, 0x2b, 0x96, 0x3b, 0x88, 0x80, 0xcf, 0x3d, 0x0d, 0x16, 0x09, 0xbc, 0x4b, 0xab, 0x59, 0x3e, 0x70, 0xe2, 0x1e, 0x3e, 0x53, 0x74, 0x85, 0x3d, 0x19, 0x6d, 0x94, 0xbd, 0xc2, 0xa2, 0xdf, 0x3c, 0x09, 0x31, 0x42, 0x3e, 0x02, 0xfe, 0x35, 0xbe, 0x33, 0xef, 0xba, 0xbe, 0xcd, 0xff, 0x03, 0x3e, 0x5a, 0x59, 0x33, 0xbd, 0xd7, 0xae, 0x78, 0xbd, 0x3e, 0xbf, 0x1c, 0x3e, 0x4a, 0x9d, 0xb4, 0x3d, 0x3d, 0x1e, 0x96, 0xbd, 0xe9, 0x24, 0x74, 0xbe, 0x58, 0x5a, 0xff, 0xbc, 0xea, 0x9e, 0x15, 0x3e, 0x5d, 0x95, 0xfd, 0xbb, 0xa8, 0x96, 0xbc, 0xbc, 0x06, 0x5b, 0xea, 0x3d, 0xb7, 0xa3, 0x35, 0xbe, 0xa9, 0x80, 0xb0, 0xbb, 0x86, 0x29, 0xcb, 0xb9, 0x96, 0x94, 0x00, 0x3e, 0xdd, 0x06, 0xa5, 0x3d, 0x07, 0x3d, 0x76, 0xbe, 0x2b, 0x39, 0x92, 0x3e, 0x8f, 0x23, 0x81, 0x3d, 0x94, 0xc6, 0x44, 0xbe, 0x98, 0x2a, 0xfa, 0x3c, 0xee, 0xff, 0xff, 0xff, 0x04, 0x00, 0x00, 0x00, 0x04, 0x00, 0x00, 0x00, 0x89, 0xc0, 0x2b, 0xbd, 0x00, 0x00, 0x06, 0x00, 0x08, 0x00, 0x04, 0x00, 0x06, 0x00, 0x00, 0x00, 0x04, 0x00, 0x00, 0x00, 0x50, 0x00, 0x00, 0x00, 0xd4, 0x9a, 0x9f, 0xbc, 0xc7, 0x98, 0x24, 0x3e, 0x84, 0x56, 0x11, 0xbe, 0xca, 0xeb, 0xd6, 0xbd, 0x26, 0x69, 0x3d, 0x3e, 0x17, 0x96, 0x20, 0x3e, 0x23, 0xb9, 0x91, 0xbd, 0x60, 0xf7, 0x08, 0x3e, 0x45, 0x12, 0x92, 0xbd, 0x9a, 0xc6, 0x21, 0xbe, 0xca, 0x95, 0xb8, 0xbd, 0xc6, 0xab, 0x1c, 0x3e, 0x1c, 0xa2, 0x87, 0xbd, 0xaf, 0xb0, 0x3a, 0x3c, 0x2f, 0x19, 0x10, 0x3e, 0xd5, 0xfb, 0x0e, 0x3e, 0xb1, 0x4b, 0xa0, 0x3b, 0xae, 0x9b, 0x0b, 0x3e, 0x10, 0x94, 0x21, 0x3e, 0xa0, 0x78, 0x4b, 0xbd, 0x78, 0xfa, 0xff, 0xff, 0x7c, 0xfa, 0xff, 0xff, 0x0f, 0x00, 0x00, 0x00, 0x4d, 0x4c, 0x49, 0x52, 0x20, 0x43, 0x6f, 0x6e, 0x76, 0x65, 0x72, 0x74, 0x65, 0x64, 0x2e, 0x00, 0x01, 0x00, 0x00, 0x00, 0x14, 0x00, 0x00, 0x00, 0x00, 0x00, 0x0e, 0x00, 0x18, 0x00, 0x14, 0x00, 0x10, 0x00, 0x0c, 0x00, 0x08, 0x00, 0x04, 0x00, 0x0e, 0x00, 0x00, 0x00, 0x14, 0x00, 0x00, 0x00, 0x1c, 0x00, 0x00, 0x00, 0x08, 0x01, 0x00, 0x00, 0x0c, 0x01, 0x00, 0x00, 0x10, 0x01, 0x00, 0x00, 0x04, 0x00, 0x00, 0x00, 0x6d, 0x61, 0x69, 0x6e, 0x00, 0x00, 0x00, 0x00, 0x04, 0x00, 0x00, 0x00, 0xb0, 0x00, 0x00, 0x00, 0x68, 0x00, 0x00, 0x00, 0x34, 0x00, 0x00, 0x00, 0x10, 0x00, 0x00, 0x00, 0x00, 0x00, 0x0a, 0x00, 0x10, 0x00, 0x0c, 0x00, 0x08, 0x00, 0x04, 0x00, 0x0a, 0x00, 0x00, 0x00, 0x0c, 0x00, 0x00, 0x00, 0x10, 0x00, 0x00, 0x00, 0x01, 0x00, 0x00, 0x00, 0x01, 0x00, 0x00, 0x00, 0x0a, 0x00, 0x00, 0x00, 0x01, 0x00, 0x00, 0x00, 0x09, 0x00, 0x00, 0x00, 0x9a, 0xff, 0xff, 0xff, 0x10, 0x00, 0x00, 0x00, 0x00, 0x00, 0x00, 0x08, 0x0c, 0x00, 0x00, 0x00, 0x10, 0x00, 0x00, 0x00, 0x24, 0xfb, 0xff, 0xff, 0x01, 0x00, 0x00, 0x00, 0x09, 0x00, 0x00, 0x00, 0x03, 0x00, 0x00, 0x00, 0x08, 0x00, 0x00, 0x00, 0x06, 0x00, 0x00, 0x00, 0x02, 0x00, 0x00, 0x00, 0xca, 0xff, 0xff, 0xff, 0x10, 0x00, 0x00, 0x00, 0x00, 0x00, 0x00, 0x08, 0x10, 0x00, 0x00, 0x00, 0x14, 0x00, 0x00, 0x00, 0xba, 0xff, 0xff, 0xff, 0x00, 0x00, 0x00, 0x01, 0x01, 0x00, 0x00, 0x00, 0x08, 0x00, 0x00, 0x00, 0x03, 0x00, 0x00, 0x00, 0x07, 0x00, 0x00, 0x00, 0x05, 0x00, 0x00, 0x00, 0x01, 0x00, 0x00, 0x00, 0x00, 0x00, 0x0e, 0x00, 0x16, 0x00, 0x00, 0x00, 0x10, 0x00, 0x0c, 0x00, 0x0b, 0x00, 0x04, 0x00, 0x0e, 0x00, 0x00, 0x00, 0x18, 0x00, 0x00, 0x00, 0x00, 0x00, 0x00, 0x08, 0x18, 0x00, 0x00, 0x00, 0x1c, 0x00, 0x00, 0x00, 0x00, 0x00, 0x06, 0x00, 0x08, 0x00, 0x07, 0x00, 0x06, 0x00, 0x00, 0x00, 0x00, 0x00, 0x00, 0x01, 0x01, 0x00, 0x00, 0x00, 0x07, 0x00, 0x00, 0x00, 0x03, 0x00, 0x00, 0x00, 0x00, 0x00, 0x00, 0x00, 0x04, 0x00, 0x00, 0x00, 0x03, 0x00, 0x00, 0x00, 0x01, 0x00, 0x00, 0x00, 0x0a, 0x00, 0x00, 0x00, 0x01, 0x00, 0x00, 0x00, 0x00, 0x00, 0x00, 0x00, 0x0b, 0x00, 0x00, 0x00, 0x04, 0x04, 0x00, 0x00, 0x94, 0x03, 0x00, 0x00, 0x24, 0x03, 0x00, 0x00, 0xd0, 0x02, 0x00, 0x00, 0x88, 0x02, 0x00, 0x00, 0x3c, 0x02, 0x00, 0x00, 0xf0, 0x01, 0x00, 0x00, 0x68, 0x01, 0x00, 0x00, 0xd8, 0x00, 0x00, 0x00, 0x60, 0x00, 0x00, 0x00, 0x04, 0x00, 0x00, 0x00, 0x3e, 0xfc, 0xff, 0xff, 0x00, 0x00, 0x00, 0x01, 0x14, 0x00, 0x00, 0x00, 0x1c, 0x00, 0x00, 0x00, 0x1c, 0x00, 0x00, 0x00, 0x0b, 0x00, 0x00, 0x00, 0x34, 0x00, 0x00, 0x00, 0x02, 0x00, 0x00, 0x00, 0xff, 0xff, 0xff, 0xff, 0x01, 0x00, 0x00, 0x00, 0x28, 0xfc, 0xff, 0xff, 0x19, 0x00, 0x00, 0x00, 0x53, 0x74, 0x61, 0x74, 0x65, 0x66, 0x75, 0x6c, 0x50, 0x61, 0x72, 0x74, 0x69, 0x74, 0x69, 0x6f, 0x6e, 0x65, 0x64, 0x43, 0x61, 0x6c, 0x6c, 0x3a, 0x30, 0x00, 0x00, 0x00, 0x02, 0x00, 0x00, 0x00, 0x01, 0x00, 0x00, 0x00, 0x01, 0x00, 0x00, 0x00, 0x96, 0xfc, 0xff, 0xff, 0x00, 0x00, 0x00, 0x01, 0x14, 0x00, 0x00, 0x00, 0x1c, 0x00, 0x00, 0x00, 0x1c, 0x00, 0x00, 0x00, 0x0a, 0x00, 0x00, 0x00, 0x50, 0x00, 0x00, 0x00, 0x02, 0x00, 0x00, 0x00, 0xff, 0xff, 0xff, 0xff, 0x01, 0x00, 0x00, 0x00, 0x80, 0xfc, 0xff, 0xff, 0x34, 0x00, 0x00, 0x00, 0x73, 0x65, 0x71, 0x75, 0x65, 0x6e, 0x74, 0x69, 0x61, 0x6c, 0x2f, 0x64, 0x65, 0x6e, 0x73, 0x65, 0x5f, 0x32, 0x2f, 0x4d, 0x61, 0x74, 0x4d, 0x75, 0x6c, 0x3b, 0x73, 0x65, 0x71, 0x75, 0x65, 0x6e, 0x74, 0x69, 0x61, 0x6c, 0x2f, 0x64, 0x65, 0x6e, 0x73, 0x65, 0x5f, 0x32, 0x2f, 0x42, 0x69, 0x61, 0x73, 0x41, 0x64, 0x64, 0x00, 0x00, 0x00, 0x00, 0x02, 0x00, 0x00, 0x00, 0x01, 0x00, 0x00, 0x00, 0x01, 0x00, 0x00, 0x00, 0x0a, 0xfd, 0xff, 0xff, 0x00, 0x00, 0x00, 0x01, 0x14, 0x00, 0x00, 0x00, 0x1c, 0x00, 0x00, 0x00, 0x1c, 0x00, 0x00, 0x00, 0x09, 0x00, 0x00, 0x00, 0x68, 0x00, 0x00, 0x00, 0x02, 0x00, 0x00, 0x00, 0xff, 0xff, 0xff, 0xff, 0x14, 0x00, 0x00, 0x00, 0xf4, 0xfc, 0xff, 0xff, 0x4c, 0x00, 0x00, 0x00, 0x73, 0x65, 0x71, 0x75, 0x65, 0x6e, 0x74, 0x69, 0x61, 0x6c, 0x2f, 0x64, 0x65, 0x6e, 0x73, 0x65, 0x5f, 0x31, 0x2f, 0x4d, 0x61, 0x74, 0x4d, 0x75, 0x6c, 0x3b, 0x73, 0x65, 0x71, 0x75, 0x65, 0x6e, 0x74, 0x69, 0x61, 0x6c, 0x2f, 0x64, 0x65, 0x6e, 0x73, 0x65, 0x5f, 0x31, 0x2f, 0x52, 0x65, 0x6c, 0x75, 0x3b, 0x73, 0x65, 0x71, 0x75, 0x65, 0x6e, 0x74, 0x69, 0x61, 0x6c, 0x2f, 0x64, 0x65, 0x6e, 0x73, 0x65, 0x5f, 0x31, 0x2f, 0x42, 0x69, 0x61, 0x73, 0x41, 0x64, 0x64, 0x00, 0x00, 0x00, 0x00, 0x02, 0x00, 0x00, 0x00, 0x01, 0x00, 0x00, 0x00, 0x14, 0x00, 0x00, 0x00, 0x96, 0xfd, 0xff, 0xff, 0x00, 0x00, 0x00, 0x01, 0x14, 0x00, 0x00, 0x00, 0x1c, 0x00, 0x00, 0x00, 0x1c, 0x00, 0x00, 0x00, 0x08, 0x00, 0x00, 0x00, 0x60, 0x00, 0x00, 0x00, 0x02, 0x00, 0x00, 0x00, 0xff, 0xff, 0xff, 0xff, 0x29, 0x00, 0x00, 0x00, 0x80, 0xfd, 0xff, 0xff, 0x46, 0x00, 0x00, 0x00, 0x73, 0x65, 0x71, 0x75, 0x65, 0x6e, 0x74, 0x69, 0x61, 0x6c, 0x2f, 0x64, 0x65, 0x6e, 0x73, 0x65, 0x2f, 0x4d, 0x61, 0x74, 0x4d, 0x75, 0x6c, 0x3b, 0x73, 0x65, 0x71, 0x75, 0x65, 0x6e, 0x74, 0x69, 0x61, 0x6c, 0x2f, 0x64, 0x65, 0x6e, 0x73, 0x65, 0x2f, 0x52, 0x65, 0x6c, 0x75, 0x3b, 0x73, 0x65, 0x71, 0x75, 0x65, 0x6e, 0x74, 0x69, 0x61, 0x6c, 0x2f, 0x64, 0x65, 0x6e, 0x73, 0x65, 0x2f, 0x42, 0x69, 0x61, 0x73, 0x41, 0x64, 0x64, 0x00, 0x00, 0x02, 0x00, 0x00, 0x00, 0x01, 0x00, 0x00, 0x00, 0x29, 0x00, 0x00, 0x00, 0x86, 0xfe, 0xff, 0xff, 0x00, 0x00, 0x00, 0x01, 0x10, 0x00, 0x00, 0x00, 0x10, 0x00, 0x00, 0x00, 0x07, 0x00, 0x00, 0x00, 0x28, 0x00, 0x00, 0x00, 0xf4, 0xfd, 0xff, 0xff, 0x19, 0x00, 0x00, 0x00, 0x73, 0x65, 0x71, 0x75, 0x65, 0x6e, 0x74, 0x69, 0x61, 0x6c, 0x2f, 0x64, 0x65, 0x6e, 0x73, 0x65, 0x5f, 0x32, 0x2f, 0x4d, 0x61, 0x74, 0x4d, 0x75, 0x6c, 0x00, 0x00, 0x00, 0x02, 0x00, 0x00, 0x00, 0x01, 0x00, 0x00, 0x00, 0x14, 0x00, 0x00, 0x00, 0xce, 0xfe, 0xff, 0xff, 0x00, 0x00, 0x00, 0x01, 0x10, 0x00, 0x00, 0x00, 0x10, 0x00, 0x00, 0x00, 0x06, 0x00, 0x00, 0x00, 0x28, 0x00, 0x00, 0x00, 0x3c, 0xfe, 0xff, 0xff, 0x19, 0x00, 0x00, 0x00, 0x73, 0x65, 0x71, 0x75, 0x65, 0x6e, 0x74, 0x69, 0x61, 0x6c, 0x2f, 0x64, 0x65, 0x6e, 0x73, 0x65, 0x5f, 0x31, 0x2f, 0x4d, 0x61, 0x74, 0x4d, 0x75, 0x6c, 0x00, 0x00, 0x00, 0x02, 0x00, 0x00, 0x00, 0x14, 0x00, 0x00, 0x00, 0x29, 0x00, 0x00, 0x00, 0x16, 0xff, 0xff, 0xff, 0x00, 0x00, 0x00, 0x01, 0x10, 0x00, 0x00, 0x00, 0x10, 0x00, 0x00, 0x00, 0x05, 0x00, 0x00, 0x00, 0x24, 0x00, 0x00, 0x00, 0x84, 0xfe, 0xff, 0xff, 0x17, 0x00, 0x00, 0x00, 0x73, 0x65, 0x71, 0x75, 0x65, 0x6e, 0x74, 0x69, 0x61, 0x6c, 0x2f, 0x64, 0x65, 0x6e, 0x73, 0x65, 0x2f, 0x4d, 0x61, 0x74, 0x4d, 0x75, 0x6c, 0x00, 0x02, 0x00, 0x00, 0x00, 0x29, 0x00, 0x00, 0x00, 0x0f, 0x00, 0x00, 0x00, 0x5a, 0xff, 0xff, 0xff, 0x00, 0x00, 0x00, 0x01, 0x10, 0x00, 0x00, 0x00, 0x10, 0x00, 0x00, 0x00, 0x04, 0x00, 0x00, 0x00, 0x34, 0x00, 0x00, 0x00, 0xc8, 0xfe, 0xff, 0xff, 0x27, 0x00, 0x00, 0x00, 0x73, 0x65, 0x71, 0x75, 0x65, 0x6e, 0x74, 0x69, 0x61, 0x6c, 0x2f, 0x64, 0x65, 0x6e, 0x73, 0x65, 0x2f, 0x42, 0x69, 0x61, 0x73, 0x41, 0x64, 0x64, 0x2f, 0x52, 0x65, 0x61, 0x64, 0x56, 0x61, 0x72, 0x69, 0x61, 0x62, 0x6c, 0x65, 0x4f, 0x70, 0x00, 0x01, 0x00, 0x00, 0x00, 0x29, 0x00, 0x00, 0x00, 0xaa, 0xff, 0xff, 0xff, 0x00, 0x00, 0x00, 0x01, 0x10, 0x00, 0x00, 0x00, 0x10, 0x00, 0x00, 0x00, 0x03, 0x00, 0x00, 0x00, 0x38, 0x00, 0x00, 0x00, 0x18, 0xff, 0xff, 0xff, 0x29, 0x00, 0x00, 0x00, 0x73, 0x65, 0x71, 0x75, 0x65, 0x6e, 0x74, 0x69, 0x61, 0x6c, 0x2f, 0x64, 0x65, 0x6e, 0x73, 0x65, 0x5f, 0x32, 0x2f, 0x42, 0x69, 0x61, 0x73, 0x41, 0x64, 0x64, 0x2f, 0x52, 0x65, 0x61, 0x64, 0x56, 0x61, 0x72, 0x69, 0x61, 0x62, 0x6c, 0x65, 0x4f, 0x70, 0x00, 0x00, 0x00, 0x01, 0x00, 0x00, 0x00, 0x01, 0x00, 0x00, 0x00, 0x00, 0x00, 0x16, 0x00, 0x18, 0x00, 0x14, 0x00, 0x00, 0x00, 0x10, 0x00, 0x0c, 0x00, 0x08, 0x00, 0x00, 0x00, 0x00, 0x00, 0x00, 0x00, 0x07, 0x00, 0x16, 0x00, 0x00, 0x00, 0x00, 0x00, 0x00, 0x01, 0x10, 0x00, 0x00, 0x00, 0x10, 0x00, 0x00, 0x00, 0x02, 0x00, 0x00, 0x00, 0x38, 0x00, 0x00, 0x00, 0x84, 0xff, 0xff, 0xff, 0x29, 0x00, 0x00, 0x00, 0x73, 0x65, 0x71, 0x75, 0x65, 0x6e, 0x74, 0x69, 0x61, 0x6c, 0x2f, 0x64, 0x65, 0x6e, 0x73, 0x65, 0x5f, 0x31, 0x2f, 0x42, 0x69, 0x61, 0x73, 0x41, 0x64, 0x64, 0x2f, 0x52, 0x65, 0x61, 0x64, 0x56, 0x61, 0x72, 0x69, 0x61, 0x62, 0x6c, 0x65, 0x4f, 0x70, 0x00, 0x00, 0x00, 0x01, 0x00, 0x00, 0x00, 0x14, 0x00, 0x00, 0x00, 0x00, 0x00, 0x16, 0x00, 0x1c, 0x00, 0x18, 0x00, 0x00, 0x00, 0x14, 0x00, 0x10, 0x00, 0x0c, 0x00, 0x00, 0x00, 0x00, 0x00, 0x08, 0x00, 0x07, 0x00, 0x16, 0x00, 0x00, 0x00, 0x00, 0x00, 0x00, 0x01, 0x14, 0x00, 0x00, 0x00, 0x20, 0x00, 0x00, 0x00, 0x20, 0x00, 0x00, 0x00, 0x01, 0x00, 0x00, 0x00, 0x3c, 0x00, 0x00, 0x00, 0x02, 0x00, 0x00, 0x00, 0xff, 0xff, 0xff, 0xff, 0x0f, 0x00, 0x00, 0x00, 0x04, 0x00, 0x04, 0x00, 0x04, 0x00, 0x00, 0x00, 0x1d, 0x00, 0x00, 0x00, 0x73, 0x65, 0x72, 0x76, 0x69, 0x6e, 0x67, 0x5f, 0x64, 0x65, 0x66, 0x61, 0x75, 0x6c, 0x74, 0x5f, 0x64, 0x65, 0x6e, 0x73, 0x65, 0x5f, 0x69, 0x6e, 0x70, 0x75, 0x74, 0x3a, 0x30, 0x00, 0x00, 0x00, 0x02, 0x00, 0x00, 0x00, 0x01, 0x00, 0x00, 0x00, 0x0f, 0x00, 0x00, 0x00, 0x02, 0x00, 0x00, 0x00, 0x20, 0x00, 0x00, 0x00, 0x04, 0x00, 0x00, 0x00, 0xf4, 0xff, 0xff, 0xff, 0x0e, 0x00, 0x00, 0x00, 0x00, 0x00, 0x00, 0x0e, 0x0c, 0x00, 0x0c, 0x00, 0x0b, 0x00, 0x00, 0x00, 0x00, 0x00, 0x04, 0x00, 0x0c, 0x00, 0x00, 0x00, 0x09, 0x00, 0x00, 0x00, 0x00, 0x00, 0x00, 0x09 };